[PAD]
[unused1]
[unused2]
[unused3]
[unused4]
[unused5]
[unused6]
[unused7]
[unused8]
[unused9]
[unused10]
[unused11]
[unused12]
[unused13]
[unused14]
[unused15]
[unused16]
[unused17]
[unused18]
[unused19]
[unused20]
[unused21]
[unused22]
[unused23]
[unused24]
[unused25]
[unused26]
[unused27]
[unused28]
[unused29]
[unused30]
[unused31]
[unused32]
[unused33]
[unused34]
[unused35]
[unused36]
[unused37]
[unused38]
[unused39]
[unused40]
[unused41]
[unused42]
[unused43]
[unused44]
[unused45]
[unused46]
[unused47]
[unused48]
[unused49]
[unused50]
[unused51]
[unused52]
[unused53]
[unused54]
[unused55]
[unused56]
[unused57]
[unused58]
[unused59]
[unused60]
[unused61]
[unused62]
[unused63]
[unused64]
[unused65]
[unused66]
[unused67]
[unused68]
[unused69]
[unused70]
[unused71]
[unused72]
[unused73]
[unused74]
[unused75]
[unused76]
[unused77]
[unused78]
[unused79]
[unused80]
[unused81]
[unused82]
[unused83]
[unused84]
[unused85]
[unused86]
[unused87]
[unused88]
[unused89]
[unused90]
[unused91]
[unused92]
[unused93]
[unused94]
[unused95]
[unused96]
[unused97]
[unused98]
[unused99]
[UNK]
[CLS]
[SEP]
[MASK]
[unused100]
[unused101]
!
"
#
$
%
&
'
(
)
*
+
,
-
.
/
0
1
2
3
4
5
6
7
8
9
:
;
<
=
>
?
@
A
B
C
D
E
F
G
H
I
J
K
L
M
N
O
P
Q
R
S
T
U
V
W
X
Y
Z
[
\
]
^
_
`
a
b
c
d
e
f
g
h
i
j
k
l
m
n
o
p
q
r
s
t
u
v
w
x
y
z
{
|
}
~
¡
¢
£
¥
§
¨
©
ª
«
¬
®
°
±
²
³
´
µ
¶
·
¹
º
»
¼
½
¾
¿
À
Á
Â
Ä
Å
Æ
Ç
È
É
Í
Î
Ñ
Ó
Ö
×
Ø
Ú
Ü
Þ
ß
à
á
â
ã
ä
å
æ
ç
è
é
ê
ë
ì
í
î
ï
ð
ñ
ò
ó
ô
õ
ö
÷
ø
ù
ú
û
ü
ý
þ
ÿ
Ā
ā
ă
ą
Ć
ć
Č
č
ď
Đ
đ
ē
ė
ę
ě
ğ
ġ
Ħ
ħ
ĩ
Ī
ī
İ
ı
ļ
Ľ
ľ
Ł
ł
ń
ņ
ň
ŋ
Ō
ō
ŏ
ő
Œ
œ
ř
Ś
ś
Ş
ş
Š
š
Ţ
ţ
ť
ũ
ū
ŭ
ů
ű
ų
ŵ
ŷ
ź
Ż
ż
Ž
ž
Ə
ƒ
ơ
ư
ǎ
ǐ
ǒ
ǔ
ǫ
Ș
ș
Ț
ț
ɐ
ɑ
ɔ
ɕ
ə
ɛ
ɡ
ɣ
ɨ
ɪ
ɲ
ɾ
ʀ
ʁ
ʂ
ʃ
ʊ
ʋ
ʌ
ʐ
ʑ
ʒ
ʔ
ʰ
ʲ
ʳ
ʷ
ʻ
ʼ
ʾ
ʿ
ˈ
ː
ˡ
ˢ
ˣ
́
̃
̍
̯
͡
Α
Β
Γ
Δ
Ε
Η
Θ
Ι
Κ
Λ
Μ
Ν
Ο
Π
Σ
Τ
Φ
Χ
Ψ
Ω
ά
έ
ή
ί
α
β
γ
δ
ε
ζ
η
θ
ι
κ
λ
μ
ν
ξ
ο
π
ρ
ς
σ
τ
υ
φ
χ
ψ
ω
ό
ύ
ώ
І
Ј
А
Б
В
Г
Д
Е
Ж
З
И
К
Л
М
Н
О
П
Р
С
Т
У
Ф
Х
Ц
Ч
Ш
Э
Ю
Я
а
б
в
г
д
е
ж
з
и
й
к
л
м
н
о
п
р
с
т
у
ф
х
ц
ч
ш
щ
ъ
ы
ь
э
ю
я
ё
і
ї
ј
њ
ћ
Ա
Հ
ա
ե
ի
կ
մ
յ
ն
ո
ս
տ
ր
ւ
ְ
ִ
ֵ
ֶ
ַ
ָ
ֹ
ּ
א
ב
ג
ד
ה
ו
ז
ח
ט
י
כ
ל
ם
מ
ן
נ
ס
ע
פ
צ
ק
ר
ש
ת
،
ء
آ
أ
إ
ئ
ا
ب
ة
ت
ث
ج
ح
خ
د
ذ
ر
ز
س
ش
ص
ض
ط
ظ
ع
غ
ف
ق
ك
ل
م
ن
ه
و
ى
ي
َ
ِ
ٹ
پ
چ
ک
گ
ہ
ی
ے
ं
आ
क
ग
च
ज
ण
त
द
ध
न
प
ब
भ
म
य
र
ल
व
श
ष
स
ह
ा
ि
ी
ु
े
ो
्
।
॥
আ
ই
এ
ও
ক
খ
গ
চ
ছ
জ
ট
ত
থ
দ
ধ
ন
প
ব
ম
য
র
ল
শ
স
হ
়
া
ি
ী
ু
ে
ো
্
য়
க
த
ப
ம
ய
ர
ல
வ
ா
ி
ு
்
ร
་
ག
ང
ད
ན
བ
མ
ར
ལ
ས
ི
ུ
ེ
ོ
ა
ე
ი
ლ
ნ
ო
რ
ს
ᴬ
ᴵ
ᵀ
ᵃ
ᵇ
ᵈ
ᵉ
ᵍ
ᵏ
ᵐ
ᵒ
ᵖ
ᵗ
ᵘ
ᵢ
ᵣ
ᵤ
ᵥ
ᶜ
ᶠ
ḍ
Ḥ
ḥ
Ḩ
ḩ
ḳ
ṃ
ṅ
ṇ
ṛ
ṣ
ṭ
ạ
ả
ấ
ầ
ẩ
ậ
ắ
ế
ề
ể
ễ
ệ
ị
ọ
ố
ồ
ổ
ộ
ớ
ờ
ợ
ụ
ủ
ứ
ừ
ử
ữ
ự
ỳ
ỹ
ἀ
ἐ
ὁ
ὐ
ὰ
ὶ
ὸ
ῆ
ῖ
ῦ
ῶ
‐
‑
‒
–
—
―
‖
‘
’
‚
“
”
„
†
‡
•
…
‰
′
″
⁄
⁰
ⁱ
⁴
⁵
⁶
⁷
⁸
⁹
⁺
⁻
ⁿ
₀
₁
₂
₃
₄
₅
₆
₇
₈
₉
₊
₍
₎
ₐ
ₑ
ₒ
ₓ
ₕ
ₖ
ₘ
ₙ
ₚ
ₛ
ₜ
₤
€
₱
₹
ℓ
№
ℝ
⅓
←
↑
→
↔
⇌
⇒
∂
∈
−
∗
∘
√
∞
∧
∨
∩
∪
≈
≠
≡
≤
≥
⊂
⊆
⊕
⋅
─
│
■
●
★
☆
☉
♠
♣
♥
♦
♭
♯
⟨
⟩
ⱼ
、
。
《
》
「
」
『
』
〜
い
う
え
お
か
き
く
け
こ
さ
し
す
せ
そ
た
ち
つ
て
と
な
に
の
は
ひ
ま
み
む
め
も
や
ゆ
よ
ら
り
る
れ
ん
ア
ィ
イ
ウ
エ
オ
カ
ガ
キ
ク
グ
コ
サ
シ
ジ
ス
ズ
タ
ダ
ッ
テ
デ
ト
ド
ナ
ニ
ハ
バ
パ
フ
ブ
プ
マ
ミ
ム
ャ
ュ
ラ
リ
ル
レ
ロ
ン
・
ー
一
三
上
下
中
事
二
井
京
人
亻
仁
佐
侍
光
公
力
北
十
南
原
口
史
司
吉
同
和
囗
国
國
土
城
士
大
天
太
夫
女
子
宀
安
宮
宿
小
尚
山
島
川
州
平
年
心
愛
戸
文
新
方
日
明
星
書
月
木
本
李
村
東
松
林
正
武
氏
水
氵
江
河
海
版
犬
王
生
田
白
皇
省
真
石
社
神
竹
美
義
花
藤
西
谷
車
辶
道
郎
郡
部
野
金
長
門
陽
青
食
馬
高
龍
龸
사
씨
의
이
한
ﬁ
ﬂ
！
（
）
，
－
／
：
the
of
and
to
in
was
The
is
for
as
on
with
that
##s
his
by
he
at
from
it
her
He
had
an
were
you
be
In
she
are
but
which
It
not
or
have
my
him
one
this
me
has
also
up
their
first
out
who
been
they
She
into
all
would
its
##ing
time
two
##a
##e
said
about
when
over
more
other
can
after
back
them
then
##ed
there
like
so
only
##n
could
##d
##i
##y
what
no
##o
where
This
made
than
if
You
##ly
through
we
before
##r
just
some
##er
years
do
New
##t
down
between
new
now
will
three
most
On
around
year
used
such
being
well
during
They
know
against
under
later
did
part
known
off
while
His
re
...
##l
people
until
way
American
didn
University
your
both
many
get
United
became
head|C0018670|ANAT
There
second
As
work|C0043227|ACTI
any
But
still
again
born|C0005615|PHYS
even
eyes|C0015392|ANAT
After
including
de
took
And
long
team
season
family
see
right
same
called
name
because
film|C1704608|CHEM
don
10
found
much
school
##es
going
won
place
away
We
day
left
John
000
hand|C0018563|ANAT
since
World
these
how
make
number
each
life
area
man
four
go
No
here
very
National
##m
played
released
never
began
States
album
home
last
too
held
several
May
own
##on
take
end
School
##h
ll
series
What
want
use
another
city
When
2010
side
At
may
That
came
face|C0015450|ANAT
June
think|C0039869|PHYS
game
those
high
March
early
September
##al
2011
looked
July
state
small
thought|C0039869|PHYS
went
January
October
##u
based
August
##us
world
good
April
York
us
12
2012
2008
For
2009
group
along
few
South
little
##k
following
November
something
2013
December
set
2007
old
2006
2014
located
##an
music
County
City
former
##in
room
ve
next
All
##man
got
father
house
##g
body
15
20
18
started
If
2015
town
our
line
War
large
population
named
British
company
member
five
My
single
##en
age
State
moved
February
11
Her
should
century
government
built
come
best
show
However
within
look
men
door
without
need
wasn
2016
water|C0043047|CHEM
One
system
knew
every
died|C0011065|PHYS
League
turned
asked
North
St
wanted
building
received
song
served
though
felt
##ia
station
band
##ers
local
public
himself
different
death|C0011065|PHYS
say
##1
30
##2
2005
16
night
behind
children
English
members
near
saw
together
son
14
voice
village
13
hands|C0018563|ANAT
help
##3
due
French
London
top
told
open
published
third
2017
play|C0600138|DISO
across
During
put
final
often
include
25
##le
main
having
2004
once
ever
let
book
led
gave
late
front
find
club
##4
German
included
species
College
form
opened
mother
women
enough
West
must
2000
power
really
17
making
half
##6
order
might
##is
given
million
times
days
point
full
service|C0557854|ACTI
With
km
major
##7
original
become
seen
II
north
six
##te
love|C0024028|PHYS
##0
national
International
##5
24
So
District
lost
run
couldn
career
always
##9
2003
##th
country
##z
House
air|C3536832|CHEM
tell
south
worked|C0043227|ACTI
woman
player
##A
almost
war
River
##ic
married|C0555047|DISO
continued
Then
James
close
black
short
##8
##na
using
history|C0262926|DISO
returned
light
car
##ra
sure
William
things
General
##ry
2002
better
support|C0344211|PROC
100
among
From
feet|C0016504|ANAT
King
anything
21
19
established
district
2001
feel|C0013987|PHYS
great
##ton
level
Cup
These
written
games
others
already
title
story
##p
law
thing
US
record
role
however
By
students
England
white
control
least
inside
land
##C
22
give
community
hard
##ie
non
##c
produced
George
round
period|C0025344|PHYS
Park
business
various
##ne
does
present
wife
far
taken
per|C0449201|ANAT
reached
David
able|C1299581|DISO
version
working|C0043227|ACTI
young
live
created
joined
East
living
appeared
case
High
done
23
important
President
Award
France
position
office
looking
total
general
class
To
production
##S
football|C0016517|ACTI
party
brother
keep
mind
free
Street
hair|C0018494|ANAT
announced
development
either
nothing|C0442735|DISO
moment
Church
followed
wrote
why
India
San
election
1999
lead|C0023175|CHEM
How
##ch
##rs
words
European
course
considered
America
arms
Army
political
##la
28
26
west
east
ground
further
church
less
site
First
Not
Australia
toward
California
##ness
described
works|C0043227|ACTI
An
Council
heart|C0018787|ANAT
past
military
27
##or
heard
field
human
soon
founded
1998
playing|C0600138|DISO
trying
##x
##ist
##ta
television
mouth|C0226896|ANAT
although
taking
win
fire
Division|C1293097|PROC
##ity
Party
Royal
program|C2728259|CHEM
Some
Don
Association|C0004083|PHYS
According
tried
TV
Paul
outside
daughter
Best
While
someone
match
recorded
Canada
closed
region
Air|C3536832|CHEM
above
months
elected
##da
##ian
road
##ar
brought
move|C0578671|DISO
1997
leave
##um
Thomas
1996
am
low
Robert
formed
person
services|C0557854|ACTI
points
Mr
miles
##b
stop
rest|C0035253|ACTI
doing
needed
international
release|C1963578|PROC
floor
start
sound
call
killed
real
dark
research
finished
language
Michael
professional
change
sent
50
upon
29
track
hit|C0272285|DISO
event
2018
term|C0233324|PHYS
example
Germany
similar
return
##ism
fact
pulled
stood
says
ran
information
yet
result
developed
girl
##re
God
1995
areas
signed
decided
##ment
Company
seemed
##el
co
turn|C0541749|DISO
race
common
video
Charles
Indian
##ation
blood|C0005767|ANAT
art
red
##able
added
rather
1994
met
director
addition
design
average
minutes
##ies
##ted
available
bed
coming
friend
idea
kind
Union
Road
remained
##ting
everything
##ma
running|C0035953|ACTI
care
finally
Chinese
appointed
1992
Australian
##ley
popular
mean
teams
probably|C0332148|DISO
##land
usually
project
social
Championship
possible
word
Russian
instead
mi
herself
##T
Peter
Hall
Center
seat
style
money
1993
else
Department
table
Music
current
31
features
special
events
character
Two
square
sold
debut
##v
process
Although
Since
##ka
40
Central
currently
education|C0424927|DISO
placed
lot
China
quickly
forward
seven
##ling
Europe
arm|C0446516|ANAT
performed
Japanese
1991
Henry
Now
Dr
##ion
week
Group
myself
big
UK
Washington
ten
deep
1990
Club
Japan
space
La
directed
smile|C0517048|DISO
episode
hours
whole
##de
##less
Why
wouldn
designed
strong
training
changed
Society
stage
involved
hadn
towards
leading
police
eight
kept
Institute
study
largest
child
eventually
private
modern
Court
throughout
getting
originally
attack|C1304680|DISO
##E
talk
Great
longer
songs
alone|C0439044|DISO
##ine
wide
dead|C0011065|PHYS
walked
shot|C0021485|PROC
##ri
Oh
force
##st
Art
today
friends
Island
Richard
1989
center
construction|C0441513|PROC
believe
size
White
ship
completed
##B
gone
Just
rock
sat
##R
radio
below
entire
families
league
includes
type
lived
official
range
hold
featured
Most
##ter
president
passed
means
##f
forces
lips|C0023759|ANAT
Mary
Do
guitar
##ce
food
wall
Of
spent
Its
performance
hear
##P
Western
reported
sister
##et
morning
##M
especially
##ive
Minister
itself
post
bit
groups
1988
##tion
Black
##ng
Well
raised
sometimes
Canadian
Paris
Spanish
replaced
schools
Academy
leaving
central
female
Christian
Jack
whose
college
onto
provided
##D
##ville
players
actually
stopped
##son
Museum
doesn
##ts
books
fight
allowed
##ur
beginning
Records
awarded
parents
coach
##os
Red
saying
##ck
Smith
Yes
Lake
##L
aircraft
1987
##ble
previous
ft
action
Italian
African
happened
vocals
Act|C0427611|PROC
future
court
##ge
1986
degree
phone
##ro
Is
countries
winning
breath
Love|C0024028|PHYS
river
matter
Lord
Other
list
self
parts
##ate
provide
cut|C0000925|DISO
shows
plan|C0270724|DISO
1st
interest|C0543488|PHYS
##ized
Africa
stated
Sir
fell
owned
earlier
ended
competition
attention|C0004268|PHYS
1985
lower
nearly
bad
older
stay
Saint
##se
certain
1984
fingers|C0016129|ANAT
blue
try
fourth
Grand
##as
king
##nt
makes
chest|C0817096|ANAT
movement|C0026649|PHYS
states
moving
data
introduced
model
date
section
Los
deal
##I
skin|C1123023|ANAT
entered
middle
success
Texas
##w
summer
island
##N
Republic
length
husband
1980
##ey
reason
anyone
forced
via
base
500
job
covered
Festival
Roman
successful
rights
cover
Man
writing|C2584304|PHYS
Ireland
##F
related|C0445223|DISO
goal
takes
buildings
true
weeks
1983
Because
opening
novel
ISBN
meet
gold|C0018026|CHEM
##ous
mid
km²
standing
Football|C0016517|ACTI
Chicago
shook
whom
##ki
1982
Day
feeling|C1527305|PHYS
scored
boy
higher
Force
leader
heavy
fall|C0085639|DISO
question
sense|C0036658|PHYS
army
Second
energy
meeting
themselves
kill
##am
board
census
##ya
##ns
mine
meant
market
required
battle
campaign
attended
approximately
Kingdom
runs|C0600140|DISO
active
##ha
contract
clear
previously
health
1979
Arts
complete
Catholic
couple
units
##ll
##ty
Committee
shoulder|C0037004|ANAT
sea
systems
listed
##O
caught
tournament
##G
northern
author
Film|C1704608|CHEM
Your
##men
holding
offered
personal
1981
southern
artist
traditional
studio
200
capital
##ful
regular
ask
giving
organization
month
news
Are
read
managed|C1273870|ACTI
helped
studied
student
defeated
natural
industry
Year
noted
decision
Government
quite
##id
smiled
1972
Maybe
tracks
##ke
Mark
al
media|C0162867|ANAT
engine
hour
Their
relationship
plays|C0600138|DISO
property
structure
1976
ago
Hill
Martin
1978
ready
Many
Like
Bay
immediately
generally
Italy
Greek
practice
caused
division|C1293097|PROC
significant
Joseph
speed
Let
thinking|C0039869|PHYS
completely
1974
primary|C0439631|PROC
mostly
##field
##K
1975
##to
Even
writer
##led
dropped
magazine
collection
understand|C0162340|PHYS
route
highest
particular
films
lines
network
Science
loss
carried
direction
green
1977
location
producer
according
Women
Queen
neck|C0027530|ANAT
thus
independent|C1299583|DISO
view
1970
Angeles
Soviet
distance
problem|C0033213|DISO
Board
tour
western
income
appearance
access
Mexico
nodded
street 
surface
arrived
believed
Old
1968
1973
becoming
whether
1945
figure
singer
stand
Following
issue|C0033213|DISO
window
wrong
pain|C0030193|DISO
everyone
lives|C0595998|DISO
issues
park
slowly
la
act|C0427611|PROC
##va
bring
Lee
operations
key
comes
fine
cold|C0009443|DISO
famous
Navy
1971
Me
additional
individual
##ner
Zealand
goals
county
contains
Service|C0557854|ACTI
minute
2nd
reach
talking
particularly
##ham
movie
Director
glass|C0025611|CHEM
paper
studies
##co
railway
standard
Education|C0424927|DISO
45
represented
Chief
Louis
launched
Star
terms
60
1969
experience
watched
Another
Press
Tom
staff
starting
subject
break
Virginia
nine
eye|C0015392|ANAT
##age
evidence
foot|C0016504|ANAT
##est
companies
Prince
##V
gun
create
Big
People
guy
Green
simply
numerous
##line
increased
twenty
##ga
##do
1967
award
officer
stone
Before
material
Northern
grew
male
plant
Life
legs|C1140621|ANAT
step
Al
unit
35
except
answer
##U
report
response
Edward
commercial
edition
trade
science
##ca
Irish
Law
shown
rate
failed
##ni
remains
changes
mm
limited
larger
Later
cause
waiting
Time
##wood
cost
Bill
manager
activities
likely|C0332148|DISO
allow
operated
retired|C0035345|DISO
##ping
65
directly
Who
associated
effect
hell
Florida
straight
hot
Valley
management|C1273870|ACTI
girls
expected
eastern
Mike
chance
cast
centre
chair
hurt
problems
##li
walk|C0080331|ACTI
programs
Team
characters
Battle
edge
pay
maybe
corner
majority
medical
Joe
Summer
##io
attempt
Pacific
command
Radio
##by
names
municipality
1964
train
economic
Brown
feature
sex|C0009253|PHYS
source|C0449416|DISO
agreed
remember
Three
1966
1965
Pennsylvania
victory
senior
annual
III
Southern
results
Sam 
serving
religious|C0557075|DISO
Jones
appears
##der
despite
claimed
Both
musical
matches
fast|C0015663|DISO
security
selected
Young
double
complex
hospital
chief
Times
##ve
Championships
filled
Public
Despite
beautiful
Research
plans
Province
##ally
Wales
##ko
artists
metal|C0025552|CHEM
nearby
Spain
##il
32
houses
supported
piece
##no
stared
recording
nature
legal
Russia
##ization
remaining
looks
##sh
bridge
closer
cases
scene
marriage|C0024841|DISO
Little
##é
uses
Earth
specific
Frank
theory
Good
discovered
referred
bass
culture|C2242979|PROC
university
presented
Congress
##go
metres
continue
1960
isn
Awards
meaning
cell|C0007634|ANAT
composed
separate
Series
forms
Blue
cross
##tor
increase
test
computer
slightly
Where
Jewish
Town
tree
status
1944
variety
responsible|C1273518|DISO
pretty
initially
##way
realized
pass
provides
Captain
Alexander
recent
score
broke
Scott
drive|C0013126|PHYS
financial
showed
Line
stories
ordered
soldiers
genus
operation
gaze|C0553544|DISO
sitting|C0277814|DISO
society
Only
hope
actor
follow
Empire
Yeah
technology
happy|C0018592|PHYS
focus
policy
spread
situation
##ford
##ba
Mrs
watch
Can
1963
Commission
touch|C0702221|PHYS
earned
troops
Under
1962
individuals
cannot
19th
##lin
mile
expression|C0185117|PROC
exactly
suddenly
weight|C1305866|PROC
dance
stepped
places
appear
difficult|C1299586|DISO
Railway
anti
numbers
kilometres
star
##ier
department
ice|C0020746|CHEM
Britain
removed
Once
##lo
Boston
value
##ant
mission
trees
Order
sports|C0038039|ACTI
join
serve
Major
poor
Poland
mainly
Theatre
pushed
Station
##it
Lady
federal
silver|C0037125|CHEM
##ler
foreign
##ard
Eastern
##den
box
hall
subsequently
lies
acquired
1942
ancient
CD
History
Jean
beyond
##ger
El
##les
growing
championship
native
Parliament
Williams
watching
direct
overall
offer
Also
80
Secretary
spoke
Latin
ability
##ated
safe
presence
##ial
headed
regional
planned
1961
Johnson
throat|C0031354|ANAT
consists
##W
extended
Or
bar
walls
Chris
stations
politician
Olympics
influence
share
fighting
speak|C0234856|ACTI
hundred
Carolina
die|C0012144|ANAT
stars
##tic
color
Chapter
##ish
fear|C0015726|PHYS
sleep|C0037313|PHYS
goes
Francisco
oil|C1947940|CHEM
Bank
sign|C0311392|DISO
physical
##berg
Dutch
seasons
##rd
Games
Governor
sorry
lack
Centre
memory|C0025260|PHYS
baby
smaller
charge
Did
multiple
ships
shirt
Assembly
amount
leaves
3rd
Foundation
conditions
1943
Rock
Democratic
Daniel
##at
winner
products
##ina
store
latter
Professor
civil
prior
host
1956
soft
vote
needs
Each
rules
1958
pressure|C0460139|DISO
letter
normal
proposed
levels
records
1959
paid
intended
Victoria
purpose
okay
historical
issued
1980s
broadcast
rule
simple
picked
firm
Sea
1941
Elizabeth
1940
serious
featuring
highly
graduated
mentioned
choice
1948
replied
percent
Scotland
##hi
females
constructed
1957
settled
Steve
recognized
cities
crew
glanced
kiss
competed
flight
knowledge
editor
More
Conference
##H
fifth
elements|C0013879|CHEM
##ee
##tes
function
newspaper
recently
Miss
cultural
brown
twice
Office
1939
truth
Creek
1946
households
USA
1950
quality
##tt
border
seconds
destroyed
pre
wait
ahead
build
image
90
cars
##mi
33
promoted
professor
et
bank
medal
text
broken
Middle
revealed
sides
wing
seems
channel
1970s
Ben
loved|C0024028|PHYS
effort|C0015264|PHYS
officers
Will
##ff
70
Israel
Jim
upper
fully
label
Jr
assistant
powerful
pair
positive
##ary
gives
1955
20th
races
remain
kitchen
primarily
##ti
Sydney
easy
Tour
whispered
buried
300
News
Polish
1952
Duke
Columbia
produce
accepted
00
approach
minor
1947
Special
44
Asian
basis|C1874451|CHEM
visit
Fort
Civil
finish
formerly
beside
leaned
##ite
median
rose
coast
effects
supposed
Cross
##hip
Corps
residents
Jackson
##ir
Bob
basketball|C0004818|ACTI
36
Asia
seem
Bishop
Book
##ber
ring
##ze
owner
BBC
##ja
transferred
acting
De
appearances
walking|C0080331|ACTI
Le
press
grabbed
1954
officially
1953
##pe
risk
taught
review
##X
lay
##well
council
Avenue
seeing
losing
Ohio
Super
province
ones
travel|C0040802|ACTI
##sa
projects
equipment
spot
Berlin
administrative
heat
potential
shut
capacity
elections
growth
fought
Republican
mixed
Andrew
teacher
turning
strength
shoulders|C0037004|ANAT
beat
wind|C0016204|DISO
1949
Health
follows
camp
suggested
perhaps
Alex
mountain
contact
divided
candidate
fellow
34
Show
necessary
workers
ball
horse
ways
questions
protect
gas|C1704673|CHEM
activity|C0026606|ACTI
younger
bottom
founder
Scottish
screen|C0199230|PROC
treatment|C0087111|PROC
easily
com
##house
dedicated
Master
warm
Night
Georgia
Long
von
##me
perfect
website
1960s
piano
efforts
##ide
Tony
sort
offers
Development
Simon
executive
##nd
save
Over
Senate
1951
1990s
draw
master
Police
##ius
renamed
boys
initial
prominent
damage|C0010957|DISO
Co
##ov
##za
online
begin
occurred
captured
youth
Top
account
tells
Justice
conducted
forest
##town
bought
teeth|C0040426|ANAT
Jersey
##di
purchased
agreement
Michigan
##ure
campus
prison
becomes
product
secret
guess
Route
huge
types
drums
64
split
defeat
estate
housing
##ot
brothers
Coast
declared
happen
titled
therefore
sun
commonly
alongside
Stadium
library
Home
article
steps
telling
slow
assigned
refused
laughed
wants
Nick
wearing
Rome
Open
##ah
Hospital
pointed
Taylor
lifted
escape
participated
##j
drama
parish
Santa
##per
organized
mass|C0577559|DISO
pick
Airport
gets
Library
unable|C1299582|DISO
pull|C0580846|DISO
Live
##ging
surrounding
##ries
focused
Adam
facilities
##ning
##ny
38
##ring
notable
era
connected
gained
operating
laid
Regiment
branch
defined
Christmas
machine
Four
academic
Iran
adopted
concept
Men
compared
search
traffic
Max
Maria
greater
##ding
widely
##burg
serves
1938
37
Go
hotel
shared
typically
scale
1936
leg|C1140621|ANAT
suffered|C0683278|DISO
yards
pieces
Ministry
Wilson
episodes
empty
1918
safety
continues
yellow
historic
settlement
400
Come
Corporation
enemy
content|C0423896|PHYS
picture
evening
territory
method
trial
solo
driver
Here
##ls
entrance
Prize
spring
whatever
##ent
75
##ji
reading|C0034754|ACTI
Arthur
##cy
Our
clothes
Prime
Illinois
Kong
code
##ria
sit|C0277814|DISO
Harry
Federal
chosen
administration
bodies
begins
stomach
Though
seats
Hong
density
Sun
leaders
Field
museum
chart
platform
languages
##ron
birth|C0005615|PHYS
holds
Gold|C0018026|CHEM
##un
fish
combined
##ps
4th
1937
largely
captain
trust
Game
van
boat
Oxford
basic
beneath
Islands
painting
nice
Toronto
path
males
sources|C0449416|DISO
block|C0028778|DISO
conference
parties
murder
clubs
crowd
calling
About
Business
peace
knows
lake
speaking|C0234856|ACTI
stayed
Brazil
allowing
Born
unique
thick
Technology
##que
receive
des|C0012203|CHEM
semi
alive|C2584946|DISO
noticed
format
##ped
coffee
digital|C0582802|ANAT
##ned
handed
guard
tall
faced
setting
plants
partner
claim
reduced
temple
animals
determined
classes
##out
estimated
##ad
Olympic
providing
Massachusetts
learned
Inc
Philadelphia
Social
carry
42
possibly
hosted
tonight
respectively
Today
shape
Mount|C0449878|DISO
roles
designated
brain|C0006104|ANAT
etc
Korea
thoughts|C0039869|PHYS
Brian
Highway
doors
background
drew
models
footballer
tone
turns
1935
quiet
tower
wood
bus
write|C2584304|PHYS
software
weapons
flat
marked
1920
newly
tight
Eric
finger|C0016129|ANAT
Journal
FC
Van
rise
critical
Atlantic
granted
returning
communities
humans
quick
39
48
ranked
sight|C0042789|PHYS
pop
Swedish
Stephen
card
analysis|C0002778|PROC
attacked|C0004063|DISO
##wa
Sunday
identified
Jason
champion
situated
1930
expanded
tears
##nce
reaching
Davis
protection
Emperor
positions
nominated
Bridge
tax|C0144576|CHEM
dress|C3541994|DISO
allows
avoid
leadership
killing
actress
guest
steel
knowing
electric
cells|C0007634|ANAT
disease|C0012634|DISO
grade
unknown
##ium
resulted
Pakistan
confirmed
##ged
tongue|C0040408|ANAT
covers
##Y
roof
entirely
applied
votes
drink
interview
exchange
Township
reasons
##ised
page
calls
dog
agent
nose|C0028429|ANAT
teaching
##ds
##ists
advanced
wish
Golden
existing
vehicle|C0042444|CHEM
del
1919
develop
attacks|C1304680|DISO
pressed
Sports|C0038039|ACTI
planning|C0032074|PHYS
resulting
facility
Sarah
notes
1933
Class
Historic
winter
##mo
audience
Community
household
Netherlands
creation|C0441513|PROC
##ize
keeping
1914
claims
dry
guys
opposite
##ak
explained
Ontario
secondary
difference
Francis
actions
organizations
yard
animal
Up
Lewis
titles
Several
1934
Ryan
55
Supreme|C3282376|CHEM
rolled
1917
distribution
figures
afraid|C0015726|PHYS
rural
yourself
##rt
sets
barely
Instead
passing
awards
41
silence
authority
occupied
environment
windows
engineering
surprised
flying
crime
reports
Mountain
powers
driving|C0004379|ACTI
succeeded
reviews
1929
Head|C0018670|ANAT
missing
Song
Jesus
opportunity
inspired
ends
albums
conversation
impact
injury|C3263723|DISO
surprise
billion
learning|C0023185|PHYS
heavily
oldest
union
creating
##ky
festival
literature
letters
sexual
##tte
apartment
Final
comedy
nation
orders
##sen
contemporary
Power
drawn
existence
connection
##ating
Post
Junior
remembered
message
Medal
castle
note
engineer
sounds
Beach
crossed
##dy
ear|C0013443|ANAT
scientific
sales
##ai
theme
starts
clearly
##ut
trouble
##gan
bag
##han
BC
sons
1928
silent
versions
daily
Studies
ending
Rose
guns
1932
headquarters
reference
obtained
Squadron
concert
none
du
Among
##don
prevent
Member
answered
staring|C0423086|DISO
Between
##lla
portion
drug|C0013227|CHEM
liked
association|C0004083|PHYS
performances
Nations
formation
Castle|C1266100|DISO
lose
learn|C0023185|PHYS
scoring
relatively
quarter
47
Premier
##ors
Sweden
baseball|C0004795|ACTI
attempted
trip
worth
perform
airport
fields
enter
honor
Medical
rear
commander
officials
condition|C0012634|DISO
supply
materials
52
Anna
volume
threw
Persian
43
interested|C0543488|PHYS
Gallery
achieved
visited
laws
relief|C0564405|DISO
Area
Matt
singles
Lieutenant
Country
fans
Cambridge
sky
Miller
effective
tradition
Port
##ana
minister
extra
entitled
System
sites
authorities
acres
committee
racing
1931
desk
trains
ass
weren
Family
farm
##ance
industrial
##head
iron|C0302583|CHEM
49
abandoned
Out
Holy
chairman
waited
frequently
display
Light
transport|C0005528|PHYS
starring
Patrick
Engineering
eat|C0013470|PHYS
FM
judge
reaction
centuries
price
##tive
Korean
defense
Get
arrested|C0018790|DISO
1927
send
urban|C0724128|CHEM
##ss
pilot
Okay
Media|C0162867|ANAT
reality
arts|C0796028|DISO
soul
thirty
##be
catch|C0231617|DISO
generation
##nes
apart
Anne
drop|C0991568|CHEM
See
##ving
sixth
trained
Management|C1273870|ACTI
magic
cm
height
Fox
Ian
resources
vampire
principal
Was
haven
##au
Walter
Albert
rich
1922
causing
entry
##ell
shortly
46
worry|C0233481|DISO
doctor
composer
rank
Network
bright|C0423899|DISO
showing
regions
1924
wave
carrying
kissed
finding|C0037088|DISO
missed
Earl
lying
target
vehicles|C0042444|CHEM
Military
controlled
dinner
##board
briefly
lyrics
motion
duty
strange
attempts
invited
kg
villages
5th
Land
##mer
Christ
prepared
twelve
check
thousand
earth
copies
en
transfer
citizens
Americans
politics
nor
theatre
Project
##bo
clean
rooms
laugh
##ran
application
contained
anyway
containing
Sciences
1925
rare
speech
exist
1950s
falling|C0085639|DISO
passenger
##im
stands|C0596013|DISO
51
##ol
##ow
phase
governor
kids
details
methods
Vice
employed|C0557351|DISO
performing
counter
Jane
heads|C0018670|ANAT
Channel
wine
opposition|C0231519|DISO
aged
1912
Every
1926
highway
##ura
1921
aired
978
permanent
Forest
finds
joint|C0022417|ANAT
approved
##pur
brief
doubt
acts
brand
wild
closely
Ford
Kevin
chose
shall
port
sweet
fun
asking
Be
##bury
sought
Dave
Mexican
mom
Right
Howard
Moscow
Charlie
Stone
##mann
admitted
##ver
wooden
1923
Officer
relations
Hot
combat
publication
chain
shop|C0150768|ACTI
inhabitants
proved
ideas|C0459920|PHYS
address
1915
Memorial
explain
increasing
conflict
Anthony
Melbourne
narrow
temperature
slid
1916
worse|C1457868|DISO
selling
documentary
Ali
Ray
opposed
vision|C0042789|PHYS
dad
extensive
Infantry
commissioned
Doctor
offices
programming
core
respect
storm
##pa
##ay
##om
promotion
der
struck
anymore
shit
Region
receiving
DVD
alternative
##ue
ride
maximum
1910
##ious
Third
Affairs
cancer|C0006826|DISO
Executive
##op
dream|C0013117|PHYS
18th
Due
##ker
##worth
economy
IV
Billboard
identity|C0424215|PHYS
subsequent
statement
skills
##back
funding
##ons
Round
Foreign
truck
Please
lights
wondered
##ms
frame
yes
Still
districts
fiction
Colonel
converted
150
grown
accident
critics
fit|C0036572|DISO
Information
architecture
Point
Five
armed
Billy
poet
functions
consisted
suit
Turkish
Band
object
desire
##ities
sounded
flow
Norwegian
articles
Marie
pulling|C0580846|DISO
thin
singing
Hunter
Human
Battalion
Federation
Kim
origin
represent
dangerous
weather
fuel
ex
##sing
Last
bedroom
aid|C0021588|PROC
knees|C0022742|ANAT
Alan
angry|C0002957|PHYS
assumed
plane
Something
founding
concerned
global
Fire
di
please
Portuguese
touched
Roger
nuclear
Register
Jeff
fixed
royal
lie
finals
NFL
Manchester
towns
handle
shaped
Chairman
Dean
launch
understanding|C0162340|PHYS
Children
violence
failure
sector
Brigade
wrapped
fired|C0014007|DISO
sharp|C1444775|DISO
tiny
developing
expansion
Free
institutions
technical
Nothing|C0442735|DISO
otherwise
Main
inch
Saturday
wore
Senior
attached
cheek|C0007966|ANAT
representing
Kansas
##chi
##kin
actual
advantage
Dan
Austria
##dale
hoped
multi
squad
Norway
streets
1913
Services|C0557854|ACTI
hired
grow
pp
wear
painted
Minnesota
stuff
Building
54
Philippines
1900
##ties
educational
Khan
Magazine
##port
Cape
signal
Gordon
sword
Anderson
cool
engaged
Commander
images
Upon
tied
Security
cup
rail
Vietnam
successfully
##red
Muslim
gain
bringing
Native
hers
occurs
negative
Philip
Kelly
Colorado
category
##lan
600
Have
supporting
wet
56
stairs
Grace
observed
##ung
funds
restaurant
1911
Jews
##ments
##che
Jake
Back
53
asks
journalist
accept
bands
bronze
helping
##ice
decades
mayor
survived
usual
influenced
Douglas
Hey
##izing
surrounded
retirement|C0035345|DISO
Temple
derived
Pope
registered
producing
##ral
structures
Johnny
contributed
finishing
buy
specifically
##king
patients
Jordan
internal
regarding
Samuel
Clark
##q
afternoon
Finally
scenes
notice
refers
quietly
threat
Water|C0043047|CHEM
Those
Hamilton
promise
freedom
Turkey
breaking
maintained
device
lap
ultimately
Champion
Tim
Bureau
expressed
investigation
extremely
capable
qualified
recognition|C0524637|PHYS
items
##up
Indiana
adult
rain
greatest
architect
Morgan
dressed
equal
Antonio
collected
drove
occur
Grant
graduate
anger|C0002957|PHYS
Sri
worried|C0233481|DISO
standards
##ore
injured
somewhere
damn
Singapore
Jimmy
pocket
homes
stock
religion|C0682141|DISO
aware|C0004448|PHYS
regarded
Wisconsin
##tra
passes
fresh
##ea
argued
Ltd|C0023548|CHEM
EP
Diego
importance
Census
incident
Egypt
Missouri
domestic
leads
ceremony
Early
camera
Father
challenge
Switzerland
lands
familiar
hearing|C1455844|DISO
spend
educated
Tennessee
Thank
##ram
Thus
concern
putting
inches
map|C0428886|DISO
classical
Allen
crazy
valley
Space
softly
##my
pool
worldwide
climate
experienced
neighborhood
scheduled
neither
fleet|C0591516|CHEM
1908
Girl
##J
Part
engines
locations
darkness
Revolution|C2948499|CHEM
establishment
lawyer
objects
apparently
Queensland
Entertainment
bill
mark
Television
##ong
pale|C0030232|DISO
demand
Hotel
selection|C0036576|PHYS
##rn
##ino
Labour|C0022864|PHYS
Liberal
burned|C0006434|DISO
Mom
merged
Arizona
request
##lia
##light
hole
employees
##ical
incorporated
95
independence
Walker
covering
joining
##ica
task
papers
backing
sell
biggest
6th
strike
establish
##ō
gently
59
Orchestra
Winter
protein|C0033684|CHEM
Juan
locked
dates
Boy
aren
shooting|C1444774|DISO
Luke
solid|C1378566|CHEM
charged
Prior
resigned
interior
garden
spoken
improve
wonder
promote
hidden
##med
combination
Hollywood
Swiss
consider
##ks
Lincoln
literary
drawing
Marine
weapon
Victor
Trust
Maryland
properties
##ara
exhibition
understood|C0162340|PHYS
hung
Tell
installed
loud
fashion
affected
junior
landing
flowers
##he
Internet
beach
Heart|C0018787|ANAT
tries
Mayor
programme
800
wins
noise
##ster
##ory
58
contain
fair
delivered
##ul
wedding
Square
advance
behavior
Program|C2728259|CHEM
Oregon
##rk
residence
realize
certainly
hill
Houston
57
indicated
##water
wounded
Village
massive
Moore
thousands
personnel
dating
opera
poetry
##her
causes
feelings|C1527305|PHYS
Frederick
applications
push
approached
foundation
pleasure
sale
fly
gotten
northeast
costs
raise
paintings
##ney
views
horses
formal
Arab
hockey
typical
representative
rising
##des
clock
stadium
shifted
Dad
peak
Fame
vice
disappeared
users
Way
Naval
prize
hoping
values
evil
Bell
consisting
##ón
Regional
##ics
improved
circle
carefully
broad
##ini
Fine
maintain
operate
offering
mention
Death|C0011065|PHYS
stupid
Through
Princess
attend
interests|C0543488|PHYS
ruled
somewhat
wings
roads
grounds
##ual
Greece
Champions
facing
hide
voted
require
Dark
Matthew
credit
sighed
separated
manner
##ile
Boys
1905
committed|C1171947|CHEM
impossible
lip|C0023759|ANAT
candidates
7th
Bruce
arranged
Islamic
courses
criminal
##ened
smell|C0037361|PHYS
##bed
08
consecutive
##ening
proper
purchase
weak|C3714552|DISO
Prix
1906
aside
introduction
Look
##ku
changing
budget
resistance
factory
Forces
agency
##tone
northwest
user
1907
stating
##one
sport|C0038039|ACTI
Design
environmental
cards
concluded
Carl
250
accused
##ology
Girls
sick|C0221423|DISO
intelligence|C0021704|PHYS
Margaret
responsibility
Guard
##tus
17th
sq
goods
1909
hate|C0018616|PHYS
##ek
capture
stores
Gray
comic
Modern
Silver|C0037125|CHEM
Andy
electronic
wheel
##ied
Deputy
##bs
Czech
zone
choose
constant
reserve
##lle
Tokyo
spirit|C1705899|CHEM
sub
degrees
flew
pattern
compete
Dance
##ik
secretary
Imperial
99
reduce
Hungarian
confused|C0009676|DISO
##rin
Pierre
describes
regularly
Rachel
85
landed
passengers
##ise
##sis
historian
meters
Youth
##ud
participate
##cing
arrival
tired|C0557875|DISO
Mother
##gy
jumped|C0560453|DISO
Kentucky
faces|C0015450|ANAT
feed
Israeli
Ocean
##Q
##án
plus
snow|C0009170|CHEM
techniques
plate
sections
falls|C0085639|DISO
jazz
##ris
tank
loan
repeated
opinion
##res
unless
rugby|C0035945|ACTI
journal
Lawrence
moments
shock|C0036974|DISO
distributed
##ded
adjacent
Argentina
crossing
uncle
##ric
Detroit
communication
mental
tomorrow
session
Emma
Without
##gen
Miami
charges
Administration
hits
coat
protected
Cole
invasion|C1269955|DISO
priest
09
Gary
enjoyed|C0018592|PHYS
plot
measure
bound
friendly
throw|C0560512|DISO
musician
##lon
##ins
Age
knife
damaged
birds
driven
lit
ears|C0013443|ANAT
breathing|C0004048|PHYS
Arabic
Jan
faster
Jonathan
##gate
Independent|C1299583|DISO
starred
Harris
teachers
Alice
sequence
mph|C0025810|CHEM
file
translated
decide
determine
Review
documents
sudden
threatened
##ft
bear
distinct
decade
burning|C0085624|DISO
##sky
1930s
replace
begun
extension
##time
1904
equivalent
accompanied
Christopher
Danish
##ye
Besides
##more
persons
fallen
Rural
roughly
saved
willing|C0600109|DISO
ensure
Belgium
05
musicians
##ang
giant|C0017547|DISO
Six
Retrieved
worst
purposes
##bly
mountains
seventh
slipped
brick
07
##py
somehow
Carter
Iraq
cousin
favor
islands
journey
FIFA
contrast|C0009924|CHEM
planet
vs
calm|C0522165|PHYS
##ings
concrete
branches
gray
profit
Russell
##ae
##ux
##ens
philosophy
businesses
talked
parking
##ming
owners
Place
##tle
agricultural
Kate
06
southeast
draft
Eddie
earliest
forget
Dallas
Commonwealth
edited
66
inner
ed
operates
16th
Harvard
assistance
##si
designs
Take
bathroom
indicate
CEO
Command
Louisiana
1902
Dublin
Books
1901
tropical
1903
##tors
Places
tie
progress
forming
solution|C1382100|CHEM
62
letting
##ery
studying
##jo
duties
Baseball|C0004795|ACTI
taste|C0039336|PHYS
Reserve
##ru
Ann
##gh
visible
##vi
notably
link
NCAA
southwest
Never
storage
mobile
writers
favorite
Pro
pages
truly
count
##tta
string
kid
98
Ross
row
##idae
Kennedy
##tan
Hockey
hip
waist|C0230097|ANAT
grandfather
listen
##ho
feels|C0013987|PHYS
busy
72
stream
obvious
cycle
shaking|C0040822|DISO
Knight
##ren
Carlos
painter
trail
web|C0332875|DISO
linked
04
Palace
existed
##ira
responded
closing
End
examples
Marshall
weekend
jaw|C0022359|ANAT
Denmark
lady
township
medium
chin|C0008114|ANAT
Story
option
fifteen
Moon
represents
makeup
investment
jump
childhood
Oklahoma
roll
normally
Ten
Operation
Graham
Seattle
Atlanta
paused
promised
rejected
treated
returns
flag
##ita
Hungary
danger
glad
movements|C0026649|PHYS
visual
subjects
credited
soldier
Norman
ill|C0231218|DISO
translation
José
Quebec
medicine|C0013227|CHEM
warning
theater
praised
municipal
01
commune
churches
acid
folk
8th
testing
add
survive
Sound
devices
residential
severe|C1519275|DISO
presidential
Mississippi
Austin
Perhaps
Charlotte
hanging
Montreal
grin
##ten
racial
partnership
shoot
shift
##nie
Les|C0227192|ANAT
downtown
Brothers
Garden
matters
restored
mirror
forever
winners
rapidly
poverty
##ible
Until
DC
faith
hundreds
Real
Ukraine
Nelson
balance|C0014653|PHYS
Adams
contest
relative
ethnic
Edinburgh
composition
##nts
emergency
##van
marine
reputation
Down
pack|C1999262|CHEM
12th
Communist
Mountains
pro
stages
measures
##ld
ABC
Li
victims
benefit
Iowa
Broadway
gathered
rating
Defense
classic
##ily
ceiling
##ions
snapped
Everything
constituency
Franklin
Thompson
Stewart
entering
Judge
forth
##sk
wanting
smiling
moves|C0578671|DISO
tunnel
premiered
grass
unusual
Ukrainian
bird
Friday
tail
Portugal
coal|C0009131|CHEM
element|C0013879|CHEM
Fred
guards
Senator
collaboration
beauty
Wood
chemical
beer
justice
signs|C0311392|DISO
##Z
sees|C0042789|PHYS
##zi
Puerto
##zed
96
smooth
Bowl|C0336949|ACTI
gift
limit
97
heading
Source|C0449416|DISO
wake
requires
Ed
Constitution
factor
Lane
factors
adding
Note
cleared
pictures
pink
##ola
Kent
Local
Singh
moth
Ty
##ture
courts
Seven
temporary
involving
Vienna
emerged
fishing
agree
defensive
stuck
secure
Tamil
##ick
bottle
03
Player
instruments
Spring
patient
flesh
contributions
cry
Malaysia
120
Global
da
Alabama
Within
##work
debuted
expect
Cleveland
concerns
retained
horror
10th
spending
Peace
Transport|C0005528|PHYS
grand
Crown|C0226993|ANAT
instance
institution
acted
Hills
mounted
Campbell
shouldn
1898
##ably
chamber
soil
88
Ethan
sand|C0037098|CHEM
cheeks|C0007966|ANAT
##gi
marry|C0555047|DISO
61
weekly
classification
DNA|C0012854|CHEM
Elementary
Roy
definitely
Soon
Rights
gate
suggests
aspects
imagine
golden
beating
Studios
Warren
differences
significantly
glance
occasionally
##od
clothing
Assistant
depth
sending
possibility
mode
prisoners
requirements
daughters
dated
Representatives
prove
guilty|C0018379|PHYS
interesting|C0543488|PHYS
smoke|C0037366|CHEM
cricket
93
##ates
rescue
Connecticut
underground
Opera
13th
reign
##ski
thanks
leather
equipped
routes
fan
##ans
script
Wright|C1261259|CHEM
bishop
Welsh
jobs
faculty
eleven
Railroad
appearing
anniversary
Upper
##down
anywhere
Rugby|C0035945|ACTI
Metropolitan
Meanwhile
Nicholas
champions
forehead|C0016540|ANAT
mining
drinking|C0684271|PHYS
76
Jerry
membership
Brazilian
Wild
Rio
scheme
Unlike
strongly
##bility
fill
##rian
easier
MP
Hell
##sha
Stanley
banks
Baron
##ique
Robinson
67
Gabriel
Austrian
Wayne
exposed
##wan
Alfred
1899
manage
mix
visitors
eating|C0013470|PHYS
##rate
Sean
commission
Cemetery
policies
Camp|C0001455|CHEM
parallel
traveled
guitarist
02
supplies
couples
poem
blocks|C0028778|DISO
Rick
Training
Energy
achieve
appointment
Wing
Jamie
63
novels
##em
1890
songwriter
Base
Jay
##gar
naval
scared
miss
labor|C0022864|PHYS
technique
crisis|C0231224|DISO
Additionally
backed
destroy
seriously
tools
tennis|C0039515|ACTI
91
god
##ington
continuing
steam|C0038225|CHEM
obviously
Bobby
adapted
fifty
enjoy
Jacob
publishing
column|C1185738|ANAT
##ular
Baltimore
Donald
Liverpool
92
drugs|C0013227|CHEM
movies
##ock
Heritage
##je
##istic
vocal
strategy
gene
advice
##bi
Ottoman
riding
##side
Agency
Indonesia
11th
laughing
sleeping
und
muttered
listening|C0004339|PROC
deck
tip
77
ownership
grey
Claire
deeply
provincial
popularity
Cooper
##á
Emily
##sed
designer
Murray
describe
Danny
Around
Parker
##dae
68
rates
suffering|C0683278|DISO
considerable
78
nervous
powered
tons
circumstances
wished
belonged
Pittsburgh
flows
9th
##use
belt
81
useful
15th
context|C0449255|DISO
List
Dead|C0011065|PHYS
Iron|C0302583|CHEM
seek
Season
worn
frequency
legislation
replacement|C0035139|PROC
memories|C0700327|DISO
Tournament
Again
Barry
organisation
copy
Gulf
waters|C0043047|CHEM
meets
struggle
Oliver
1895
Susan
protest
kick
Alliance
components
1896
Tower
Windows
demanded
regiment
sentence
Woman
Logan
Referee
hosts
debate
knee
Blood|C0005767|ANAT
##oo
universities
practices
Ward
ranking
correct
happening
Vincent
attracted
classified
##stic
processes
immediate
waste
increasingly
Helen
##po
Lucas
Phil
organ
1897
tea
suicide|C0038661|DISO
actors
lb
crash
approval
waves
##ered
hated
grip|C0021400|DISO
700
amongst
69
74
hunting|C4255216|ACTI
dying
lasted
illegal
##rum
stare|C0423086|DISO
defeating
##gs
shrugged
°C
Jon
Count
Orleans
94
affairs
formally
##and
##ves
criticized
Disney
Vol
successor
tests|C0022885|PROC
scholars
palace
Would
celebrated
rounds
grant
Schools
Such
commanded
demon
Romania
##all
Karl
71
##yn
84
Daily
totally
Medicine|C0013227|CHEM
fruit
Die|C0012144|ANAT
upset|C3887804|PHYS
Lower
Conservative
14th
Mitchell
escaped
shoes
Morris
##tz
queen
harder
prime
Thanks
indeed
Sky
authors
rocks
definition
Nazi
accounts
printed
experiences
##ters
divisions
Cathedral
denied
depending
Express
##let
73
appeal
loose
colors
filed
##isation
gender
##ew
throne
forests
Finland
domain
boats
Baker
squadron
shore
remove
##ification
careful
wound|C0043250|DISO
railroad
82
seeking
agents
##ved
Blues
##off
customers
ignored
net
##ction
hiding
Originally
declined
##ess
franchise
eliminated
NBA
merely
pure
appropriate
visiting
forty
markets
offensive
coverage
cave
##nia
spell
##lar
Benjamin
##ire
Convention
filmed
Trade
##sy
##ct
Having
palm|C0230373|ANAT
1889
Evans
intense
plastic
Julia
document
jeans
vessel|C0005847|ANAT
SR
##fully
proposal
Birmingham
le
##ative
assembly
89
fund
lock
1893
AD
meetings
occupation
modified
Years
odd
aimed
reform
Mission
Works|C0043227|ACTI
shake|C0040822|DISO
cat
exception
convinced
executed
pushing
dollars
replacing
soccer|C0037393|ACTI
manufacturing
##ros
expensive
kicked
minimum
Josh
coastal
Chase
ha
Thailand
publications
deputy
Sometimes
Angel
effectively
##illa
criticism
conduct
Serbian
landscape
NY
absence|C1689985|DISO
passage
##ula
Blake
Indians
1892
admit
Trophy
##ball
Next
##rated
##ians
charts
kW
orchestra
79
heritage
1894
rough
exists
boundary
Bible
Legislative
moon
medieval
##over
cutting|C0152060|PROC
print
##ett
birthday
##hood
destruction|C1261381|PROC
Julian
injuries|C3263723|DISO
influential
sisters
raising
statue
colour
dancing
characteristics
orange
##ok
##aries
Ken
colonial
twin
Larry
surviving
##shi
Barbara
personality|C0031208|PHYS
entertainment
assault|C0004063|DISO
##ering
talent
happens
license
86
couch
Century
soundtrack
shower
swimming|C0039003|ACTI
cash
Staff
bent
1885
bay
lunch
##lus
dozen
vessels|C0005847|ANAT
CBS
greatly
critic
Test
symbol
panel
shell
output
reaches|C0596012|DISO
87
Front
motor
ocean
##era
##ala
maintenance
violent
scent|C0031516|CHEM
Limited
Las|C1562368|PROC
Hope
Theater
Which
survey
Robin
recordings
compilation
##ward
bomb
insurance
Authority
sponsored
satellite
Jazz
refer
stronger
blow|C0009170|CHEM
whilst
Wrestling|C0043261|ACTI
suggest
##rie
climbed|C0561942|DISO
##els
voices
shopping|C0150768|ACTI
1891
Neil
discovery
##vo
##ations
burst
Baby
peaked
Brooklyn
knocked
lift
##try
false
nations
Hugh
Catherine
preserved
distinguished
terminal
resolution
ratio
pants
cited
competitions
completion
DJ
bone|C0262950|ANAT
uniform
schedule
shouted
83
1920s
rarely
Basketball|C0004818|ACTI
Taiwan
artistic
bare
vampires
arrest|C0018790|DISO
Utah
Marcus
assist
gradually
qualifying
Victorian
vast
rival
Warner
Terry
Economic
##cia
losses
boss
versus
audio
runner
apply
surgery
Play|C0600138|DISO
twisted
comfortable
##cs
Everyone
guests
##lt
Harrison
UEFA
lowered
occasions
##lly
##cher
chapter
youngest
eighth
Culture
##room
##stone
1888
Songs
Seth
Digital|C0582802|ANAT
involvement
expedition
relationships
signing
1000
fault
annually
circuit
afterwards
meat
creature
##ou
cable
Bush
##net
Hispanic
rapid
gonna
figured
extent
considering
cried
##tin
sigh|C0425481|DISO
dynasty
##ration
cabinet
Richmond
stable
##zo
1864
Admiral
Unit
occasion
shares
badly
longest
##ify
Connor
extreme
wondering
girlfriend
Studio
##tions
1865
tribe
exact
muscles|C0026845|ANAT
hat
Luis
Orthodox
decisions
amateur
description
##lis
hips|C0019552|ANAT
kingdom
##ute
Portland
whereas
Bachelor|C0337600|DISO
outer
discussion|C0557061|PROC
partly
Arkansas
1880
dreams|C0013117|PHYS
perfectly
Lloyd
##bridge
asleep|C0424522|DISO
##tti
Greg
permission
trading
pitch
mill
Stage
liquid|C1697794|CHEM
Keith
##tal
wolf
processing
stick
Jerusalem
profile
rushed
spiritual
argument
Ice|C0020746|CHEM
Guy
till
Delhi
roots
Section
missions
Glasgow
penalty
NBC|C0028458|CHEM
encouraged
identify
keyboards
##zing
##ston
disc|C0993608|CHEM
plain
informed
Bernard
thinks|C0039869|PHYS
fled
Justin
##day
newspapers
##wick
Ralph
##zer
unlike
Stars
artillery
##ified
recovered
arrangement
searching
##pers
##tory
##rus
deaths|C0011065|PHYS
Egyptian
diameter
##í
marketing
corporate
teach
marks
Turner
staying
hallway
Sebastian
chapel
naked|C0424470|DISO
mistake
possession
1887
dominated
jacket
creative
Fellow
Falls|C0085639|DISO
Defence
suspended
employment
##rry
Hebrew
Hudson
Week
Wars
recognize
Natural
controversial
Tommy
thank
Athletic
benefits
decline
intention|C0162425|PHYS
##ets
Lost
Wall
participation
elevation|C0439775|PROC
supports
parliament
1861
concentration|C0086045|PHYS
Movement|C0026649|PHYS
##IS
competing
stops
behalf
##mm
limits
funded
discuss
Collins
departure
obtain
woods
latest
universe
alcohol|C0001962|CHEM
Laura
rush
blade|C2948008|CHEM
funny
Dennis
forgotten
Amy
Symphony
apparent
graduating
1862
Rob
Grey
collections
Mason
emotions|C0013987|PHYS
##ugh
literally
Any
counties
1863
nomination
fighter
habitat
respond
external
Capital
exit
Video
carbon|C0007009|CHEM
sharing
Bad
opportunities
Perry
photo
##mus
Orange
posted
remainder
transportation
portrayed
Labor|C0022864|PHYS
recommended
percussion|C0030987|PROC
rated
Grade
rivers
partially
suspected
strip|C3241918|CHEM
adults
button
struggled
intersection
Canal|C0086881|ANAT
##ability
poems|C0085404|DISO
claiming
Madrid
1886
Together
##our
Much
Vancouver
instrument
instrumental
1870
mad|C0002957|PHYS
angle
Control
Phoenix
Leo
Communications
mail
##ette
##ev
preferred
adaptation|C0000934|PHYS
alleged
discussed
deeper
##ane
Yet
Monday
volumes
thrown
Zane
##logy
displayed
rolling
dogs
Along
Todd
##ivity
withdrew
representation
belief
##sia
crown|C0226993|ANAT
Late
Short
hardly
grinned
romantic
Pete
##ken
networks
enemies
Colin
Eventually
Side
donated
##su
steady
grab
guide
Finnish
Milan
pregnant|C0549206|DISO
controversy
reminded|C0557033|PROC
1884
Stuart
##bach
##ade
Race
Belgian
LP
Production
Zone
lieutenant
infantry
Child
confusion|C0009676|DISO
sang
resident
##ez
victim
1881
channels
Ron
businessman
##gle
Dick
colony
pace
producers
##ese
agencies
Craig
Lucy
Very
centers
Yorkshire
photography
##ched
Album
championships
Metro
substantial
Standard
terrible
directors
contribution
advertising
emotional|C0849912|DISO
##its
layer
segment
sir
folded
Roberts
ceased
Hampshire
##ray
detailed
partners
m²
##pt
Beth
genre
commented
generated
remote
aim
Hans
credits
concerts
periods|C0025344|PHYS
breakfast|C2698559|ACTI
gay
shadow
defence
Too
Had
transition
Afghanistan
##book
eggs
defend
##lli
writes
Systems
bones|C0262950|ANAT
mess
seed
scientists
Shortly
Romanian
##zy
Freedom
muscle|C0026845|ANAT
hero
parent
agriculture
checked
Islam
Bristol
Freyja
Arena
cabin
Germans
electricity
ranks
viewed
medals
Wolf
associate
Madison
Sorry
fort
Chile
detail
widespread
attorney
boyfriend
##nan
Students
Spencer
##ig
bite|C0005658|DISO
Maine
demolished
Lisa
erected
Someone
operational
Commissioner
NHL
Coach
Bar
forcing
Dream|C0013117|PHYS
Rico
cargo
Murphy
##fish
##ase
distant
##master
##ora
Organization
doorway
Steven
traded
electrical
frequent
##wn
Branch
Sure
1882
placing
Manhattan
attending
attributed
excellent
pounds
ruling
principles
component
Mediterranean
Vegas
machines
percentage
infrastructure
throwing|C0560512|DISO
affiliated
Kings
secured
Caribbean
Track
Ted
honour
opponent
Virgin|C0555061|DISO
Construction|C0441513|PROC
grave
produces
Challenge
stretched
paying
murmured
##ata
integrated
waved
Nathan
##ator
transmission
videos
##yan
##hu
Nova
descent
AM
Harold
conservative
Therefore
venue
competitive
##ui
conclusion
funeral
confidence|C0237529|PHYS
releases|C1963578|PROC
scholar
##sson
Treaty
stress|C0038435|DISO
mood|C0026516|PHYS
##sm
Mac
residing
Action
Fund
##ship
animated
fitted
##kar
defending
voting
tend
##berry
answers
believes
##ci
helps
Aaron
##tis
themes
##lay
populations
Players
stroke|C0038454|DISO
Trinity
electoral
paint
abroad
charity
keys
Fair
##pes
interrupted
participants
murdered
Days
supporters
##ab
expert
borders
mate
##llo
solar
architectural
tension|C0233494|DISO
##bling
Parish
tape
operator
Cultural
Clinton
indicates
publisher
ordinary
sugar|C0242209|CHEM
arrive
rifle
acoustic
##uring
assets
##shire
SS
sufficient
options
HMS
Classic
bars
rebuilt
governments
Beijing
reporter
screamed
Abbey
crying
mechanical
instantly
communications
Political
cemetery
Cameron
Stop
representatives
USS
texts
mathematics
innings
civilian
Serbia
##hill
practical
patterns
dust
Faculty
debt|C0581901|DISO
##end
##cus
junction
suppose
experimental
Computer
Food
wrist|C0043262|ANAT
abuse
dealing
bigger
cap
principle
##pin
Muhammad
Fleet|C0591516|CHEM
Collection
attempting
dismissed
##burn
regime
Herbert
##ua
shadows
1883
Eve
Lanka
1878
Performance
fictional
##lock
Noah
Run
Voivodeship
exercise|C0015259|ACTI
broadcasting
##fer
RAF
Magic
Bangladesh
suitable
##low
##del
styles
toured
Code
identical
links
insisted
110
flash|C0262485|PROC
Model
slave
Derek
Rev
fairly
Greater
sole|C0230463|ANAT
##lands
connecting
zero
bench
##ome
switched
Fall|C0085639|DISO
Owen
yours
Electric
shocked|C0036974|DISO
convention
##bra
climb|C0561942|DISO
memorial
swept
Racing
decides
belong
##nk
parliamentary
##und
ages
proof
##dan
delivery|C0011209|PROC
1860
##ów
sad|C0085159|DISO
publicly
leaning
Archbishop
dirt|C1563093|ANAT
##ose
categories
1876
burn|C0006434|DISO
##bing
requested
Guinea
Historical
rhythm
relation
##heim
ye
pursue
merchant
##mes
lists
continuous
frowned
colored
tool
gods
involves
Duncan
photographs
Cricket
slight
Gregory
atmosphere
wider
Cook
##tar
essential
Being
FA
emperor
wealthy
nights
##bar
licensed
Hawaii
viewers
Language
load
nearest
milk
kilometers
platforms
##ys
territories
Rogers
sheet
Rangers
contested
##lation
isolated
assisted
swallowed
Small
Contemporary
Technical
Edwards
express
Volume
endemic
##ei
tightly
Whatever
indigenous
Colombia
##ulation
hp
characterized
##ida
Nigeria
Professional
duo
Soccer|C0037393|ACTI
slaves
Farm
smart
Attorney
Attendance
Common
salt|C0037494|CHEM
##vin
tribes
nod
sentenced
bid
sample
Drive|C0013126|PHYS
switch
instant
21st
Cuba
drunk|C0001969|DISO
Alaska
proud
awareness|C0004448|PHYS
hitting
sessions
Thai
locally
elsewhere
Dragon
gentle|C0720654|CHEM
touching
##lee
Springs
Universal
Latino
spin
1871
Chart
recalled
Type
pointing
##ii
lowest
##ser
grandmother
Adelaide
Jacques
spotted
Buffalo
restoration
Son
Joan
farmers
Lily
1879
lucky
##dal
luck
eldest
##rant
Market
drummer
deployed
warned
prince
sing
amazing
sailed
##oon
1875
Primary|C0439631|PROC
traveling|C0040802|ACTI
Masters
Sara
cattle
Trail
gang
Further
desert
relocated
##tch
##ord
Flight
illness|C0221423|DISO
Munich
ninth
repair|C0374711|PROC
Singles
##lated
Tyler
tossed
boots
Work|C0043227|ACTI
sized
earning
shoved
magazines
housed
dam
researchers
Former
spun
premiere
spaces
organised
wealth
crimes
devoted
stones
Urban|C0724128|CHEM
automatic
hop
affect|C0001721|PHYS
outstanding
tanks
mechanism
Muslims
Ms
shots
argue
Jeremy
connections
Armenian
increases
rubbed
1867
retail
gear
Pan
bonus
jurisdiction
weird
concerning
whisper
##gal
Microsoft
tenure
hills
www
Gmina
porch
files
reportedly
venture
Storm
##ence
Nature
killer
panic|C0030318|DISO
fate
Secret
Wang
scream
drivers
belongs
Chamber
clan
monument
mixing
Peru
bet
Riley
Friends
Isaac
submarine
1877
130
judges
harm
ranging
affair
prepare
pupils|C0034121|ANAT
householder
Policy
decorated
Nation
slammed
activist
implemented
Room
qualify
Publishing
establishing
Baptist
touring
subsidiary
##nal
legend|C2729544|CHEM
1872
laughter
PC
Athens
settlers
ties
dual
dear
Draft
strategic
Ivan
reveal
closest
dominant
Ah
##ult
Denver
bond
boundaries
drafted
tables
##TV
eyed
Edition
##ena
1868
belonging
1874
Industrial
cream|C1378128|CHEM
Ridge
Hindu
scholarship
Ma
opens
initiated
##ith
yelled
compound
random
Throughout
grades
physics
sank
grows
exclusively
settle|C1266099|DISO
Saints
brings
Amsterdam
Make
Hart
walks|C0600108|DISO
battery
violin
##born
explanation
##ware
1873
##har
provinces
thrust
exclusive
sculpture
shops
##fire
VI
constitution
Barcelona
monster|C0026505|DISO
Devon
Jefferson
Sullivan
bow
##din
desperate
##ć
Julie
##mon
##ising
terminus
Jesse
abilities
golf|C0018041|ACTI
##ple
##via
##away
Raymond
measured
jury
firing
revenue
suburb
Bulgarian
1866
##cha
timber
Things
##weight
Morning
spots|C0848332|DISO
Alberta
Data
explains
Kyle
friendship
raw
tube
demonstrated
aboard
immigrants
reply
breathe
Manager
ease
##ban
##dia
Diocese
##vy
##ía
pit|C0175697|DISO
ongoing
##lie
Gilbert
Costa|C0035561|ANAT
1940s
Report
voters
cloud
traditions
##MS
gallery
Jennifer
swung
Broadcasting
Does
diverse
reveals
arriving
initiative|C0424093|PHYS
##ani
Give
Allied
Pat
Outstanding
monastery
blind
Currently
##war
bloody
stopping|C0723457|CHEM
focuses
managing|C1273870|ACTI
Florence
Harvey
creatures
900
breast|C0006141|ANAT
internet
Artillery
purple
##mate
alliance
excited
fee
Brisbane
lifetime
Private
##aw
##nis
##gue
##ika
phrase
regulations
reflected
manufactured
conventional
pleased
client
##ix
##ncy
Pedro
reduction|C0441610|PROC
##con
welcome
jail
comfort
Iranian
Norfolk
Dakota
##tein
evolution
everywhere
Initially
sensitive|C0020517|DISO
Olivia
Oscar
implementation
sits|C0728713|DISO
stolen
demands
slide
grandson
##ich
merger
##mic
Spirit|C1705899|CHEM
##°
ticket
root|C0040452|ANAT
difficulty|C1299586|DISO
Nevada
##als
lined
Dylan
Original
Call
biological
EU
dramatic
##hn
Operations
treaty
gap
##list
Am
Romanized
moral
Butler
perspective
Furthermore
Manuel
absolutely
unsuccessful
disaster
dispute
preparation
tested
discover
##ach
shield
squeezed
brushed
battalion
Arnold
##ras
superior
treat|C0087111|PROC
clinical
##so
Apple|C2702351|CHEM
Syria
Cincinnati
package
flights
editions
Leader
minority
wonderful
hang
Pop|C0175314|ANAT
Philippine
telephone
bell
honorary
##mar
balls
Democrat
dirty
thereafter
collapsed|C0344329|DISO
Inside
slip
wrestling|C0043261|ACTI
##ín
listened
regard
bowl|C0336949|ACTI
None
Sport|C0038039|ACTI
completing
trapped
##view
copper|C0009968|CHEM
Wallace
Honor
blame
Peninsula
##ert
##oy
Anglo
bearing
simultaneously
honest
##ias
Mix
Got
speaker
voiced
impressed
prices
error
1869
##feld
trials
Nine
Industry
substitute
Municipal
departed
slept
##ama
Junction
Socialist
flower
dropping
comment
fantasy
##ress
arrangements
travelled
furniture
fist
relieved
##tics
Leonard
linear
earn
expand
Soul
Plan|C0270724|DISO
Leeds
Sierra
accessible
innocent
Winner
Fighter
Range
winds
vertical
Pictures
101
charter
cooperation
prisoner
interviews
recognised
sung
manufacturer
exposure|C0274281|DISO
submitted
Mars
leaf
gauge
screaming
likes
eligible
##ac
gathering
columns
##dra
belly|C0224086|ANAT
UN
maps
messages
speakers
##ants
garage
unincorporated
Number
Watson
sixteen
lots
beaten
Could
Municipality
##ano
Horse
talks|C0600118|DISO
Drake
scores
Venice
genetic|C0017296|PROC
##mal
##ère
Cold|C0009443|DISO
Jose
nurse
traditionally
##bus
Territory
Key
Nancy
##win
thumb|C0040067|ANAT
São
index
dependent
carries|C0699809|DISO
controls
Comics
coalition
physician
referring
Ruth
Based
restricted
inherited
internationally
stretch|C0600080|PROC
THE
plates
margin
Holland
knock
significance
valuable
Kenya
carved
emotion|C0013987|PHYS
conservation
municipalities
overseas
resumed
Finance
graduation
blinked
temperatures
constantly
productions
scientist
ghost
cuts|C0000925|DISO
permitted
##ches
firmly
##bert
patrol
##yo
Croatian
attacking
1850
portrait
promoting
sink
conversion
##kov
locomotives
Guide
##val
nephew
relevant
Marc
drum
originated
Chair
visits
dragged
Price
favour
corridor
properly
respective
Caroline
reporting
inaugural
1848
industries
##ching
edges
Christianity
Maurice
Trent
Economics
carrier|C0007294|DISO
Reed
##gon
tribute
Pradesh
##ale
extend
attitude|C0004271|PHYS
Yale
##lu
settlements
glasses
taxes
targets
##ids
quarters
##ological
connect
hence
metre
collapse|C0344329|DISO
underneath
banned
Future
clients
alternate
explosion|C0005700|DISO
kinds
Commons
hungry|C0020175|DISO
dragon
Chapel
Buddhist
lover
depression|C0011581|DISO
pulls|C0580846|DISO
##ges
##uk
origins
computers
crosses
kissing
assume
emphasis
lighting
##ites
personally
crashed
beam
touchdown
lane
comparison
##mont
Hitler
##las
execution
##ene
acre
sum|C0228378|ANAT
Pearl
ray
##point
essentially
worker
convicted
tear|C0043246|DISO
Clay
recovery
Literature
Unfortunately
##row
partial
Petersburg
Bulgaria
coaching
evolved
reception
enters
narrowed
elevator
therapy|C0087111|PROC
defended
pairs
##lam
breaks
Bennett
Uncle
cylinder
##ison
passion|C0939808|CHEM
bases
Actor
cancelled
battles
extensively
oxygen|C0030054|CHEM
Ancient
specialized
negotiations
##rat
acquisition
convince
interpretation
##00
photos
aspect
colleges
Artist
keeps
##wing
Croatia
##ona
Hughes
Otto
comments
##du
Ph
Sweet
adventure
describing
Student
Shakespeare
scattered
objective
Aviation
Phillips
Fourth
athletes
##hal
##tered
Guitar
intensity
née
dining
curve
Obama
topics
legislative
Mill
Cruz
##ars
Members
recipient
Derby
inspiration|C0004048|PHYS
corresponding
fed
YouTube
coins
pressing
intent|C0162425|PHYS
Karen
cinema
Delta
destination
shorter
Christians
imagined
canal|C0086881|ANAT
Newcastle
Shah
Adrian
super
Males
160
liberal
lord
bat|C0006298|ANAT
supplied
Claude
meal
worship
##atic
Han
wire
°F
##tha
punishment
thirteen
fighters
##ibility
1859
Ball
gardens
##ari
Ottawa
pole
indicating
Twenty
Higher
Bass
Ivy
farming
##urs
certified
Saudi
plenty
##ces
restaurants
Representative
Miles
payment
##inger
##rit
Confederate
festivals
references
##ić
Mario
PhD
playoffs
witness
rice|C3484401|CHEM
mask
saving
opponents
enforcement
automatically
relegated
##oe
radar
whenever
Financial
imperial
uncredited
influences
Abraham
skull|C0037303|ANAT
Guardian
Haven
Bengal
impressive
input
mixture
Warsaw
altitude
distinction
1857
collective
Annie
##ean
##bal
directions
Flying|C0441659|ACTI
##nic
faded
##ella
contributing
##ó
employee
##lum
##yl
ruler
oriented|C1961028|DISO
conductor
focusing|C2981153|DISO
##die
Giants|C0017547|DISO
Mills
mines
Deep
curled
Jessica
guitars
Louise
procedure|C0184661|PROC
Machine
failing
attendance
Nepal
Brad
Liam
tourist
exhibited
Sophie
depicted
Shaw
Chuck
##can
expecting
challenges
##nda
equally
resignation
##logical
Tigers
loop
pitched
outdoor
reviewed
hopes
True
temporarily
Borough
torn|C0043246|DISO
jerked|C0231530|DISO
collect
Berkeley
Independence
cotton|C2727825|CHEM
retreat
campaigns
participating
Intelligence|C0021704|PHYS
Heaven
##ked
situations
borough
Democrats
Harbor
##len
Liga
serial
circles
fourteen
##lot
seized
filling
departments
finance
absolute
Roland
Nate|C0228405|ANAT
floors
raced
struggling
deliver
protests
##tel
Exchange
efficient
experiments
##dar
faint|C0039070|DISO
3D
binding
Lions
lightly
skill
proteins|C0033684|CHEM
difficulties|C1299586|DISO
##cal
monthly
camps|C0006811|ACTI
flood
loves|C0024028|PHYS
Amanda
Commerce
##oid
##lies
elementary
##tre
organic
##stein
##ph
receives
Tech
enormous
distinctive
Joint|C0022417|ANAT
experiment
Circuit
citizen
##hy
shelter
ideal
practically
formula
addressed
Foster
Productions
##ax
variable
punk
Voice
fastest
concentrated
##oma
##yer
stored
surrender
vary
Sergeant
Wells
ward
Wait
##ven
playoff
reducing
cavalry
##dle
Venezuela
tissue|C0040300|ANAT
amounts
sweat|C0038990|DISO
##we
Non
##nik
beetle
##bu
##tu
Jared
Hunt
##₂
fat|C0015677|CHEM
Sultan
Living
Circle
Secondary
Suddenly
reverse
##min
Travel|C0040802|ACTI
##bin
Lebanon
##mas
virus
Wind|C0016204|DISO
dissolved
enrolled
holiday
Keep
helicopter
Clarke
constitutional
technologies
doubles
instructions
##ace
Azerbaijan
##ill
occasional
frozen
trick
wiped
writings
Shanghai
preparing
challenged
mainstream
summit
180
##arian
##rating
designation
##ada
revenge
filming
tightened
Miguel
Montana
reflect|C0558058|PHYS
celebration
bitch
flashed
signals
rounded
peoples
##tation
renowned
Google
characteristic
Campaign
sliding
##rman
usage
Record
Using
woke
solutions
holes
theories
logo
Protestant
relaxed
brow
nickname
Reading|C0034754|ACTI
marble
##tro
symptoms
Overall
capita
##ila
outbreak
revolution|C2948499|CHEM
deemed
Principal
Hannah
approaches
inducted
Wellington
vulnerable
Environmental
Drama
incumbent
Dame
1854
travels|C0040802|ACTI
samples
accurate
physically
Sony
Nashville
##sville
##lic
##og
Producer
Lucky
tough
Stanford
resort
repeatedly
eyebrows|C0015420|ANAT
Far
choir
commenced
##ep
##ridge
rage
swing
sequel
heir
buses
ad
Grove
##late
##rick
updated
##SA
Delaware
##fa
Athletics
warmth
Off
excitement|C0233571|PHYS
verse
Protection
Villa
corruption
intellectual
Jenny
##lyn
mystery
prayer
healthy
##ologist
Bear
lab
Ernest
Remix
register
basement
Montgomery
consistent
tier
1855
Preston
Brooks
##maker
vocalist
laboratory|C0022885|PROC
delayed
wheels
rope
bachelor|C0337600|DISO
pitcher
Block|C0028778|DISO
Nevertheless
suspect
efficiency
Nebraska
siege
FBI
planted
##AC
Newton
breeding
##ain
eighteen
Argentine
encounter
servant
1858
elder|C0994408|CHEM
Shadow
Episode
fabric
doctors
survival
removal|C0015252|PROC
chemistry
volunteers
Kane
variant
arrives
Eagle
Left
##fe
Jo
divorce|C0086170|DISO
##ret
yesterday
Bryan
handling
diseases|C0012634|DISO
customer
Sheriff
Tiger
Harper
##oi
resting|C0035253|ACTI
Linda
Sheffield
gasped
sexy
economics
alien
tale
footage
Liberty
yeah
fundamental
Ground
flames
Actress
photographer
Maggie
Additional
joke
custom
Survey
Abu
silk|C0074529|CHEM
consumption
Ellis
bread
##uous
engagement|C0425152|DISO
puts
Dog
##hr
poured
guilt|C0018379|PHYS
CDP|C0010724|CHEM
boxes
hardware
clenched
##cio
stem
arena
extending
##com
examination
Steel
encountered
revised
140
picking
Car
hasn
Minor
pride
Roosevelt
boards
##mia
blocked|C0028778|DISO
curious
drag|C1562415|DISO
narrative
brigade
Prefecture
mysterious
namely
connects
Devil
historians
CHAPTER
quit
installation
Golf|C0018041|ACTI
empire
elevated
##eo
releasing
Bond
##uri
harsh
ban
##BA
contracts
cloth
presents
stake
chorus
##eau
swear|C0233730|DISO
##mp
allies
generations
Motor
meter
pen
warrior
veteran
##EC
comprehensive
missile
interaction|C0687133|PHYS
instruction
Renaissance
rested|C0035253|ACTI
Dale
fix
fluid
les|C0227192|ANAT
investigate
loaded
widow|C0206275|DISO
exhibit
artificial
select
rushing
tasks
signature
nowhere
Engineer
feared
Prague
bother
extinct
gates
Bird
climbing|C0561942|DISO
heels|C0018870|ANAT
striking
artwork
hunt
awake|C0234422|DISO
##hin
Formula
thereby
commitment
imprisoned
Beyond
##MA
transformed
Agriculture
Low
Movie
radical
complicated
Yellow
Auckland
mansion
tenth
Trevor
predecessor
##eer
disbanded
sucked|C0677049|DISO
circular
witch
gaining
lean
Behind
illustrated
rang
celebrate
bike
consist
framework
##cent
Shane
owns
350
comprises
collaborated
colleagues
##cast
engage
fewer
##ave
1856
observation
diplomatic
legislature
improvements
Interstate
craft
MTV
martial
administered
jet
approaching
permanently
attraction
manuscript
numbered
Happy|C0018592|PHYS
Andrea
shallow
Gothic
Anti
##bad
improvement
trace
preserve
regardless
rode
dies
achievement
maintaining
Hamburg
spine|C0037949|ANAT
##air
flowing
encourage
widened
posts
##bound
125
Southeast
Santiago
##bles
impression
receiver
Single
closure|C0185003|PROC
##unt
communist
honors
Northwest
105
##ulated
cared
un
hug
magnetic
seeds
topic
perceived
prey
prevented
Marvel
Eight
Michel
Transportation
rings
Gate
##gne
Byzantine
accommodate
floating
##dor
equation
ministry
##ito
##gled
Rules
earthquake
revealing
Brother
Celtic
blew
chairs
Panama
Leon
attractive
descendants
Care
Ambassador
tours
breathed
threatening
##cho
smiles|C0517048|DISO
Lt
Beginning
##iness
fake
assists
fame
strings
Mobile
Liu
parks
http
1852
brush
Aunt
bullet
consciousness|C0234421|PHYS
##sta
##ther
consequences
gather
dug
1851
bridges
Doug
##sion
Artists
ignore
Carol
brilliant
radiation|C1522449|PROC
temples
basin
clouds
##cted
Stevens
spite
soap
consumer
Damn
Snow|C0009170|CHEM
recruited
##craft
Advanced
tournaments
Quinn
undergraduate
questioned
Palmer
Annual
Others
feeding
Spider
printing
##orn
cameras
functional
Chester
readers
Alpha
universal
Faith
Brandon
François
authored
Ring
el
aims
athletic
possessed
Vermont
programmes
##uck
bore
Fisher
statements
shed
saxophone
neighboring
pronounced
barrel
bags
##dge
organisations
pilots
casualties
Kenneth
##brook
silently
Malcolm
span
Essex
anchor|C1293132|PROC
##hl
virtual
lessons
Henri
Trump
Page|C0013862|PROC
pile|C0019112|DISO
locomotive
wounds|C0043250|DISO
uncomfortable
sustained
Diana
Eagles
##pi
2000s
documented
##bel
Cassie
delay
kisses
##ines
variation
##ag
growled
##mark
##ways
Leslie
studios
Friedrich
aunt
actively
armor
eaten
historically
Better
purse
honey|C0939937|CHEM
ratings
##ée
naturally
1840
peer
Kenny
Cardinal
database
Looking
runners
handsome
Double
PA
##boat
##sted
protecting
##jan
Diamond|C0057717|CHEM
concepts
interface
##aki
Watch
Article
Columbus
dialogue
pause
##rio
extends
blanket
pulse
1853
affiliate
ladies
Ronald
counted
kills
demons
##zation
Airlines
Marco
Cat
companion
mere
Yugoslavia
Forum
Allan
pioneer
Competition
Methodist
patent
nobody
Stockholm
##ien
regulation
##ois
accomplished
##itive
washed
sake
Vladimir
crops
prestigious
humor|C0597811|PROC
Sally
labour|C0022864|PHYS
tributary
trap
altered
examined
Mumbai
bombing
Ash
noble
suspension|C0038960|CHEM
ruins
##bank
spare
displays
guided
dimensional
Iraqi
##hon
sciences
Franz
relating
fence
followers
Palestine
invented
proceeded
Batman
Bradley
##yard
##ova
crystal|C1378554|CHEM
Kerala
##ima
shipping
handled
Want
abolished
Drew
##tter
Powell
Half
##table
##cker
exhibitions
Were
assignment
assured
##rine
Indonesian
Grammy
acknowledged
Kylie
coaches
structural
clearing
stationed
Say
Total
Rail
besides
glow
threats
afford
Tree
Musical
##pp
elite
centered
explore
Engineers
Stakes
Hello
tourism
severely
assessment
##tly
crack|C0085163|CHEM
politicians
##rrow
sheets
volunteer
##borough
##hold
announcement
recover
contribute
lungs|C0024109|ANAT
##ille
mainland
presentation
Johann
Writing|C2584304|PHYS
1849
##bird
Study
Boulevard
coached
fail
airline
Congo
Plus
Syrian
introduce
ridge
Casey
manages
##fi
searched
Support|C0344211|PROC
succession
progressive
coup
cultures
##lessly
sensation|C0036658|PHYS
Cork|C0304066|CHEM
Elena
Sofia
Philosophy
mini
trunk|C0460005|ANAT
academy
Mass|C0577559|DISO
Liz
practiced
Reid
##ule
satisfied
experts
Wilhelm
Woods
invitation
Angels
calendar
joy|C0018592|PHYS
Sr
Dam
packed|C0184967|PROC
##uan
bastard
Workers
broadcasts
logic
cooking
backward
##ack
Chen
creates
enzyme|C0014442|CHEM
##xi
Davies
aviation
VII
Conservation
fucking
Knights
##kan
requiring
hectares
wars
ate|C0004135|DISO
##box
Mind
desired
oak|C0338508|DISO
absorbed
Really
Vietnamese
Paulo
athlete
##car
##eth
Talk
Wu
##cks
survivors
Yang
Joel
Almost
Holmes
Armed
Joshua
priests
discontinued
##sey
blond
Rolling
suggesting
CA
clay
exterior
Scientific
##sive
Giovanni
Hi
farther
contents
Winners
animation
neutral
mall
Notes
layers
professionals
Armstrong
Against
Piano
involve
monitor
angel
parked
bears
seated
feat
beliefs
##kers
Version
suffer|C0683278|DISO
##ceae
guidance
##eur
honored
raid
alarm
Glen
Ellen
Jamaica
trio
enabled|C0562342|PHYS
##ils
procedures|C0184661|PROC
##hus
moderate
upstairs
##ses
torture
Georgian
rebellion
Fernando
Nice
##are
Aires
Campus
beast
##hing
1847
##FA
Isle
##logist
Princeton
cathedral
Oakland
Solomon
##tto
Milwaukee
upcoming
midfielder
Neither
sacred
Eyes|C0015392|ANAT
appreciate
Brunswick
secrets
Rice|C3484401|CHEM
Somerset
Chancellor
Curtis
##gel
Rich
separation|C0036679|DISO
grid
##los
##bon
urge
##ees
##ree
freight
towers
psychology
requirement
dollar
##fall
##sman
exile
tomb
Salt|C0037494|CHEM
Stefan
Buenos
Revival
Porter
tender
diesel
chocolate|C2728194|CHEM
Eugene
Legion
Laboratory|C0022885|PROC
sheep
arched
hospitals
orbit|C0029180|ANAT
Full
##hall
drinks
ripped
##RS
tense|C0235108|DISO
Hank
leagues
##nberg
PlayStation
fool
Punjab
relatives
Comedy
sur|C0038880|CHEM
1846
Tonight
Sox
##if
Rabbi
org
speaks|C0600116|DISO
institute
defender
painful|C0030193|DISO
wishes
Weekly
literacy
portions
snake
item
deals
##tum
autumn
sharply
reforms
thighs|C0039866|ANAT
prototype
##ition
argues
disorder|C0012634|DISO
Physics
terror
provisions
refugees
predominantly
independently
march
##graphy
Arabia
Andrews
Bus|C0006463|CHEM
Money
drops|C0991568|CHEM
##zar
pistol
matrix|C4050026|CHEM
revolutionary
##ust
Starting
##ptic
Oak|C0338508|DISO
Monica
##ides
servants
##hed
archaeological
divorced|C0086170|DISO
rocket
enjoying
fires
##nel
assembled
qualification
retiring|C0035345|DISO
##fied
Distinguished
handful
infection|C0009450|DISO
Durham
##itz
fortune
renewed
Chelsea
##sley
curved
gesture
retain
exhausted|C0392674|DISO
##ifying
Perth
jumping|C0221189|ACTI
Palestinian
Simpson
colonies
steal
##chy
corners
Finn
arguing
Martha
##var
Betty
emerging
Heights
Hindi
Manila
pianist
founders
regret
Napoleon
elbow|C0013769|ANAT
overhead
bold
praise
humanity
##ori
Revolutionary
##ere
fur
##ole
Ashley
Official
##rm
lovely
Architecture
##sch
Baronet
virtually
##OS
descended
immigration
##das
##kes
Holly
Wednesday
maintains
theatrical
Evan
Gardens
citing
##gia
segments
Bailey
Ghost
##city
governing
graphics
##ined
privately
potentially
transformation
Crystal|C1378554|CHEM
Cabinet
sacrifice
hesitated
mud
Apollo
Desert
bin
victories
Editor
Railways
Web|C0332875|DISO
Case
tourists
Brussels
Franco
compiled
topped
Gene
engineers
commentary
egg
escort
nerve|C0027740|ANAT
arch
necessarily
frustration|C0016770|PHYS
Michelle
democracy
genes
Facebook
halfway
##ient
102
flipped
Won
##mit
NASA
Lynn
Provincial
ambassador
Inspector
glared
Change
McDonald
developments
tucked
noting
Gibson
circulation
dubbed
armies
resource
Headquarters
##iest
Mia
Albanian
Oil|C1947940|CHEM
Albums
excuse
intervention
Grande
Hugo
integration
civilians
depends
reserves
Dee
compositions
identification|C0020792|PHYS
restrictions
quarterback
Miranda
Universe
favourite
ranges
hint
loyal
Op
entity
Manual
quoted
dealt
specialist
Zhang
download
Westminster
Rebecca
streams
Anglican
variations
Mine
detective
Films
reserved
##oke
##key
sailing|C0522727|ACTI
##gger
expanding
recall
discovers
particles
behaviour
Gavin
blank
permit
Java
Fraser
Pass
##non
##TA
panels
statistics
notion
courage
dare
venues
##roy
Box
Newport
travelling
Thursday
warriors
Glenn
criteria
360
mutual
restore
varied
bitter
Katherine
##lant
ritual|C0233622|DISO
bits
##à
Henderson
trips
Richardson
Detective
curse
psychological
Il
midnight
streak
facts
Dawn
Indies
Edmund
roster
Gen
##nation
1830
congregation
shaft
##ically
##mination
Indianapolis
Sussex
loving|C0024028|PHYS
##bit
sounding|C1293120|PROC
horrible
Continental
Griffin
advised
magical
millions
##date
1845
Safety
lifting
determination
valid
dialect
Penn
Know
triple
avoided
dancer
judgment|C0022423|PHYS
sixty
farmer
lakes
blast
aggressive
Abby
tag|C0037293|DISO
chains
inscription
##nn
conducting
Scout
buying
##wich
spreading
##OC
array
hurried
Environment
improving
prompted
fierce
Taking
Away
tune
pissed
Bull
catching|C0231617|DISO
##ying
eyebrow|C0015420|ANAT
metropolitan
terrain
##rel
Lodge
manufacturers
creator
##etic
happiness|C0018592|PHYS
ports
##ners
Relations
fortress
targeted
##ST
allegedly
blues
##osa
Bosnia
##dom
burial|C4064401|DISO
similarly
stranger
pursued
symbols
rebels
reflection
routine
traced
indoor
eventual
##ska
##ão
##una
MD
##phone
oh
grants
Reynolds
rid|C0073361|CHEM
operators
##nus
Joey
vital
siblings
keyboard
br
removing
societies
drives|C0013126|PHYS
solely
princess
lighter
Various|C0440102|CHEM
Cavalry
believing
SC
underwent
relay
smelled|C0037361|PHYS
syndrome|C0039082|DISO
welfare
authorized
seemingly
Hard
chicken|C2722032|CHEM
##rina
Ages
Bo
democratic
barn
Eye|C0015392|ANAT
shorts
##coming
##hand
disappointed
unexpected
centres
Exhibition
Stories
Site
banking
accidentally
Agent
conjunction
André
Chloe
resist
width
Queens
provision
##art
Melissa
Honorary
Del
prefer
abruptly
duration|C2926735|CHEM
##vis
Glass|C0025611|CHEM
enlisted
##ado
discipline
Sisters
carriage
##ctor
##sburg
Lancashire
log|C0228228|ANAT
fuck
##iz
closet
collecting
holy
rape
trusted
cleaning|C0542277|DISO
inhabited
Rocky
104
editorial
##yu
##ju
succeed
strict
Cuban
##iya
Bronze
outcome
##ifies
##set
corps
Hero
barrier
Kumar
groaned
Nina
Burton
enable|C0562342|PHYS
stability
Milton
knots
##ination
slavery
##borg
curriculum
trailer
warfare
Dante
Edgar
revival
Copenhagen
define
advocate
Garrett
Luther
overcome
pipe
750
construct
Scotia
kings
flooding|C0021114|PROC
##hard
Ferdinand
Felix
forgot
Fish
Kurt
elaborate
##BC
graphic
gripped
colonel
Sophia
Advisory
Self
##uff
##lio
monitoring
seal
senses|C0036658|PHYS
rises
peaceful
journals
1837
checking
legendary
Ghana
##power
ammunition
Rosa
Richards
nineteenth
ferry
aggregate
Troy
inter
##wall
Triple
steep
tent
Cyprus
1844
##woman
commanding
farms
doi
navy
specified
na
cricketer
transported
Think|C0039869|PHYS
comprising
grateful
solve
##core
beings
clerk
grain
vector
discrimination|C0012632|PHYS
##TC
Katie
reasonable
drawings
veins|C0042449|ANAT
consideration
Monroe
repeat
breed
dried
witnessed
ordained
Current
spirits
remarkable
consultant
urged
Remember
anime
singers
phenomenon
Rhode
Carlo
demanding
findings
manual
varying
Fellowship
generate
safely
heated
withdrawn
##ao
headquartered
##zon
##lav
##ency
Col
Memphis
imposed
rivals
Planet
healing|C0043240|PHYS
##hs
ensemble
Warriors
##bone
cult
Frankfurt
##HL
diversity
Gerald
intermediate
##izes
reactions
Sister
##ously
##lica
quantum
awkward
mentions
pursuit
##ography
varies
profession
molecular
consequence
lectures
cracked
103
slowed
##tsu
cheese
upgraded
suite
substance
Kingston
1800
Idaho
Theory
##een
ain|C0347129|DISO
Carson
Molly
##OR
configuration
Whitney
reads|C0034754|ACTI
audiences
##tie
Geneva
Outside
##nen
##had
transit
volleyball
Randy
Chad
rubber|C0035918|CHEM
motorcycle
respected
eager|C0558083|PHYS
Level
coin
##lets
neighbouring
##wski
confident
##cious
poll
uncertain|C0087130|DISO
punch
thesis
Tucker
IATA
Alec|C0104263|CHEM
##ographic
##law
1841
desperately
1812
Lithuania
accent
Cox|C0033551|CHEM
lightning
skirt
##load
Burns|C0006434|DISO
Dynasty
##ug
chapters
Working|C0043227|ACTI
dense
Morocco
##kins
casting
Set
activated
oral
Brien
horn
HIV|C0019693|DISO
dawn
stumbled
altar
tore
considerably
Nicole
interchange
registration
biography
Hull
Stan
bulk
consent
Pierce
##ER
Fifth
marched
terrorist
##piece
##itt
Presidential
Heather
staged
Plant
relegation
sporting|C0038039|ACTI
joins
##ced
Pakistani
dynamic
Heat
##lf
ourselves
Except
Elliott
nationally
goddess
investors
Burke
Jackie
##ā
##RA
Tristan
Associate
Tuesday
scope
Near
bunch
##abad
##ben
sunlight
##aire
manga
Willie
trucks
boarding
Lion
lawsuit
Learning|C0023185|PHYS
Der
pounding
awful
##mine
IT
Legend|C2729544|CHEM
romance
Serie
AC
gut
precious
Robertson
hometown
realm
Guards
Tag|C0037293|DISO
batting
##vre
halt
conscious|C0234421|PHYS
1838
acquire
collar
##gg
##ops
Herald
nationwide
citizenship
Aircraft
decrease
em
Fiction
Female
corporation
Located
##ip
fights
unconscious|C0041657|DISO
Tampa
Poetry
lobby
Malta
##sar
##bie
layout
Tate
reader
stained
##bre
##rst
##ulate
loudly
Eva
Cohen
exploded
Merit
Maya
##rable
Rovers
##IC
Morrison
Should
vinyl|C0032624|CHEM
##mie
onwards
##gie
vicinity
Wildlife
probability
Mar|C0430991|PROC
Barnes
##ook
spinning
Moses
##vie
Surrey
Planning|C0032074|PHYS
conferences
protective
Plaza
deny
Canterbury
manor
Estate
tilted
comics
IBM|C0238190|DISO
destroying
server
Dorothy
##horn
Oslo
lesser
heaven
Marshal
scales
strikes
##ath
firms
attract
##BS
controlling
Bradford
southeastern
Amazon
Travis
Janet
governed
1842
Train
Holden
bleeding|C0019080|DISO
gifts
rent
1839
palms
##ū
judicial
Ho
Finals
conflicts
unlikely
draws
##cies
compensation|C0152057|PHYS
adds
elderly
Anton
lasting
Nintendo
codes
ministers
pot
associations|C0004083|PHYS
capabilities
##cht
libraries
##sie
chances
performers
runway
##af
##nder
Mid
Vocals
##uch
##eon
interpreted
priority
Uganda
ruined
Mathematics
cook
AFL
Lutheran
AIDS|C0001175|DISO
Capitol
chase
axis|C0004457|ANAT
Moreover
María
Saxon
storyline
##ffed
Tears
Kid
cent
colours
Sex|C0009253|PHYS
##long
pm
blonde
Edwin
CE
diocese
##ents
##boy
Inn
##ller
Saskatchewan
##kh
stepping|C0427149|DISO
Windsor
##oka
##eri
Xavier
Resources
1843
##top
##rad
##lls
Testament
poorly
1836
drifted
slope
CIA
remix
Lords
mature
hosting
diamond|C0057717|CHEM
beds
##ncies
luxury
trigger
##lier
preliminary
hybrid|C0007597|PROC
journalists
Enterprise
proven
expelled
insects
Beautiful
lifestyle
vanished
##ake
##ander
matching
surfaces
Dominican
Kids
referendum
Orlando
Truth
Sandy
privacy
Calgary
Speaker
sts|C0037556|CHEM
Nobody
shifting
##gers
Roll
Armenia
Hand|C0018563|ANAT
##ES
106
##ont
Guild
larvae
Stock
flame
gravity
enhanced
Marion
surely
##tering
Tales
algorithm
Emmy
darker
VIII
##lash
hamlet
deliberately
occurring
choices
Gage
fees
settling
ridiculous
##ela
Sons
cop|C0242770|DISO
custody
##ID
proclaimed
Cardinals
##pm
Metal|C0025552|CHEM
Ana|C0003243|CHEM
1835
clue
Cardiff
riders
observations
MA
sometime
##och
performer
intact
Points
allegations
rotation
Tennis|C0039515|ACTI
tenor
Directors
##ats
Transit
thigh|C0039866|ANAT
Complex
##works
twentieth
Factory
doctrine
Daddy
##ished
pretend
Winston
cigarette
##IA
specimens
hydrogen|C0020275|CHEM
smoking
mathematical
arguments
openly
developer
##iro
fists
somebody
##san
Standing
Caleb
intelligent
Stay
Interior
echoed
Valentine
varieties
Brady
cluster
Ever
voyage
##of
deposits
ultimate
Hayes
horizontal
proximity
##ás
estates
exploration|C1280903|PROC
NATO
Classical
##most
bills
condemned
1832
hunger|C0020175|DISO
##ato
planes
deserve
offense
sequences
rendered
acceptance
##ony
manufacture
Plymouth
innovative
predicted
##RC
Fantasy
##une
supporter
absent
Picture
bassist
rescued
##MC
Ahmed
Monte
##sts
##rius
insane
novelist
##és
agrees
Antarctic
Lancaster
Hopkins
calculated
startled
##star
tribal
Amendment
##hoe
invisible
patron
deer
Walk|C0080331|ACTI
tracking
Lyon
tickets
##ED
philosopher
compounds
chuckled
##wi
pound
loyalty
Academic
petition
refuses
marking
Mercury|C0025424|CHEM
northeastern
dimensions
scandal
Canyon
patch
publish
##oning
Peak
minds
##boro
Presbyterian
Hardy
theoretical
magnitude
bombs
cage
##ders
##kai
measuring
explaining
avoiding
touchdowns
Card
theology
##ured
Popular
export
suspicious
Probably|C0332148|DISO
photograph
Lou
Parks
Arms
compact
Apparently
excess
Banks
lied
stunned
territorial
Filipino
spectrum
learns
wash
imprisonment|C0205255|DISO
ugly
##rose
Albany
Erik
sends
##hara
##rid
consumed
##gling
Belgrade
Da
opposing
Magnus
footsteps
glowing
delicate
Alexandria
Ludwig
gorgeous
Bros
Index
##PA
customs
preservation
bonds
##mond
environments
##nto
instructed
parted
adoption
locality
workshops
goalkeeper
##rik
##uma
Brighton
Slovenia
##ulating
##tical
towel
hugged
stripped
Bears
upright
Wagner
##aux
secretly
Adventures
nest
Course
Lauren
Boeing
Abdul
Lakes
450
##cu
USSR
caps
Chan
##nna
conceived
Actually
Belfast
Lithuanian
concentrate
possess
militia
pine|C0872909|CHEM
protagonist
Helena
##PS
##band
Belle
Clara
Reform
currency
pregnancy|C0032961|PHYS
1500
##rim
Isabella
hull
Name
trend
journalism
diet
##mel
Recording
acclaimed
Tang
Jace
steering|C0553654|DISO
vacant
suggestion
costume
laser
##š
##ink
##pan
##vić
integral
achievements
wise
classroom
unions
southwestern
##uer
Garcia
toss
Tara
Large
##tate
evident
responsibilities
populated
satisfaction
##bia
casual
Ecuador
##ght
arose
##ović
Cornwall
embrace
refuse
Heavyweight
XI
Eden
activists
##uation
biology
##shan
fraud
Fuck
matched
legacy|C2979241|CHEM
Rivers
missionary
extraordinary
Didn
holder
wickets
crucial
Writers
Hurricane|C0375739|DISO
Iceland
gross
trumpet
accordance
hurry
flooded
doctorate
Albania
##yi
united
deceased|C0011065|PHYS
jealous
grief|C0018235|PHYS
flute
portraits
##а
pleasant
Founded
Face|C0015450|ANAT
crowned
Raja
advisor
Salem
##ec
Achievement
admission
freely
minimal
Sudan
developers
estimate
disabled
##lane
downstairs
Bruno
##pus
pinyin
##ude
lecture
deadly
underlying
optical
witnesses
Combat
Julius
tapped
variants
##like
Colonial
Critics
Similarly
mouse
voltage
sculptor
Concert
salary
Frances
##ground
hook
premises
Software
instructor
nominee
##ited
fog
slopes
##zu
vegetation|C1285498|DISO
sail|C0522727|ACTI
##rch
Body
Apart
atop
View
utility
ribs|C0035561|ANAT
cab|C0010055|PROC
migration
##wyn
bounded
2019
pillow
trails
##ub
Halifax
shade
Rush
##lah
##dian
Notre
interviewed
Alexandra
Springfield
Indeed
rubbing
dozens
amusement
legally
##lers
Jill
Cinema
ignoring
Choice
##ures
pockets
##nell
laying
Blair
tackles
separately
##teen
Criminal
performs
theorem
Communication
suburbs
##iel
competitors
rows
##hai
Manitoba
Eleanor
interactions
nominations
assassination
##dis
Edmonton
diving|C0012823|ACTI
##dine
essay
##tas
AFC
Edge
directing
imagination|C0020913|PHYS
sunk
implement
Theodore
trembling|C0234369|DISO
sealed
##rock
Nobel
##ancy
##dorf
##chen
genuine
apartments
Nicolas
AA
Bach
Globe
Store
220
##10
Rochester
##ño
alert|C0239110|DISO
107
Beck
##nin
Naples
Basin
Crawford
fears|C0015726|PHYS
Tracy
##hen
disk|C0993608|CHEM
##pped
seventeen
Lead|C0023175|CHEM
backup
reconstruction|C0524865|PROC
##lines
terrified|C0558261|DISO
sleeve
nicknamed
popped
##making
##ern
Holiday
Gospel
ibn
##ime
convert
divine
resolved
##quet
ski|C0037262|ANAT
realizing
##RT
Legislature
reservoir
Rain
sinking
rainfall
elimination
challenging
tobacco|C0040329|CHEM
##outs
Given
smallest
Commercial
pin|C0282612|DISO
rebel
comedian
exchanged
airing
dish|C0020498|DISO
Salvador
promising
##wl
relax
presenter
toll
aerial
##eh
Fletcher
brass|C0054027|CHEM
disappear
zones
adjusted
contacts
##lk
sensed
Walt
mild|C1513302|DISO
toes|C0040357|ANAT
flies
shame
considers
wildlife
Hanna
Arsenal
Ladies
naming|C0233735|PHYS
##ishing
anxiety|C0003467|DISO
discussions|C0557061|PROC
cute
undertaken
Cash
strain|C0080194|DISO
Wyoming
dishes
precise|C2939802|CHEM
Angela
##ided
hostile
twins
115
Built
##pel
Online
tactics
Newman
##bourne
unclear
repairs
embarrassed
listing
tugged
Vale
##gin
Meredith
bout
##cle
velocity
tips|C0339897|PROC
froze
evaluation
demonstrate
##card
criticised
Nash
lineup
Rao
monks
bacteria|C0004618|PROC
lease
##lish
frightened
den
revived
finale
##rance
flee
Letters
decreased
##oh
Sounds
wrap
Sharon
incidents
renovated
everybody
stole
Bath
boxing|C0006080|ACTI
1815
withdraw
backs
interim
react|C4224854|CHEM
murders
Rhodes
Copa
framed
flown
Estonia
Heavy
explored
##rra
##GA
##ali
Istanbul
1834
##rite
##aging
##ues
Episcopal
arc
orientation|C0029266|PHYS
Maxwell
infected
##rot
BCE
Brook
grasp
Roberto
Excellence
108
withdrawal
Marines
rider
Lo
##sin
##run
Subsequently
garrison
hurricane|C0375739|DISO
facade
Prussia
crushed|C0185060|PROC
enterprise
##mber
Twitter
Generation
Physical
Sugar|C0242209|CHEM
editing
communicate|C0566001|DISO
Ellie
##hurst
Ernst
wagon
promotional
conquest
Parliamentary
courtyard
lawyers
Superman
email
Prussian
lately
lecturer
Singer
Majesty
Paradise
sooner
Heath
slot
curves
convoy
##vian
induced
synonym
breeze
##plane
##ox
peered
Coalition
##hia
odds
##esh
##lina
Tomorrow
Nadu
##ico
##rah
damp|C0376257|CHEM
autonomous
console
Victory
counts
Luxembourg
intimate
Archived
Carroll
spy
Zero
habit
Always
faction
teenager
Johnston
chaos
ruin
commerce
blog
##shed
##the
reliable
Word
Yu
Norton
parade
Catholics
damned
##iling
surgeon
##tia
Allison
Jonas
remarked
##ès
idiot
Making
proposals
Industries
strategies
artifacts
batteries
reward
##vers
Agricultural
distinguish
lengths
Jeffrey
Progressive
kicking
Patricia
##gio
ballot
##ios
skilled
##gation
Colt
limestone
##AS
peninsula
##itis
LA
hotels
shapes
Crime
depicting
northwestern
HD
silly
Das|C0057671|CHEM
##²
##ws
##ash
##matic
thermal
Has
forgive
surrendered
Palm|C0230373|ANAT
Nacional
drank
haired
Mercedes
##foot
loading
Timothy
##roll
mechanisms
traces
digging
discussing
Natalie
##zhou
Forbes
landmark
Anyway
Manor
conspiracy
gym
knocking
viewing
Formation
Pink
Beauty
limbs|C0015385|ANAT
Phillip
sponsor
Joy|C0018592|PHYS
granite
Harbour
##ero
payments
Ballet
conviction
##dam
Hood
estimates
lacked
Mad|C0002957|PHYS
Jorge
##wen
refuge
##LA
invaded
Kat
suburban
##fold
investigated
Ari
complained
creek
Georges
##uts
powder|C0032861|CHEM
accepting
deserved
carpet
Thunder
molecules
Legal
cliff
strictly
enrollment
ranch
##rg
##mba
proportion
renovation
crop
grabbing
##liga
finest
entries
receptor|C0597357|CHEM
helmet
blown
Listen
flagship
workshop
resolve
nails|C0027342|ANAT
Shannon
portal|C0205054|ANAT
jointly
shining
Violet
overwhelming
upward
Mick
proceedings
##dies
##aring
Laurence
Churchill
##rice
commit|C1171947|CHEM
170
inclusion
Examples
##verse
##rma
fury
paths
##SC
ankle|C0003086|ANAT
nerves|C0027740|ANAT
Chemistry
rectangular
sworn
screenplay
cake|C0993597|CHEM
Mann
Seoul
Animal
sizes
Speed
vol
Population
Southwest
Hold
continuously
Qualified
wishing
Fighting
Made
disappointment
Portsmouth
Thirty
##beck
Ahmad
teammate
MLB
graph
Charleston
realizes
##dium
exhibits
preventing
##int
fever|C0015967|DISO
rivalry
Male
mentally
dull
##lor
##rich
consistently
##igan
Madame
certificate
suited
Krishna
accuracy
Webb
Budapest
Rex
1831
Cornell
OK
surveillance
##gated
habitats
Adventure
Conrad
Superior
Gay
sofa
aka
boot
Statistics
Jessie
Liberation
##lip
##rier
brands
saint
Heinrich
Christine
bath
Rhine
ballet
Jin
consensus
chess
Arctic
stack
furious
cheap
toy
##yre
##face
##gging
gastropod
##nne
Romans
membrane
answering
25th
architects
sustainable
##yne
Hon
1814
Baldwin
dome
##awa
##zen
celebrity
enclosed
##uit
##mmer
Electronic
locals
##CE
supervision|C0038842|PROC
mineral|C0026162|CHEM
Chemical
Slovakia
alley
hub
##az
heroes
Creative
##AM
incredible
politically
ESPN
yanked
halls|C2356088|CHEM
Aboriginal
Greatest
yield
##20
congressional
robot
Kiss
welcomed
MS
speeds
proceed
Sherman
eased
Greene
Walsh
Geoffrey
variables
rocky
##print
acclaim
Reverend
Wonder
tonnes
recurring
Dawson
continent
finite
AP
continental
ID
facilitate
essays
Rafael
Neal
1833
ancestors
##met
##gic
Especially
teenage
frustrated|C0016770|PHYS
Jules
cock
expense
##oli
##old
blocking|C0233660|DISO
Notable
prohibited|C0138547|CHEM
ca
dock
organize
##wald
Burma
Gloria
dimension
aftermath
choosing
Mickey
torpedo
pub
##used
manuscripts
laps
Ulster
staircase
sphere
Insurance
Contest
lens|C0023317|ANAT
risks
investigations
ERA
glare|C3887688|DISO
##play
Graduate
auction
Chronicle
##tric
##50
Coming
seating
Wade
seeks
inland
Thames
Rather
butterfly
contracted
positioned
consumers
contestants
fragments
Yankees
Santos
administrator
hypothesis
retire|C0035345|DISO
Denis
agreements
Winnipeg
##rill
1820
trophy
crap
shakes|C0040822|DISO
Jenkins
##rium
ya
twist
labels
Maritime
##lings
##iv
111
##ensis
Cairo
Anything
##fort
opinions
crowded
##nian
abandon
##iff
drained
imported
##rr
tended
##rain
Going
introducing
sculptures
bankruptcy
danced
demonstration
stance
settings
gazed
abstract
pet|C0032743|PROC
Calvin
stiff
strongest
wrestler
##dre
Republicans
grace
allocated
cursed
snail
advancing
Return
errors
Mall
presenting
eliminate
Amateur
Institution
counting
##wind
warehouse
##nde
Ethiopia
trailed
hollow
##press
Literary
capability
nursing|C0006147|PHYS
preceding
lamp
Thomson
Morton
##ctic
Crew
Close
composers
boom
Clare|C1301526|DISO
missiles
112
hunter
snap|C1177045|CHEM
##oni
##tail
Us
declaration
##cock
rally
huh
lion
straightened
Philippe
Sutton
alpha
valued
maker
navigation
detected
favorable
perception|C0030971|PHYS
Charter
##ña
Ricky
rebounds
tunnels
slapped
Emergency
supposedly
##act
deployment
socialist
tubes
anybody
corn|C0010046|DISO
##NA
Seminary
heating
pump
##AA
achieving
souls
##ass
Link
##ele
##smith
greeted
Bates
Americas
Elder|C0994408|CHEM
cure
contestant
240
fold
Runner
Uh
licked
Politics
committees
neighbors
fairy
Silva
Leipzig
tipped
correctly
exciting
electronics
foundations
cottage
governmental
##hat
allied
claws
presidency
cruel
Agreement
slender
accompanying
precisely
##pass
driveway
swim|C0039003|ACTI
Stand|C0596013|DISO
crews
##mission
rely
everyday
Wings
demo
##hic
recreational
min
nationality
##duction
Easter
##hole
canvas
Kay
Leicester
talented
Discovery
shells
##ech
Kerry
Ferguson
Leave
##place
altogether
adopt|C0425382|DISO
butt
wolves
##nsis
##ania
modest
soprano
Boris
##ught
electron
depicts
hid
cruise
differ
treasure
##nch
Gun
Mama
Bengali
trainer
merchants
innovation
presumably
Shirley
bottles
proceeds
Fear|C0015726|PHYS
invested
Pirates
particle
Dominic
blamed
Fight
Daisy
##pper
##graphic
nods
knight
Doyle
tales
Carnegie
Evil
Inter
Shore
Nixon
transform
Savannah
##gas
Baltic
stretching|C0600080|PROC
worlds
protocol
Percy
Toby
Heroes
brave
dancers
##aria
backwards
responses
Chi
Gaelic
Berry
crush|C0185060|PROC
embarked
promises
Madonna
researcher
realised
inaugurated
Cherry|C2722031|CHEM
Mikhail
Nottingham
reinforced
subspecies
rapper
##kie
Dreams|C0013117|PHYS
Re
Damon
Minneapolis
monsters|C0026505|DISO
suspicion|C0242114|PHYS
Tel|C0039452|ANAT
surroundings
afterward
complaints|C0277786|DISO
OF
sectors
Algeria
lanes
Sabha
objectives
Donna
bothered
distracted
deciding
##ives
##CA
##onia
bishops
Strange
machinery|C0337246|DISO
Voiced
synthesis
reflects|C0558058|PHYS
interference
##TS
##ury
keen|C0558083|PHYS
##ign
frown
freestyle
ton
Dixon
Sacred
Ruby
Prison
##ión
1825
outfit
##tain
curiosity
##ight
frames
steadily
emigrated
horizon
##erly
Doc|C0011710|CHEM
philosophical
Table
UTC
Marina
##DA
secular
##eed
Zimbabwe
cops
Mack
sheriff
Sanskrit
Francesco
catches|C0596011|DISO
questioning
streaming
Kill
testimony
hissed
tackle
countryside
copyright
##IP
Buddhism
##rator
ladder
##ON
Past
rookie
depths
##yama
##ister
##HS
Samantha
Dana
Educational
brows
Hammond
raids
envelope
##sco
##hart
##ulus
epic|C1273342|PROC
detection
Streets
Potter
statistical
für
ni
accounting
##pot
employer
Sidney
Depression|C0011581|DISO
commands
Tracks
averaged
lets
Ram
longtime
suits
branded
chip
Shield
loans
ought
Said
sip
##rome
requests
Vernon
bordered
veterans
##ament
Marsh
Herzegovina
Pine|C0872909|CHEM
##igo
mills
anticipation
reconnaissance
##ef
expectations
protested
arrow
guessed
depot
maternal
weakness|C3714552|DISO
##ap
projected
pour
Carmen
provider
newer
remind|C0557033|PROC
freed
##rily
##wal
##tones
intentions|C0162425|PHYS
Fiji
timing
Match
managers
Kosovo
Herman
Wesley
Chang
135
semifinals
shouting|C0562551|DISO
Indo|C0021246|CHEM
Janeiro
Chess
Macedonia
Buck
##onies
rulers
Mail
##vas
##sel
MHz
Programme
Task
commercially
subtle
propaganda
spelled
bowling|C0336949|ACTI
basically
Raven
1828
Colony
109
##ingham
##wara
anticipated
1829
##iers
graduates
##rton
##fication
endangered
ISO
diagnosed
##tage
exercises|C0452240|PROC
Battery|C0542351|DISO
bolt
poison|C0032346|CHEM
cartoon
##ción
hood
bowed
heal|C0043240|PHYS
Meyer
Reagan
##wed
subfamily
##gent
momentum|C0721776|CHEM
infant
detect|C0442726|DISO
##sse
Chapman
Darwin
mechanics
NSW
Cancer|C0006826|DISO
Brooke
Nuclear
comprised
hire
sanctuary
wingspan
contrary
remembering
surprising
Basic
stealing
OS
hatred
##lled
masters
violation
Rule
##nger
assuming
conquered
louder
robe
Beatles
legitimate
##vation
massacre
Rica
unsuccessfully
poets
##enberg
careers
doubled
premier
battalions
Dubai
Paper
Louisville
gestured
dressing
successive
mumbled
Vic
referee
pupil|C0034121|ANAT
##cated
##rre
ceremonies
picks
##IN
diplomat
alike
geographical
rays
##HA
##read
harbour
factories
pastor
playwright
Ultimate
nationalist
uniforms
obtaining
kit
Amber|C0242864|CHEM
##pling
screenwriter
ancestry
##cott
Fields
PR
Coleman
rat
Bavaria
squeeze|C0413258|DISO
highlighted
Adult
reflecting|C0558058|PHYS
Mel
1824
bicycle
organizing
sided
Previously
Underground
Prof
athletics
coupled
mortal
Hampton
worthy
immune
Ava|C0263429|DISO
##gun
encouraging
simplified
##ssa
##nte
##ann
Providence
entities
Pablo
Strong
Housing
##ista
##ators
kidnapped
mosque
Kirk
whispers
fruits
shattered
fossil
Empress
Johns
Webster
Thing
refusing
differently
specimen
Ha
##EN
##tina
##elle
##night
Horn
neighbourhood
Bolivia
##rth
genres
Pre
##vich
Amelia|C0002447|DISO
swallow
Tribune
Forever
Psychology
Use
##bers
Gazette
ash
##usa
Monster|C0026505|DISO
##cular
delegation
blowing|C1291034|DISO
Oblast
retreated
automobile
##ex
profits
shirts
devil
Treasury
##backs
Drums
Ronnie
gameplay
expertise
Evening
resides
Caesar
unity
Crazy
linking
Vision|C0042789|PHYS
donations
Isabel
valve
Sue
WWE
logical
availability
fitting|C0036572|DISO
revolt
##mill
Linux
taxi
Access
pollution
statues
Augustus
##pen
cello|C0004763|DISO
##some
lacking
##ati
Gwen
##aka
##ovich
1821
Wow
initiatives|C0424093|PHYS
Uruguay
Cain
stroked
examine
##ī
mentor
moist
disorders|C0012634|DISO
buttons
##tica
##anna
Species
Lynch
museums
scorer
Poor
eligibility
op
unveiled
cats
Title
wheat|C1095911|CHEM
critically
Syracuse
##osis
marketed
enhance
Ryder
##NG
##ull
##rna
embedded
throws|C0560512|DISO
foods
happily
##ami
lesson
formats
punched
##rno
expressions|C0185117|PROC
qualities
##sal
Gods
##lity
elect
wives
##lling
jungle
Toyota
reversed
Grammar
Cloud
Agnes
##ules
disputed
verses
Lucien
threshold
##rea
scanned
##bled
##dley
##lice
Kazakhstan
Gardner
Freeman
##rz
inspection
Rita
accommodation
advances
chill|C0085593|DISO
Elliot
thriller
Constantinople
##mos
debris
whoever
1810
Santo
Carey
remnants
Guatemala
##irs
carriers|C0007294|DISO
equations
mandatory
##WA
anxious|C0003467|DISO
measurement
Summit
Terminal
Erin
##zes
LLC
##uo
glancing
sin|C0333873|DISO
##₃
Downtown
flowering
Euro
Leigh
Lance
warn
decent
recommendations
##ote
Quartet
##rrell
Clarence
colleague
guarantee
230
Clayton
Beast
addresses
prospect
destroyer
vegetables
Leadership
fatal|C1705232|DISO
prints
190
##makers
Hyde
persuaded
illustrations
Southampton
Joyce
beats
editors
mount|C0449878|DISO
##grave
Malaysian
Bombay
endorsed
##sian
##bee
applying
Religion|C0682141|DISO
nautical
bomber
Na
airfield
gravel
##rew
Cave
bye
dig|C1321878|DISO
decree
burden
Election
Hawk
Fe
##iled
reunited
##tland
liver|C0023884|ANAT
Teams
Put
delegates
Ella|C2927379|CHEM
##fect
Cal
invention
Castro
bored
##kawa
##ail
Trinidad
NASCAR
pond
develops
##pton
expenses
Zoe
Released
##rf
organs
beta
parameters|C0449381|DISO
Neill
##lene
lateral
Beat
blades
Either
##hale
Mitch
##ET
##vous
Rod|C0206427|ANAT
burnt
phones
Rising
##front
investigating
##dent
Stephanie
##keeper
screening|C0199230|PROC
##uro
Swan
Sinclair
modes
bullets
Nigerian
melody
##ques
Rifle
##12
128
##jin
charm
Venus
##tian
fusion|C1293131|PROC
advocated
visitor
pinned
genera
3000
Ferry
Solo
quantity
regained
platinum|C0032207|CHEM
shoots
narrowly
preceded
update
##ichi
equality
unaware
regiments
ally
##tos
transmitter
locks
Seeing
outlets
feast
reopened
##ows
struggles
Buddy
1826
bark
elegant
amused
Pretty
themed
schemes
Lisbon
Te
patted
terrorism
Mystery
##croft
##imo
Madagascar
Journey
dealer
contacted
##quez
ITV
vacation
Wong
Sacramento
organisms
##pts
balcony
coloured
sheer
defines
MC
abortion|C0156543|DISO
forbidden
accredited
Newfoundland
tendency
entrepreneur
Benny
Tanzania
needing
finalist
mythology
weakened
gown
sentences
Guest
websites
Tibetan
UFC
voluntary
annoyed
Welcome
honestly
correspondence
geometry
Deutsche
Biology
Help
##aya
Lines
Hector
##ael
reluctant
##ages
wears
inquiry
##dell
Holocaust
Tourism
Wei
volcanic
##mates
Visual
sorts
neighborhoods
Running|C0035953|ACTI
apple|C2702351|CHEM
shy|C0557869|DISO
Laws
bend
Northeast
feminist
Speedway
Murder
visa|C1318881|DISO
stuffed
fangs
transmitted
fiscal
Ain|C0347129|DISO
enlarged|C1293134|PROC
##ndi
Cecil
Peterson
Benson
Bedford
acceptable
##CC
##wer
purely
triangle
foster
Alberto
educator
Highland
acute
LGBT
Tina|C0025611|CHEM
Mi
adventures
Davidson
Honda
translator
monk
enacted
summoned
##ional
collector
Genesis|C4255166|CHEM
Un
liner
Di
Statistical
##CS
filter
Knox
Religious|C0557075|DISO
Stella
Estonian
Turn|C0541749|DISO
##ots
primitive
parishes
##lles
complexity
autobiography
rigid|C0026837|DISO
cannon
pursuing
exploring
##gram
##mme
freshman
caves
Expedition
Traditional
iTunes
certification
cooling
##ort
##gna
##IT
##lman
##VA
Motion
explosive
licence
boxer
shrine
loosely
Brigadier
Savage
Brett
MVP|C0026267|DISO
heavier
##elli
##gged
Buddha
Easy
spells
fails
incredibly
Georg
stern
compatible
Perfect
applies
cognitive
excessive
nightmare|C0028084|DISO
neighbor
Sicily
appealed
static
##₁
Aberdeen
##leigh
slipping
bride
##guard
Um
Clyde
1818
##gible
Hal|C1327841|CHEM
Frost
Sanders
interactive
Hour
##vor
hurting
bull
termed
shelf
capturing
##pace
rolls
113
##bor
Chilean
teaches
##rey
exam
shipped
Twin
borrowed
##lift
Shit
##hot
Lindsay
Below
Kiev
Lin
leased
##sto
Eli
Diane
Val|C0042285|CHEM
subtropical
shoe
Bolton
Dragons
##rification
Vatican
##pathy
Crisis|C0231224|DISO
dramatically
talents
babies
##ores
surname
##AP
##cology
cubic
opted
Archer
sweep
tends
Karnataka
Judy
stint
Similar
##nut
explicitly
##nga
interact
Mae
portfolio
clinic
abbreviated
Counties
##iko
hearts|C0018787|ANAT
##ı
providers
screams
Individual
##etti
Monument
##iana
accessed
encounters
gasp|C0425449|DISO
##rge
defunct
Avery
##rne
nobility
useless
Phase
Vince
senator
##FL
1813
surprisingly
##illo
##chin
Boyd
rumors
equity
Gone
Hearts|C0018787|ANAT
chassis
overnight
Trek
wrists|C0043262|ANAT
submit
civic
designers
##rity
prominence
decorative
derives
starter
##AF
wisdom
Powers
reluctantly
measurements
doctoral
Noel
Gideon
Baden
Cologne
lawn
Hawaiian
anthology
##rov
Raiders
embassy
Sterling
##pal
Telugu
troubled
##FC
##bian
fountain
observe
ore
##uru
##gence
spelling
Border
grinning
sketch
Benedict
Xbox
dialects
readily
immigrant
Constitutional
aided
nevertheless
SE
tragedy
##ager
##rden
Flash|C0262485|PROC
##MP
Europa
emissions
##ield
panties
Beverly
Homer
curtain
##oto
toilet|C0184958|PROC
Isn
Jerome
Chiefs
Hermann
supernatural
juice
integrity
Scots
auto
Patriots
Strategic
engaging|C0425152|DISO
prosecution|C0205255|DISO
cleaned
Byron
investments
adequate
vacuum
laughs
##inus
##nge
Usually
Roth
Cities
Brand
corpse
##ffy
Gas|C1704673|CHEM
rifles
Plains
sponsorship
Levi
tray
owed
della
commanders
##ead
tactical
##rion
García
harbor
discharge
##hausen
gentleman
endless
highways
##itarian
pleaded
##eta
archive
Midnight
exceptions
instances
Gibraltar
cart
##NS
Darren
Bonnie
##yle
##iva
OCLC
bra
Jess
##EA
consulting
Archives
Chance
distances
commissioner
##AR
LL
sailors
##sters
enthusiasm|C0424090|PHYS
Lang
##zia
Yugoslav
confirm
possibilities
Suffolk
##eman
banner
1822
Supporting
fingertips
civilization
##gos
technically
1827
Hastings
sidewalk
strained|C0080194|DISO
monuments
Floyd
Chennai
Elvis
villagers
Cumberland
strode
albeit
Believe
planets
combining
Mohammad
container
##mouth
##tures
verb
BA
Tank
Midland
screened
Gang
Democracy
Helsinki
screens
thread
charitable
##version
swiftly
ma
rational
combine
##SS
##antly
dragging
Cliff
Tasmania
quest
professionally
##aj
rap
##lion
livestock
##hua
informal
specially
lonely|C0023974|DISO
Matthews
Dictionary
1816
Observatory
correspondent
constitute
homeless|C0237154|DISO
waving
appreciated
Analysis|C0002778|PROC
Meeting
dagger
##AL
Gandhi
flank|C0230171|ANAT
Giant|C0017547|DISO
Choir
##not
glimpse
toe|C0040357|ANAT
Writer
teasing|C0424320|DISO
springs
##dt
Glory
healthcare
regulated
complaint|C0277786|DISO
math
Publications
makers
##hips
cement|C1704479|CHEM
Need
apologize
disputes
finishes
Partners
boring
ups|C0334463|DISO
gains
1793
Congressional
clergy
Folk
##made
##nza
Waters|C0043047|CHEM
stays
encoded
spider
betrayed
Applied
inception
##urt
##zzo
wards
bells
UCLA
Worth
bombers
Mo
trademark
Piper
##vel
incorporates
1801
##cial
dim
Twelve
##word
Appeals
tighter
spacecraft
##tine
coordinates|C0427184|DISO
##iac
mistakes
Zach
laptop
Teresa
##llar
##yr
favored
Nora
sophisticated
Irving
hammer
División
corporations
niece
##rley
Patterson
UNESCO
trafficking
Ming
balanced
plaque|C0332461|DISO
Latvia
broader
##owed
Save
confined
##vable
Dalton
tide
##right
##ural
##num
swords
caring
##eg
IX
Acting
paved
##moto
launching
Antoine
substantially
Pride
Philharmonic
grammar
Indoor
Ensemble
enabling
114
resided
Angelo
publicity
chaired
crawled
Maharashtra
Telegraph
lengthy
preference
differential
anonymous
Honey|C0939937|CHEM
##itation
wage
##iki
consecrated
Bryant
regulatory
Carr
##én
functioning
watches
##ú
shifts
diagnosis|C0011900|DISO
Search
app
Peters
##SE
##cat
Andreas
honours
temper
counsel
Urdu
Anniversary
maritime
##uka
harmony
##unk
essence|C0028910|CHEM
Lorenzo
choked|C0008301|DISO
Quarter
indie
##oll
loses
##prints
amendment
Adolf
scenario
similarities
##rade
##LC
technological
metric
Russians
thoroughly
##tead
cruiser
1806
##nier
1823
Teddy
##psy
au
progressed
exceptional
broadcaster
partnered
fitness
irregular
placement
mothers
unofficial
Garion
Johannes
1817
regain
Solar
publishes
Gates
Broken
thirds
conversations
dive|C0012823|ACTI
Raj
contributor
quantities
Worcester
governance
##flow
generating
pretending
Belarus
##voy
radius|C0034627|ANAT
skating|C0037247|ACTI
Marathon
1819
affection
undertook
##wright
los
##bro
locate
PS
excluded
recreation
tortured
jewelry
moaned
##logue
##cut
Complete
##rop
117
##II
plantation
whipped
slower
crater
##drome
Volunteer
attributes
celebrations
regards
Publishers
oath
utilized
Robbie
Giuseppe
fiber|C0225326|CHEM
indication
melted
archives
Damien
storey
affecting
identifying
dances
alumni
comparable
upgrade
rented
sprint
##kle
Marty
##lous
treating
railways
Lebanese
erupted
occupy
sympathy
Jude
Darling
Qatar
drainage|C0013103|PROC
McCarthy
heel|C0018870|ANAT
Klein
computing
wireless
flip
Du
Bella
##ast
##ssen
narrator
mist
sings
alignment
121
2020
securing
##rail
Progress
missionaries
brutal
mercy
##shing
Hip
##ache
##olo
switching
##here
Malay
##ob
constituted
Mohammed
Often
standings
surge
teachings
ink
detached
systematic
Trial
Myanmar
##wo
offs
Reyes
decoration
translations
wherever
reviewer
speculation
Bangkok
terminated
##ester
beard|C0221982|ANAT
RCA
Aidan
Associated
Emerson
Charity
1803
generous
Dudley
ATP|C0001480|CHEM
##haven
prizes
toxic|C0600688|DISO
gloves
##iles
##dos
Turning|C0541749|DISO
myth
Parade
##building
Hits|C0596020|DISO
##eva
teamed
Above
Duchess
Holt
##oth
Sub
Ace|C0201888|PROC
atomic
inform|C0537670|CHEM
Ship
depend
Jun
##bes
Norwich
globe
Baroque
Christina
Cotton|C2727825|CHEM
Tunnel
kidding
Concerto
Brittany
tasted
phases
stems
angles
##TE
##nam
##40
charted
Alison
intensive
Willis
glory
##lit
Bergen
est|C0013806|PROC
taller
##dicate
labeled
##ido
commentator
Warrior
Viscount
shortened
aisle
Aria
Spike
spectators
goodbye
overlooking
mammals
##lude
wholly
Barrett
##gus
accompany
seventy
employ|C0557351|DISO
##mb
ambitious
beloved
basket
##mma
##lding
halted
descendant
pad
exclaimed
cloak
##pet
Strait
Bang
Aviv
sadness
##ffer
Donovan
1880s
agenda
swinging
##quin
jerk
Boat
##rist
nervously
Silence
Echo
shout|C0562551|DISO
implies
##iser
##cking
Shiva
Weston
damages|C0010957|DISO
##tist
effectiveness
Horace
cycling
Rey
ache|C0234238|DISO
Photography
PDF
Dear
leans
Lea
##vision
booth
attained
disbelief
##eus
##ution
Hop
pension
toys
Eurovision
faithful
##heads
Andre
owe
default
Atlas|C0004170|ANAT
Megan
highlights
lovers
Constantine
Sixth
masses
##garh
emerge
Auto
Slovak
##oa
##vert
Superintendent
flicked
inventor
Chambers
Frankie
Romeo
pottery
companions
Rudolf
##liers
diary
Unless
tap
alter
Randall
##ddle
##eal
limitations
##boards
utterly
knelt
guaranteed
Cowboys
Islander
horns
##ike
Wendy
sexually
Smart
breasts|C0006141|ANAT
##cian
compromise
Duchy
AT
Galaxy
analog
Style
##aking
weighed
Nigel
optional
Czechoslovakia
practicing
Ham|C0030481|DISO
##0s
feedback
batted
uprising
operative
applicable
criminals
classrooms
Somehow
##ode
##OM
Naomi
Winchester
##pping
Bart
Regina
competitor
Recorded
Yuan
Vera
lust
Confederation
##test
suck|C0677049|DISO
1809
Lambert
175
Friend
##ppa
Slowly
##⁺
Wake
Dec
##aneous
chambers
Color
Gus
##site
Alternative
##world
Exeter
Omaha
celebrities
striker
210
dwarf|C0013336|DISO
meals
Oriental
Pearson
financing
revenues
underwater
Steele
screw
Feeling
Mt
acids
badge
swore
theaters
Moving
admired
lung|C0024109|ANAT
knot
penalties
116
fork
##cribed
Afghan
outskirts
Cambodia
oval
wool
fossils
Ned
Countess
Darkness
delicious
##nica
Evelyn
Recordings
guidelines
##CP
Sandra
meantime
Antarctica
modeling
granddaughter
##rial
Roma
Seventh
Sunshine
Gabe
##nton
Shop|C0150768|ACTI
Turks
prolific
soup
parody
##nta
Judith
disciplines
resign
Companies
Libya
Jets
inserted
Mile
retrieve
filmmaker
##rand
realistic
unhappy|C1688635|DISO
##30
sandstone
##nas
##lent
##ush
##rous
Brent
trash
Rescue
##unted
Autumn
disgust
flexible
infinite
sideways
##oss
##vik
trailing
disturbed
50th
Newark
posthumously
##rol
Schmidt
Josef
##eous
determining
menu
Pole
Anita
Luc
peaks
118
Yard
warrant
generic|C0085155|CHEM
deserted
Walking|C0080331|ACTI
stamp
tracked
##berger
paired
surveyed
sued
Rainbow
##isk
Carpenter
submarines
realization
touches
sweeping
Fritz
module
Whether
resembles
##form
##lop
unsure|C0087130|DISO
hunters
Zagreb
unemployment|C0041674|DISO
Senators
Georgetown
##onic
Barker
foul
commercials
Dresden
Words
collision|C0337196|DISO
Carlton
Fashion
doubted
##ril
precision
MIT
Jacobs
mob
Monk
retaining
gotta
##rod
remake
Fast|C0015663|DISO
chips
##pled
sufficiently
##lights
delivering
##enburg
Dancing
Barton
Officers
metals|C0025552|CHEM
##lake
religions
##ré
motivated
differs
dorsal
##birds
##rts
Priest
polished
##aling
Saxony
Wyatt
knockout
##hor
Lopez
RNA|C0035668|CHEM
##link
metallic
##kas
daylight
Montenegro
##lining
wrapping
resemble
Jam
Viking
uncertainty|C0087130|DISO
angels
enables|C0562342|PHYS
##fy
Stuttgart
tricks
tattoo|C1366940|DISO
127
wicked
asset
breach
##yman
MW
breaths
Jung
im
1798
noon
vowel
##qua
calmly
seasonal
chat
ingredients
cooled
Randolph
ensuring
##ib
##idal
flashing|C0344323|DISO
1808
Macedonian
Cool
councils
##lick
advantages
Immediately
Madras
##cked
Pain|C0030193|DISO
fancy
chronic
Malayalam
begged
##nese
Inner
feathers|C0015731|ANAT
##vey
Names
dedication
Sing
pan|C0031036|DISO
Fischer
nurses
Sharp|C1444775|DISO
inning
stamps
Meg|C0024489|PROC
##ello
edged
motioned
Jacksonville
##ffle
##dic
##US
divide
garnered
Ranking
chasing
modifications
##oc
clever|C1279682|DISO
midst
flushed|C0016382|DISO
##DP
void|C0042034|PHYS
##sby
ambulance
beaches
groan
isolation|C0204727|PROC
strengthen
prevention|C0199176|PROC
##ffs
Scouts
reformed
geographic
squadrons
Fiona
Kai
Consequently
##uss
overtime|C2961731|CHEM
##yas
Fr
##BL
Papua
Mixed
glances
Haiti
Sporting|C0038039|ACTI
sandy
confronted
René
Tanner
1811
##IM
advisory
trim
##ibe
González
gambling
Jupiter
##ility
##owski
##nar
122
apology
teased
Pool
feminine
wicket
eagle
shiny
##lator
blend
peaking
nasty
nodding
fraction
tech
Noble
Kuwait
brushing|C0443165|ACTI
Italia
Canberra
duet
Johan
1805
Written
cameo
Stalin
pig
cord|C0035334|DISO
##zio
Surely
SA
owing
holidays
123
Ranger
lighthouse
##ige
miners
1804
##ë
##gren
##ried
crashing
##atory
wartime
highlight
inclined
Torres
Tax|C0144576|CHEM
##zel
##oud
Own
##corn
Divine
EMI
Relief|C0564405|DISO
Northwestern
ethics
BMW
click
plasma
Christie
coordinator
Shepherd
washing
cooked
##dio
##eat
Cerambycidae
algebra
Engine
costumes
Vampire
vault
submission
virtue
assumption
##rell
Toledo
##oting
##rva
crept
emphasized
##lton
##ood
Greeks
surgical
crest|C2948667|CHEM
Patrol
Beta
Tessa
##GS
pizza
traits
rats
Iris|C0022077|ANAT
spray|C1154182|CHEM
##GC
Lightning
binary
escapes
##take
Clary
crowds
##zong
hauled
maid
##fen
Manning
##yang
Nielsen
aesthetic
sympathetic
affiliation
soaked|C0204774|PROC
Mozart
personalities|C0031208|PHYS
begging
##iga
clip
Raphael
yearly
Lima
abundant
##lm
1794
strips
Initiative|C0424093|PHYS
reporters
##vsky
consolidated
##itated
Civic
rankings
mandate
symbolic
##ively
1807
rental
duck|C2725890|CHEM
nave
complications|C0009566|DISO
##nor
Irene
Nazis
haunted
scholarly
Pratt
Gran|C3853573|CHEM
Embassy
Wave
pity
genius|C0423899|DISO
bats
canton
Tropical
marker
##cos
escorted
Climate
##posed
appreciation
freezing
puzzle
Internal
pools
Shawn
pathway
Daniels
Fitzgerald
extant
olive|C0228539|ANAT
Vanessa
marriages|C0024841|DISO
cocked
##dging
prone
chemicals
doll
drawer
##HF
Stark
Property
##tai
flowed
Sheridan
##uated
Less
Omar
remarks
catalogue
Seymour
wreck
Carrie
##bby
Mercer
displaced
sovereignty
rip
Flynn
Archie
Quarterfinals
Hassan
##ards
vein|C0042449|ANAT
Osaka
pouring
wages
Romance
##cript
##phere
550
##eil
##stown
Documentary
ancestor
CNN
Panthers
publishers
Rise|C0246719|CHEM
##mu
biting|C0005658|DISO
Bright|C0423899|DISO
String
succeeding
119
loaned
Warwick
Sheikh
Von
Afterwards
Jax
Camden
helicopters
Hence
Laurel
##ddy
transaction
Corp
clause
##owing
##kel
Investment
cups
Lucia
Moss
Giles
chef
López
decisive
30th
distress|C0231303|DISO
linguistic
surveys
Ready
maiden
Touch|C0702221|PHYS
frontier
incorporate
exotic
mollusk
Leopold
Ride
##wain
##ndo
teammates
tones
drift
ordering
Feb
Penny
Normandy
Present
Flag
pipes
##rro
delight
motto
Tibet
leap
Eliza
Produced
teenagers
sitcom
Try
Hansen
Cody
wandered
terrestrial
frog
scare|C0015726|PHYS
resisted
employers
coined
##DS
resistant
Fly
captive
dissolution
judged
associates
defining
##court
Hale
##mbo
raises
clusters
twelfth
##metric
Roads
##itude
satisfy
Android|C0718532|CHEM
Reds
Gloucester
Category
Valencia
Daemon
stabbed
Luna
Churches
Canton
##eller
Attack|C1304680|DISO
Kashmir
annexed
grabs
asteroid
Hartford
recommendation
Rodriguez
handing
stressed|C0038435|DISO
frequencies
delegate
Bones|C0262950|ANAT
Erie
Weber
Hands|C0018563|ANAT
Acts
millimetres
24th
Fat|C0015677|CHEM
Howe
casually
##SL
convent
1790
IF
##sity
1795
yelling
##ises
drain|C0013103|PROC
addressing
amino
Marcel
Sylvia
Paramount
Gerard
Volleyball
butter
124
Albion
##GB
triggered
1792
folding|C0185026|PROC
accepts
##ße
preparations
Wimbledon
dose
##grass
escaping
##tling
import
charging
##dation
280
Nolan
##fried
Calcutta
##pool
Cove
examining|C0332128|DISO
minded
heartbeat|C0425583|PHYS
twisting
domains
bush
Tunisia
Purple
Leone
##code
evacuated
battlefield
tiger
Electrical
##ared
chased
##cre
cultivated
Jet
solved
shrug
ringing
Impact
##iant
kilometre
##log
commemorate
migrated
singular
designing
promptly
Higgins
##own
##aves
freshwater
Marketing
Payne
beg
locker
pray|C0377355|CHEM
implied
AAA
corrected
Trans
Europeans
Ashe
acknowledge
Introduction
##writer
##llen
Munster
auxiliary
growl
Hours
Poems|C0085404|DISO
##AT
reduces
Plain
plague|C0032064|DISO
canceled
detention
polite
necklace
Gustav
##gu
##lance
En
Angola
##bb
dwelling
##hea
5000
Qing
Dodgers
rim
##ored
##haus
spilled
Elisabeth
Viktor
backpack
1802
amended
##worthy
Phantom
##ctive
keeper
##loom
Vikings
##gua
employs|C0557351|DISO
Tehran
specialty
##bate
Marx
Mirror
Jenna
rides
needle
prayers
clarinet
forewings
##walk
Midlands
convincing
advocacy
Cao
Birds
cycles
Clement
Gil
bubble
Maximum
humanitarian
Tan|C0040854|CHEM
cries
##SI
Parsons
Trio
offshore
Innovation
clutched
260
##mund
##duct
Prairie
relied
Falcon
##ste
Kolkata
Gill
Swift
Negro
Zoo
valleys
##OL
Opening
beams
MPs
outline
Bermuda
Personal
exceed
productive
##MT
republic
forum
##sty
tornado|C0375740|DISO
Known
dipped
Edith
folks
mathematician
watershed
Ricardo
synthetic
##dication
deity
##₄
gaming
subjected
suspects
Foot|C0016504|ANAT
swollen|C0038999|DISO
Motors
##tty
##ý
aloud
ceremonial
es
nuts
intend
Carlisle
tasked
hesitation
sponsors
unified
inmates
##ctions
##stan
tiles
jokes
whereby
outcomes
Lights
scary
Stoke
Portrait
Blind
sergeant
violations
cultivation
fuselage
Mister
Alfonso
candy
sticks
teen
agony|C0521992|DISO
Enough
invite
Perkins
Appeal
mapping
undergo
Glacier
Melanie
affects|C0001721|PHYS
incomplete
##dd
Colombian
##nate
CBC|C0009555|PROC
purchasing
bypass|C0741847|PROC
Drug|C0013227|CHEM
Electronics
Frontier
Coventry
##aan
autonomy
scrambled
Recent
bounced
cow
experiencing
Rouge
cuisine
Elite
disability|C0231170|DISO
Ji
inheritance
wildly
Into
##wig
confrontation|C1444674|PROC
Wheeler
shiver|C0036973|DISO
Performing
aligned
consequently
Alexis
Sin|C0333873|DISO
woodland
executives
Stevenson
Ferrari
inevitable
##cist
##dha
##base
Corner
comeback
León
##eck
##urus
MacDonald
pioneering
breakdown
landscapes
Veterans
Rican
Theological
stirred
participant
Credit
Hyderabad
snails
Claudia
##ocene
compliance
##MI
Flags
Middlesex
storms
winding|C0016204|DISO
asserted
er
##ault
##kal
waking
##rates
abbey
Augusta
tooth|C0040426|ANAT
trustees
Commodore
##uded
Cunningham
NC
Witch
marching
Sword
Same
spiral
Harley
##ahan
Zack
Audio
1890s
##fit
Simmons
Kara
Veronica
negotiated
Speaking|C0234856|ACTI
FIBA
Conservatory
formations
constituencies
explicit
facial|C0015450|ANAT
eleventh
##ilt
villain
##dog
##case
##hol
armored
tin|C0040238|CHEM
hairs|C0018494|ANAT
##umi
##rai
mattress
Angus
cease
verbal
Recreation
savings
Aurora
peers
Monastery
Airways|C0458827|ANAT
drowned|C0013142|DISO
additions
downstream
sticking
Shi
mice
skiing|C0037264|ACTI
##CD
Raw
Riverside
warming
hooked
boost
memorable
posed
treatments|C0087111|PROC
320
##dai
celebrating
blink|C0005757|PHYS
helpless
circa
Flowers
PM
uncommon
Oct|C0029279|CHEM
Hawks
overwhelmed
Sparhawk
repaired
Mercy
pose
counterpart
compare
survives
##½
##eum
coordinate|C0427184|DISO
Lil
grandchildren
notorious
Yi
Judaism
Juliet
accusations
1789
floated
marathon
roar|C0234786|DISO
fortified
reunion
145
Nov
Paula
##fare
##toria
tearing
Cedar
disappearance
Si
gifted
scar|C2004491|DISO
270
PBS|C0033770|DISO
Technologies
Marvin
650
roller
cupped
negotiate
##erman
passport
tram
miracle
styled
##tier
necessity
Des|C0012203|CHEM
rehabilitation|C0034991|PROC
Lara
USD
psychic
wipe
##lem
mistaken
##lov
charming
Rider
pageant
dynamics
Cassidy
##icus
defenses
##tadt
##vant
aging|C0001811|PHYS
##inal
declare
mistress
supervised
##alis
##rest
Ashton
submerged
sack
Dodge
grocery
ramp
Teacher
lineage
imagery|C0150627|PROC
arrange
inscriptions
Organisation
Siege
combines
pounded
Fleming
legends
columnist
Apostolic
prose
insight|C0233820|PHYS
Arabian
expired|C0011065|PHYS
##uses
##nos
Alone|C0439044|DISO
elbows
##asis
##adi
##combe
Step
Waterloo
Alternate
interval
Sonny
plains
Goals
incorporating
recruit
adjoining
Cheshire
excluding
marrying|C0555047|DISO
ducked
Cherokee
par
##inate
hiking|C4255280|ACTI
Coal|C0009131|CHEM
##bow
natives
ribbon
Allies
con
descriptions
positively
##lal
defendant
22nd
Vivian
##beat
Weather
possessions
Date
sweetheart
inability
Salisbury
adviser
ideology
Nordic
##eu
Cubs
IP
Administrative
##nick
facto
liberation
Burnett
Javier
fashioned
Electoral
Turin
theft
unanimous
Per|C0449201|ANAT
1799
Clan
Hawkins
Teachers
##wes
Cameroon
Parkway
##gment
demolition
atoms|C0567415|CHEM
nucleus|C0007610|ANAT
##thi
recovering
##yte
##vice
lifts
Must
deposit
Hancock
Semi
darkened
Declaration
moan
muscular|C0026845|ANAT
Myers
attractions
sauce
simulation
##weed
Alps|C1328840|DISO
barriers
##baum
Barack
galleries
Min
holders
Greenwich
donation|C4049936|DISO
Everybody
Wolfgang
sandwich
Kendra
Collegiate
casino
Slavic
ensuing
Porto
##grapher
Jesuit
suppressed
tires
Ibrahim
protesters
Ibn
Amos
1796
phenomena
Hayden
Paraguay
Squad
Reilly
complement|C0009498|CHEM
aluminum|C0002367|CHEM
##eers
doubts
decay|C1265875|DISO
demise
Practice
patience
fireplace
transparent
monarchy
##person
Rodney
mattered
rotating
Clifford
disposal
Standards
paced
##llie
arise
tallest
tug|C1319201|PROC
documentation
node
freeway
Nikolai
##cite
clicked
imaging
Lorraine
Tactical
Different
Regular
Holding
165
Pilot
guarded
##polis
Classics
Mongolia
Brock
monarch
cellular|C0007634|ANAT
receptors|C0597357|CHEM
Mini
Chandler
financed
financially
Lives|C0595998|DISO
erection|C0030847|PHYS
Fuller
unnamed
Kannada
cc
passive
plateau
##arity
freak
##rde
retrieved
transactions
##sus
23rd
swimmer
beef|C2702424|CHEM
fulfill
Arlington
offspring
reasoning|C0684328|PHYS
Rhys
saves
pseudonym
centimetres
shivered
shuddered
##ME
Feel|C0013987|PHYS
##otic
professors
Blackburn
##eng
##life
##haw
interred
lodge
fragile
Della
guardian
##bbled
catalog
clad
observer
tract
declaring
##headed
Lok
dean
Isabelle
1776
irrigation|C0022100|PROC
spectacular
shuttle
mastering
##aro
Nathaniel
Retired|C0035345|DISO
##lves
Brennan
##kha
dick
##dated
##hler
Rookie
leapt
televised
weekends
Baghdad
Yemen
##fo
factions
ion|C0022023|CHEM
Lab
mortality
passionate
Hammer
encompasses
confluence
demonstrations
Ki
derivative
soils
##unch
Ranch
Universities
conventions
outright
aiming
hierarchy
reside
illusion|C0020903|DISO
graves
rituals|C0233622|DISO
126
Antwerp
Dover
##ema
campuses
Hobart
lifelong
aliens
##vity
Memory|C0025260|PHYS
coordination
alphabet
##mina
Titans
pushes|C0580841|DISO
Flanders|C1875156|CHEM
##holder
Normal
excellence
capped
profound
Taipei
portrayal
sparked
scratch|C1384489|DISO
se
##eas
##hir
Mackenzie
##cation
Neo
Shin|C0230444|ANAT
##lined
magnificent
poster
batsman
##rgent
persuade
##ement
Icelandic
miserable|C0344315|DISO
collegiate
Feature
geography
##mura
Comic
Circus
processor
barracks
Tale
##11
Bulls
##rap
strengthened
##bell
injection
miniature
broadly
Letter
fare
hostage
traders
##nium
##mere
Fortune
Rivera
Lu
triumph|C3643615|CHEM
Browns
Bangalore
cooperative
Basel
announcing
Sawyer
##him
##cco
##kara
darted
##AD
##nova
sucking
##position
perimeter
flung
Holdings
##NP
Basque
sketches
Augustine
Silk|C0074529|CHEM
Elijah
analyst
armour
riots
acquiring
ghosts
##ems
132
Pioneer
Colleges
Simone
Economy
Author
semester
Soldier
il
##unting
##bid
freaking
Vista
tumor|C0027651|DISO
##bat
murderer
##eda
unreleased
##grove
##sser
##té
edit
statute
sovereign
##gawa
Killer
stares|C0423086|DISO
Fury
comply
##lord
##nant
barrels
Andhra
Maple
generator
mascot
unusually
eds|C0013720|DISO
##ante
##runner
rod|C0206427|ANAT
##tles
Historically
Jennings
dumped
Established
resemblance
##lium
##cise
##body
##voke
Lydia
##hou
##iring
nonetheless
1797
corrupt
patrons
physicist
sneak
Livingston
Citizens
Architects
Werner
trends
Melody
eighty
markings
brakes
##titled
oversaw
processed
mock|C0562577|DISO
Midwest
intervals
##EF
stretches|C0270814|DISO
werewolf
##MG
Pack|C1999262|CHEM
controller
##dition
Honours
cane
Griffith
vague
repertoire
Courtney
orgasm|C0029260|PHYS
Abdullah
dominance
occupies
Ya
introduces
Lester
instinct
collaborative
Indigenous
refusal
##rank
outlet
debts
spear
155
##keeping
##ulu
Catalan
##osh
tensions|C0233494|DISO
##OT
bred
crude
Dunn
abdomen|C0000726|ANAT
accurately
##fu
##lough
accidents
Row
Audrey
rude
Getting
promotes
replies
Paolo
merge
##nock
trans
Evangelical
automated
Canon
##wear
##ggy
##gma
Broncos
foolish
icy
Voices
knives
Aside
dreamed
generals
molecule
AG
rejection
insufficient
##nagar
deposited
sacked
Landing
arches
helpful
devotion
intake
Flower
PGA
dragons
evolutionary
##mail
330
GM
tissues|C0040300|ANAT
##tree
arcade
composite
lid
Across
implications
lacks
theological
assessed
concentrations|C0086045|PHYS
Den
##mans
##ulous
Fu
homeland
##stream
Harriet
ecclesiastical
troop
ecological
winked
##xed
eighteenth
Casino
specializing
##sworth
unlocked
supreme|C3282376|CHEM
devastated
snatched
trauma|C3714660|DISO
GDP|C0018340|CHEM
Nord
saddle
Wes
convenient
competes
##nu
##iss
Marian
subway
##rri
successes
umbrella
##far
##ually
Dundee
##cence
spark
##rix
##я
Quality
Geological
cockpit
rpm
Cam|C2919945|DISO
Bucharest
riot
##PM
Leah
##dad
##pose
Ka
m³
Bundesliga
Wolfe
grim
textile
quartet
expressing
fantastic
destroyers
eternal
picnic
##oro
contractor
1775
spanning
declining
##cating
Lowe
Sutherland
Emirates
downward
nineteen
violently
scout
viral
melting
enterprises
##cer
Crosby
Jubilee
antenna
urgent
Rory
##uin
##sure
wandering
##gler
##vent
Suzuki
Lifetime
Dirty
occupying
##quent
Disc|C0993608|CHEM
Guru
mound
Lennon
Humanities
listeners
Walton
uh
Braves
Bologna
##bis
##gra
Dwight
crawl|C0235042|DISO
flags
memoir
Thorne
Archdiocese
dairy
##uz
##tery
roared
adjust
patches
inn
Knowing
##bbed
##zan
scan|C0034606|PROC
Papa|C3887487|DISO
precipitation|C0032932|PHYS
angrily
passages
postal
Phi
embraced
blacks
economist
triangular
Sen
shooter
punished
Millennium
Swimming|C0039003|ACTI
confessed
Aston
defeats
Era
cousins
Williamson
##rer
daytime
dumb
##rek
underway
specification
Buchanan
prayed
concealed
activation
##issa
canon
awesome
Starr
plural
summers
##fields
Slam
unnecessary
1791
resume
trilogy
compression|C0565514|PROC
##rough
selective
dignity
Yan
##xton
immense
##yun
lone
seeded
hiatus
lightweight
summary
Yo
approve
Galway
rejoined
Elise
garbage
burns|C0006434|DISO
speeches
129
Honduras
##liness
inventory
jersey
FK
assure
slumped
Lionel
Suite
##sbury
Lena
continuation
##AN
brightly
##nti
GT
Knowledge
##park
##lius
lethal
##tribution
##sions
Certificate
Mara
##lby
algorithms
Jade
blows
pirates
fleeing
wheelchair
Stein
sophomore
Alt|C0001899|CHEM
Territorial
diploma
snakes
##olic
##tham
Tiffany
Pius
flush|C0016382|DISO
urging
Hanover
Reich
##olate
Unity
Pike
collectively
Theme
ballad
kindergarten
rocked
zoo
##page
whip
Rodríguez
strokes|C0038454|DISO
checks
Becky
Stern
upstream
##uta
Silent
volunteered
Sigma
##ingen
##tract
##ede
Gujarat
screwed
entertaining
##action
##ryn
defenders
innocence
lesbian
que
Richie
nodes
Lie
juvenile
Jakarta
safer
confront
Bert
breakthrough
gospel
Cable
##zie
institutional
Archive
brake
liquor
feeds
##iate
chancellor
Encyclopedia
Animation
scanning|C0034606|PROC
teens
##mother
Core
Rear
Wine
##flower
reactor
Ave
cardinal
sodium|C0037473|CHEM
strands
Olivier
crouched
Vaughan
Sammy
Image
scars
Emmanuel
flour
bias
nipple|C0028109|ANAT
revelation
##ucci
Denny
##ssy
Form
Runners
admits
Rama
violated
Burmese
feud
underwear
Mohamed
Named
swift
statewide
Door
Recently
comparing
Hundred
##idge
##nity
##rds
Rally
Reginald
Auburn
solving
waitress
Treasurer
##ilization
Halloween
Ministers
Boss
Shut
##listic
Rahman
demonstrating
##pies
Gaza
Yuri
installations
Math
schooling|C0013658|DISO
##bble
Bronx
exiled
gasoline
133
bundle
humid
FCC
proportional
relate
VFL|C0152173|DISO
##dez
continuity
##cene
syndicated
atmospheric
arrows
Wanderers
reinforcements
Willow
Lexington
Rotten
##yon
discovering
Serena
portable
##lysis
targeting
£1
Goodman
Steam|C0038225|CHEM
sensors
detachment
Malik
##erie
attitudes|C0004271|PHYS
Goes
Kendall
Read|C0034754|ACTI
Sleep|C0037313|PHYS
beans
Nikki
modification
Jeanne
knuckles|C0025525|ANAT
Eleven
##iously
Gross
Jaime
dioxide
moisture
Stones
UCI
displacement|C0012725|PHYS
Metacritic
Jury
lace
rendering
elephant
Sergei
##quire
GP
Abbott
##type
projection|C0033363|PHYS
Mouse
Bishops
whispering
Kathleen
Rams
##jar
whites
##oran
assess
dispatched
##hire
kin
##mir
Nursing|C0006147|PHYS
advocates
tremendous
sweater
assisting
##bil
Farmer
prominently
reddish
Hague
cyclone
##SD
Sage|C3265310|CHEM
Lawson
Sanctuary
discharged
retains
##ube
shotgun
wilderness
Reformed
similarity
Entry
Watts
Bahá
Quest
Looks
visions|C0042789|PHYS
Reservoir
Arabs
curls
Blu
dripping
accomplish
Verlag
drill|C0337279|PROC
sensor
Dillon
physicians
smashed
##dir
painters
Renault
straw|C4047917|CHEM
fading
Directorate
lounge
commissions
Brain|C0006104|ANAT
##graph
neo
##urg
plug
coordinated
##houses
Critical
lamps
illustrator
Returning
erosion|C0333307|DISO
Crow
##ciation
blessing
Thought
Wife
medalist
synthesizer
Pam
Thornton
Esther
HBO
fond
Associates
##raz
pirate
permits
Wide
tire
##PC
Ernie
Nassau
transferring
RFC
##ntly
um
spit
AS
##mps
Mining
polar
villa
anchored|C1293132|PROC
##zzi
embarrassment
relates
##ă
Rupert
counterparts
131
Baxter
##18
Igor
recognizes
Clive
##hane
##eries
##ibly
occurrence
##scope
fin
colorful
Rapids
banker
tile
##rative
##dus
delays
destinations
##llis
Pond
Dane
grandparents
rewarded
socially
motorway
##hof
##lying
##human
modeled
Dayton
Forward
conscience
Sharma
whistle
Mayer
Sasha
##pical
circuits
Zhou
##ça
Latvian
finalists
predators
Lafayette
closes
obligations
Resolution
##vier
Trustees
reminiscent
##hos
Highlands
Protected
asylum
evacuation|C1282573|PROC
##acy
Chevrolet
confession
Somalia
emergence
separating
##rica
alright
calcium|C0006675|CHEM
Laurent
Welfare
Leonardo
ashes
dental|C1272923|CHEM
Deal
minerals|C0026162|CHEM
##lump
##mount
accounted
staggered|C0344191|DISO
slogan
photographic
builder
##imes
##raft
tragic
144
SEC|C0074289|CHEM
Hit|C0272285|DISO
tailed
##ples
##rring
##rson
ethical
wrestlers
concludes
lunar
##ept
nitrogen|C0028158|CHEM
Aid|C0021588|PROC
cyclist
quarterfinals
##ه
harvest
##hem
Pasha
IL
##mis
continually
##forth
Intel
bucket
##ended
witches
pretended
dresses
viewer
peculiar
lowering
volcano
Marilyn
Qualifier
clung
##sher
Cut|C0000925|DISO
modules
Bowie|C0275491|DISO
##lded
onset
transcription|C0040649|PHYS
residences
##pie
##itor
scrapped
##bic
Monaco
Mayo
eternity
Strike
uncovered
skeleton|C0037253|ANAT
##wicz
Isles
bug
Promoted
##rush
Mechanical
XII
##ivo
gripping
stubborn
velvet
TD
decommissioned
operas
spatial
unstable|C0443343|DISO
Congressman
wasted
##aga
##ume
advertisements
##nya
obliged
Cannes
Conway
bricks
##gnant
##mity
##uise
jumps|C0560453|DISO
Clear
##cine
##sche
chord
utter
Su
podium
spokesman
Royce
assassin
confirmation
licensing
liberty
##rata
Geographic
individually
detained
##ffe
Saturn
crushing|C0185060|PROC
airplane
bushes
knights
##PD
Lilly
hurts
unexpectedly
Conservatives
pumping
Forty
candle|C1850568|DISO
Pérez
peasants
supplement
Sundays
##ggs
##rries
risen
enthusiastic|C0558083|PHYS
corresponds
pending
##IF
Owens
floods|C0375741|DISO
Painter
inflation
presumed
inscribed
Chamberlain
bizarre
1200
liability
reacted
tub
Legacy|C2979241|CHEM
##eds
##pted
shone
##litz
##NC
Tiny
genome
bays
Eduardo
robbery
stall
hatch
Depot
Variety
Flora
reprinted
trembled
outlined
CR
Theresa
spans
##plication
Jensen
##eering
posting
##rky
pays
##ost
Marcos
fortifications
inferior
##ential
Devi
despair|C0233488|DISO
Talbot
##chus
updates
ego
Booth
Darius
tops
##lau
Scene
##DC
Harlem
Trey
Generally
candles
##α
Neville
Admiralty
##hong
iconic
victorious
1600
Rowan
abundance
miniseries
clutching
sanctioned
##words
obscure
##ision
##rle
##EM
disappearing
Resort
Obviously
##eb
exceeded
1870s
Adults
##cts
Cry
Kerr|C2344238|CHEM
ragged
selfish
##lson
circled
pillars
galaxy
##asco
##mental
rebuild
caution
Resistance
Start
bind
splitting|C1444777|DISO
Baba
Hogan
ps
partnerships
slam
Peggy
courthouse
##OD
organizational
packages
Angie
##nds
possesses
##rp
Expressway
Gould
Terror
Him
Geoff
nobles
##ope
shark|C3486821|CHEM
##nh
identifies
##oor
testified
Playing|C0600138|DISO
##ump
##isa
stool
Idol
##pice
##tana
Byrne
Gerry
grunted
26th
observing
habits
privilege
immortal
wagons
##thy
dot
Bring
##lian
##witz
newest
##uga
constraints
Screen|C0199230|PROC
Issue|C0033213|DISO
##RNA
##vil
reminder
##gles
addiction|C0085281|DISO
piercing
stunning
var
##rita
Signal
accumulated
##wide
float
devastating
viable
cartoons
Uttar
flared
##encies
Theology
patents
##bahn
privileges
##ava
##CO
137
##oped
##NT
orchestral
medication|C0013227|CHEM
225
erect
Nadia
École
fried
Sales
scripts
##rease
airs
Cage
inadequate
structured
countless
Avengers
Kathy
disguise
mirrors
Investigation
reservation
##nson
Legends
humorous
Mona
decorations
attachment|C0185023|PROC
Via
motivation|C0026605|PHYS
Browne
strangers
##ński
Shadows
Twins
##pressed
Alma
Nominated
##ott
Sergio
canopy
152
Semifinals
devised
##irk
upwards
Traffic
Goddess
Move|C0578671|DISO
beetles
138
spat
##anne
holdings
##SP
tangled
Whilst
Fowler
anthem
##ING
##ogy
snarled
moonlight
songwriting
tolerance
Worlds
exams
##pia
notices
sensitivity
poetic
Stephens
Boone
insect
reconstructed
Fresh
27th
balloon
##ables
Brendan
mug|C0004063|DISO
##gee
1780
apex
exports
slides
Lahore
hiring
Shell
electorate
sexuality
poker
nonprofit
##imate
cone|C1704638|CHEM
##uce
Okinawa
superintendent
##HC
referenced
turret
Sprint
Citizen
equilibrium|C0014653|PHYS
Stafford
curb
Driver
Valerie
##rona
aching|C0234238|DISO
impacts
##bol
observers
Downs
Shri
##uth
airports
##uda
assignments
curtains
solitary
icon
patrols
substances
Jasper
mountainous
Published
ached
##ingly
announce
dove
damaging
##tism
Primera
Dexter
limiting
batch
##uli
undergoing
refugee
Ye
admiral
pavement
##WR
##reed
pipeline
desires
Ramsey
Sheila
thickness
Brotherhood
Tea
instituted
Belt
Break
plots
##ais
masculine
##where
Theo
##aged
##mined
Experience
scratched
Ethiopian
Teaching
##nov
Aiden
Abe|C0155685|DISO
Samoa
conditioning|C0009647|PHYS
##mous
Otherwise
fade
Jenks
##encing
Nat|C0200932|PROC
##lain
Anyone
##kis
smirk
Riding
##nny
Bavarian
blessed
potatoes
Hook
##wise
likewise
hardened|C0702118|DISO
Merry
amid
persecution
##sten
Elections
Hoffman
Pitt
##vering
distraction
exploitation
infamous
quote
averaging
healed
Rhythm
Germanic
Mormon
illuminated
guides
##ische
interfere
##ilized
rector
perennial
##ival
Everett
courtesy
##nham
Kirby
Mk
##vic
Medieval
##tale
Luigi
limp|C0311395|DISO
##diction
Alive|C2584946|DISO
greeting|C0566229|DISO
shove
##force
##fly
Jasmine|C3256690|CHEM
Bend
Capt
Suzanne
ditch
134
##nning
Host
fathers
rebuilding
Vocal
wires
##manship
tan|C0040854|CHEM
Factor
fixture
##LS
Māori
Plate
pyramid|C0262324|ANAT
##umble
slap
Schneider
yell
##ulture
##tional
Goodbye
sore|C0234233|DISO
##pher
depressed|C0344315|DISO
##dox
pitching
Find
Lotus
##wang
strand
Teen
debates
prevalent
##bilities
exposing
hears
billed
##rse
reorganized
compelled
disturbing
displaying
##tock
Clinical
emotionally
##iah
Derbyshire
grouped
##quel
Bahrain
Journalism
IN
persistent|C0332996|DISO
blankets
Crane
camping|C0006811|ACTI
Direct
proving
Lola
##dding
Corporate
birthplace
##boats
##ender
Figure
dared
Assam
precursor
##nched
Tribe
Restoration
slate|C0303752|CHEM
Meyrick
hunted
stroking
Earlier
Kind
polls
appeals
monetary
##reate
Kira
Langdon
explores
GPS|C0272302|DISO
extensions
squares
Results
draped
announcer
merit
##ennial
##tral
##roved
##cion
robots
supervisor
snorted
##group
Cannon
procession
monkey
freeze
sleeves
Nile
verdict
ropes
firearms
extraction|C0185115|PROC
tensed
EC
Saunders
##tches
diamonds|C0057717|CHEM
Marriage|C0024841|DISO
##amble
curling
Amazing
##haling
unrelated|C0445356|DISO
##roads
Daughter
cum|C0228521|ANAT
discarded
kidney|C0022646|ANAT
cliffs
forested
Candy
##lap
authentic
tablet|C0039225|CHEM
notation
##nburg
Bulldogs
Callum
Meet
mouths|C0226896|ANAT
coated
##xe
Truman
combinations
##mation
Steelers
Fan
Than
paternal
##father
##uti
Rebellion
inviting
Fun
theatres
##ي
##rom
curator
##cision
networking
Oz
drought
##ssel
granting
MBA
Shelby
Elaine
jealousy|C0022371|PHYS
Kyoto
shores
signaling|C0037083|PHYS
tenants
debated
Intermediate
Wise
##hes
##pu
Havana
duke
vicious
exited
servers
Nonetheless
Reports
explode
##beth
Nationals
offerings
Oval
conferred
eponymous
folklore
##NR
Shire
planting
1783
Zeus
accelerated
Constable
consuming
troubles
McCartney
texture
bust
Immigration
excavated
hopefully
##cession
##coe
##name
##ully
lining
Einstein
Venezuelan
reissued
minorities
Beatrice
crystals|C1378554|CHEM
##nies
circus
lava
Beirut
extinction
##shu
Becker
##uke
issuing
Zurich
extract|C2752151|CHEM
##esta
##rred
regulate
progression|C0242656|DISO
hut
alcoholic
plea
AB
Norse
Hubert
Mansfield
ashamed
##put
Bombardment
stripes
electrons
Denise
horrified
Nor
arranger
Hay
Koch
##ddling
##iner
Birthday
Josie
deliberate
explorer
##jiang
##signed
Arrow
wiping
satellites
baritone
mobility|C0425245|DISO
##rals
Dorset
turbine
Coffee
185
##lder
Cara
Colts
pits
Crossing
coral
##birth
Tai
zombie
smoothly
##hp
mates
##ady
Marguerite
##tary
puzzled|C0423995|DISO
tapes
overly
Sonic
Prayer
Thinking|C0039869|PHYS
##uf
IEEE
obligation
##cliffe
Basil|C2740585|CHEM
redesignated
##mmy
nostrils|C0595944|ANAT
Barney
XIII
##phones
vacated
unused
Berg
##roid
Towards
viola
136
Event
subdivided
rabbit|C2093603|CHEM
recruiting
##nery
Namibia
##16
##ilation
recruits
Famous
Francesca
##hari
Goa
##lat
Karachi
haul
biblical
##cible
MGM
##rta
horsepower
profitable
Grandma
importantly
Martinez
incoming
##kill
beneficial
nominal
praying|C0377355|CHEM
##isch
gable
nail|C0027342|ANAT
noises
##ttle
Polytechnic
rub
##cope
Thor
audition
erotic
##ending
##iano
Ultimately
armoured
##mum
presently
pedestrian
##tled
Ipswich
offence
##ffin
##borne
Flemish
##hman
echo
##cting
auditorium
gentlemen
winged
##tched
Nicaragua
Unknown
prosperity
exhaust
pie
Peruvian
compartment
heights
disabilities|C0231170|DISO
##pole
Harding
Humphrey
postponed
moths
Mathematical
Mets
posters
axe
##nett
Nights
Typically
chuckle
councillors
alternating
141
Norris
##ately
##etus
deficit
dreaming|C0013117|PHYS
cooler
oppose
Beethoven
##esis
Marquis|C2729913|CHEM
flashlight
headache|C0018681|DISO
investor
responding
appointments
##shore
Elias
ideals
shades
torch|C0270173|DISO
lingering
##real
pier
fertile|C0015895|PHYS
Diploma
currents
Snake
##horse
##15
Briggs
##ota
##hima
##romatic
Coastal
Kuala
ankles|C0003086|ANAT
Rae
slice
Hilton
locking
Approximately
Workshop
Niagara
strangely
##scence
functionality
advertisement
Rapid
Anders
ho
Soviets
packing|C0184967|PROC
basal
Sunderland
Permanent
##fting
rack
tying
Lowell
##ncing
Wizard
mighty
tertiary
pencil
dismissal|C0014007|DISO
torso|C0460005|ANAT
grasped
##yev
Sand|C0037098|CHEM
gossip
##nae
Beer
implementing
##19
##riya
Fork
Bee
##eria
Win
##cid
sailor
pressures|C0460139|DISO
##oping
speculated
Freddie
originating
##DF
##SR
##outh
28th
melt
Brenda
lump|C0577559|DISO
Burlington
USC
marginal
##bine
Dogs
swamp
cu
Ex
uranium|C0041928|CHEM
metro
spill
Pietro
seize
Chorus
partition
##dock
##media
engineered
##oria
conclusions
subdivision|C1273519|DISO
##uid
Illustrated
Leading
##hora
Berkshire
definite
##books
##cin
##suke
noun
winced
Doris
dissertation
Wilderness
##quest
braced
arbitrary
kidnapping
Kurdish
##but
clearance
excavations
wanna
Allmusic
insult
presided
yacht
##SM
Honour
Tin|C0040238|CHEM
attracting
explosives
Gore
Bride
##ience
Packers
Devils
Observer
##course
Loser
##erry
##hardt
##mble
Cyrillic
undefeated
##stra
subordinate
##ame
Wigan
compulsory
Pauline
Cruise
Opposition|C0231519|DISO
##ods
Period|C0025344|PHYS
dispersed
expose
##60
##has
Certain
Clerk
Wolves
##hibition
apparatus
allegiance
orbital
justified
thanked
##ević
Biblical
Carolyn
Graves
##tton
Hercules
backgrounds
replica
1788
aquatic
Mega
Stirling
obstacles
filing
Founder
vowels
Deborah
Rotterdam
surpassed
Belarusian
##ologists
Zambia
Ren|C0022646|ANAT
Olga
Alpine
bi
councillor
Oaks
Animals
eliminating
digit|C0582802|ANAT
Managing|C1273870|ACTI
##GE
laundry
##rdo
presses
slamming
Tudor
thief
posterior|C0751438|DISO
##bas
Rodgers
smells|C0037361|PHYS
##ining
Hole
SUV
trombone
numbering
representations
Domingo
Paralympics
cartridge
##rash
Combined
shelves
Kraków
revision|C0558347|PROC
##frame
Sánchez
##tracted
##bler
Alain
townships
sic
trousers
Gibbs
anterior|C0751437|DISO
symmetry
vaguely
Castile
IRA
resembling
Penguin
##ulent
infections|C0851162|DISO
##stant
raped
##pressive
worrying|C0233481|DISO
brains|C0006104|ANAT
bending
JR
Evidence
Venetian
complexes
Jonah
850
exported
Ambrose
Gap
philanthropist
##atus
Marxist
weighing|C1305866|PROC
##KO
##nath
Soldiers
chiefs
reject
repeating
shaky
Zürich
preserving
##xin
cigarettes
##break
mortar
##fin
Already
reproduction
socks
Waiting
amazed
##aca
dash
##path
Airborne
##harf
##get
descending
OBE
Sant
Tess
Lucius
enjoys
##ttered
##ivation
##ete
Leinster
Phillies
execute
geological
unfinished
Courts
SP
Beaver
Duck|C2725890|CHEM
motions
Platinum|C0032207|CHEM
friction
##aud
##bet
Parts
Stade
entirety
sprang
Smithsonian
coffin
prolonged
Borneo
##vise
unanimously
##uchi
Cars
Cassandra
Australians
##CT
##rgen
Louisa
spur
Constance
##lities
Patent
racism
tempo
##ssion
##chard
##nology
##claim
Million
Nichols
##dah
Numerous
ing
Pure
plantations
donor
##EP
##rip
convenience
##plate
dots|C1720485|DISO
indirect
##written
Dong
failures
adapt
wizard
unfortunately
##gion
practitioners
economically
Enrique
unchanged|C0442739|DISO
kingdoms
refined
definitions
lazy
worries|C0233481|DISO
railing
##nay
Kaiser
##lug
cracks
sells
ninety
##WC
Directed
denotes
developmental
papal
unfortunate
disappointing
sixteenth
Jen
##urier
NWA
drifting
Horror
##chemical
behaviors
bury
surfaced
foreigners
slick
AND
##rene
##ditions
##teral
scrap
kicks
comprise
buddy
##anda
Mental
##ype
Dom|C0013007|CHEM
wines
Limerick
Luca
Rand
##won
Tomatoes
homage
geometric
##nted
telescope
Shelley
poles
##fan
shareholders
Autonomous
cope
intensified
Genoa
Reformation
grazing|C0043242|DISO
##tern
Zhao
provisional
##bies
Con
##riel
Cynthia
Raleigh
vivid
threaten
Length
subscription
roses
Müller
##isms
robin|C0304016|CHEM
##tial
Laos
Stanton
nationalism
##clave
##ND
##17
##zz
staging
Busch
Cindy
relieve
##spective
packs
neglected
CBE
alpine
Evolution
uneasy|C0424142|DISO
coastline
Destiny
Barber
Julio
##tted
informs
unprecedented
Pavilion
##bei
##ference
betrayal
awaiting
leaked
V8
puppet
adverse
Bourne
Sunset
collectors
##glass
##sque
copied
Demon
conceded
resembled
Rafe
Levy
prosecutor
##ject
flora
manned
deaf
Mosque
reminds
Lizzie
Products
Funny
cassette
congress
##rong
Rover
tossing
prompting
chooses
Satellite
cautiously
Reese
##UT
Huang
Gloucestershire
giggled
Kitty
##å
Pleasant
Aye
##ond
judging
1860s
intentionally
Hurling
aggression
##xy
transfers
employing|C0557351|DISO
##fies
##oda
Archibald
Blessed
Ski|C0037262|ANAT
flavor
Rosie
##burgh
sunset
Scholarship
WC
surround
ranged
##jay
Degree
Houses
squeezing
limb|C0015385|ANAT
premium
Leningrad
steals
##inated
##ssie
madness
vacancy
hydraulic
Northampton
##prise
Marks
Boxing|C0006080|ACTI
##fying
academics
##lich
##TY
CDs|C0268238|DISO
##lma
hardcore
monitors
paperback
cables
Dimitri
upside
advent
Ra
##clusive
Aug
Christchurch
objected
stalked
Simple
colonists
##laid
CT
discusses
fellowship
Carnival
cares
Miracle
pastoral
rooted
shortage
borne
Quentin
meditation
tapping
Novel
##ades
Alicia
Burn|C0006434|DISO
famed
residency
Fernández
Johannesburg
Zhu
offended
Mao|C0026454|CHEM
outward
##inas
XV
denial|C0011317|DISO
noticing
##ís
quarry
##hound
##amo
Bernie
Bentley
Joanna
mortgage
##rdi
##sumption
lenses
extracted
depiction
##RE
Networks
Broad
Revenue
flickered
virgin|C0555061|DISO
flanked
##о
Enterprises
probable|C0332148|DISO
Liberals
Falcons
drowning|C0013142|DISO
phrases
loads
assumes
inhaled
awe
logs
slightest
spiders
waterfall
##pate
rocking
shrub
##uil
roofs
##gard
prehistoric
wary
##rak
TO
clips
sustain|C2732140|CHEM
treason
microphone
voter
Lamb
psychologist
wrinkled
##ères
mating
Carrier|C0007294|DISO
340
##lbert
sensing
##rino
destiny
distract
weaker
UC
Nearly
neurons|C0027882|ANAT
spends
Apache
##rem
genuinely
wells
##lanted
stereo
##girl
Lois
Leaving
consul
fungi
Pier
Cyril
80s
Jungle
##tani
illustration
Split
##hana
Abigail
##patrick
1787
diminished
Selected
packaging
##EG
Martínez
communal
Manufacturing
sentiment
143
unwilling|C0558080|PHYS
praising
Citation
pills|C0994475|CHEM
##iti
##rax
muffled
neatly
workforce
Yep
leisure
Tu
##nding
Wakefield
ancestral
##uki
destructive
seas
Passion|C0939808|CHEM
showcase
##ceptive
heroic
142
exhaustion|C0392674|DISO
Customs
##aker
Scholar
sliced
##inian
Direction
##OW
Swansea
aluminium|C0002367|CHEM
##eep
ceramic
McCoy
Career
Sector
chartered
Damascus
pictured
Interest|C0543488|PHYS
stiffened
Plateau
obsolete
##tant
irritated
inappropriate
overs
##nko
bail
Talent
Sur|C0038880|CHEM
ours
##nah
barred
legged
sociology
Bud
dictionary
##luk
Cover
obey
##oring
annoying
##dong
apprentice
Cyrus
Role
##GP
##uns
##bag
Greenland
Porsche
Rocket
##32
organism
##ntary
reliability
##vocation
##й
Found
##hine
motors
promoter
unfair
##oms
##note
distribute
eminent
rails
appealing
chiefly
meaningful
Stephan
##rehension
Consumer
psychiatric
bowler
saints
##iful
##н
1777
Pol
Dorian
Townsend
hastily
##jima
Quincy
Sol|C1382100|CHEM
fascinated
Scarlet
alto
Avon
certainty
##eding
Keys
##chu
Chu
##VE
ions|C0022023|CHEM
tributaries
Thanksgiving
##fusion
astronomer
oxide|C0030015|CHEM
pavilion
Supply
Casa
Bollywood
sadly
mutations|C0026882|PHYS
Keller
##wave
nationals
##rgo
##ym
predict
Catholicism
Vega
##eration
##ums
Mali
tuned
Lankan
Plans
radial
Bosnian
Lexi
##14
##ü
sacks
unpleasant
Empty
handles
##taking
Bon
switches
intently
tuition
antique
##jk
fraternity
notebook
Desmond
##sei
prostitution
##how
deed
##OP
501
Somewhere
Rocks
##mons
campaigned
frigate
gases
suppress
##hang
Merlin|C0254123|CHEM
Northumberland
dominate
expeditions
thunder
##ups
##rical
Cap|C0006935|CHEM
thorough
Ariel
##kind
renewable
constructing
pacing
terrorists
Bowen
documentaries
westward
##lass
##nage
Merchant
##ued
Beaumont
Din
##hian
Danube
peasant
Garrison
encourages
gratitude
reminding|C0557033|PROC
stormed
##ouse
pronunciation
##ailed
Weekend
suggestions
##ffing
##DI
Active
Colombo
##logists
Merrill
##cens
Archaeological
Medina
captained
##yk
duel
cracking
Wilkinson
Guam
pickup
renovations
##ël
##izer
delighted
##iri
Weaver
##ctional
tens|C0040654|PROC
##hab
Clint
##usion
##each
petals
Farrell
##sable
caste
##will
Ezra
##qi
##standing
thrilled
ambush
exhaled|C0231800|PHYS
##SU
Resource
blur
forearm|C0016536|ANAT
specifications
contingent
cafe
##iology
Antony
fundraising
grape|C0795617|CHEM
##rgy
turnout
##udi
Clifton
laboratories
Irvine
##opus
##lid
Monthly
Bihar
statutory
Roses
Emil
##rig
lumber
optimal
##DR
pumps
plaster|C0460977|CHEM
Mozambique
##aco
nightclub
propelled
##hun
ked
surplus
wax|C0043076|CHEM
##urai
pioneered
Sunny
imprint
Forget
Eliot
approximate
patronage
##bek
##ely
##mbe
Partnership
curl
snapping|C1177045|CHEM
29th
Patriarch
##jord
seldom
##ature
astronomy
Bremen
XIV
airborne
205
1778
recognizing
stranded
arrogant
bombardment
destined
ensured
146
robust
Davenport
Interactive
Offensive
Fi
prevents
probe
propeller
sorrow|C0018235|PHYS
Blade|C2948008|CHEM
mounting
automotive
##dged
wallet
201
lashes
Forrest
##ift
Cell|C0007634|ANAT
Younger
shouts
##cki
folds
##chet
Epic|C1273342|PROC
yields
homosexual
tunes
##minate
##text
Manny
chemist
hindwings
##urn
pilgrimage
##sfield
##riff
MLS
##rive
Huntington
translates
Path
slim
##ndra
##oz
climax
commuter
desperation
##reet
denying
##rious
daring
seminary
polo
##clamation
Teatro
Torah
Cats
identities|C0424215|PHYS
Poles
photographed
fiery
popularly
##cross
winters
Hesse
##vio
Nurse
Senegal
Salon
prescribed
justify
##gues
##и
##orted
HQ
##hiro
evaluated
momentarily
##unts
Debbie
##licity
##TP
Mighty
Rabbit|C2093603|CHEM
##chal
Events
Savoy
##ht
Brandenburg
Bordeaux
##laus
Release|C1963578|PROC
##IE
##kowski
1900s
SK
Strauss
##aly
Sonia
Updated
synagogue
McKay
flattened
370
clutch
contests
toast
evaluate
pope
heirs
jam
tutor
reverted
##ading
nonsense|C0544885|DISO
hesitate
Lars
Ceylon
Laurie
##guchi
accordingly
customary
148
Ethics
Multiple
instincts
IGN
##ä
bullshit
##hit
##par
desirable
##ducing
##yam
alias
ashore
licenses
##lification
misery
147
Cola
assassinated
fiercely
##aft
las|C1562368|PROC
goat
substrate
lords
Cass
Bridges
ICC
lasts
sights
reproductive
##asi
Ivory
Clean
fixing
##lace
seeming
aide
1850s
harassment
##FF
##LE
reasonably
##coat
##cano
NYC
1784
Fifty
immunity
Canadians
Cheng
comforting
meanwhile
##tera
##blin
breeds
glowed
##vour
Aden
##verted
##aded
##oral
neat
enforced
poisoning|C0032343|DISO
##ews
##hone
enforce
predecessors
survivor
Month
unfamiliar
pierced|C0935563|PROC
waived
dump
responds
Mai
Declan
angular
Doesn
interpretations
##yar
invest
Dhaka
policeman
Congregation
Eighth
painfully
##este
##vior
Württemberg
##cles
blockade|C3540676|CHEM
encouragement
##fie
Caucasus
Malone
Universidad
utilize
Nissan
inherent
151
agreeing
syllable
determines
Protocol
conclude
##gara
40th
Xu
Taiwanese
##ather
boiler
printer
Lacey
titular
Klaus
Fallon
Wembley
fox
Chandra
Governorate
obsessed
##Ps
micro|C0085672|PROC
##25
Cooke
gymnasium
weaving
Shall
Hussein
glaring|C3887688|DISO
softball
Reader
Dominion
Trouble
varsity
Cooperation
Chaos
Kang
Kramer
Eisenhower
proves
Connie
consortium
governors
Bethany
opener
Normally
Willy
linebacker
Regent
Used|C1273517|DISO
AllMusic
Twilight
##shaw
Companion
Tribunal
simpler
##gam
Experimental
Slovenian
cellar
deadline
trout|C2725895|CHEM
Hubbard
ads
idol
##hetto
Granada
clues
salmon|C2702377|CHEM
1700
Omega
Caldwell
softened
Bills
Honolulu
##gn
Terrace
suitcase
##IL
frantic
##oons
Abbot
Sitting|C0277814|DISO
Fortress
Riders
sickness|C0221423|DISO
enzymes|C0014442|CHEM
trustee
Bern
forged
##13
##ruff
##rl
##versity
inspector
champagne
##held
##FI
hereditary
Taliban
handball|C0336936|ACTI
##wine
Sioux
##dicated
honoured
139
##tude
Skye
meanings
##rkin
cardiac|C0018787|ANAT
analyzed
vegetable
##FS
Royals
dial
freelance
##fest
partisan
petroleum|C0031264|CHEM
ridden
Lincolnshire
panting|C0425488|DISO
##comb
presidents
Haley
##chs
contributes
Jew
discoveries
panicked
Woody
eyelids|C0015426|ANAT
Fate
Tulsa
mg
whiskey
zombies
Wii
##udge
investigators
##bull
centred
##screen
Bone|C0262950|ANAT
Lana
##oise
forts
##ske
Conan
Lyons
##writing
SH
##ride
rhythmic
154
##llah
pioneers
##bright
captivity
Sanchez
Oman
##mith
Flint|C0303753|CHEM
Platform
##ioned
emission
packet
Persia
##formed
takeover
tempted
Vance
Few
Toni
receptions
##ن
exchanges
Camille
whale
Chronicles
##rent
##ushing
##rift
Alto
Genus
##asing
onward
foremost
longing
Rockefeller
containers
##cribe
intercepted
##olt
pleading
Bye
bee
##umbling
153
undertake
Izzy
cheaper
Ultra
validity
##pse
Sa
hovering
##pert
vintage
engraved
##rise
farmland
##ever
##ifier
Atlantis
propose
Catalonia
plunged
##edly
demonstrates
gig
##cover
156
Osborne
cowboy
herd
investigator
loops
Burning|C0085624|DISO
rests|C0035253|ACTI
Instrumental
embarrassing
focal
install
readings|C0034754|ACTI
swirling
Chatham
parameter
##zin
##holders
Mandarin
Moody|C0554980|DISO
converting
Escape
warnings
##chester
incarnation
##ophone
adopting|C0425382|DISO
##lins
Cromwell
##laws
Axis|C0004457|ANAT
Verde
Kappa
Schwartz
Serbs
caliber
Wanna
Chung
##ality
nursery
principally
Bulletin
likelihood
logging
##erty
Boyle
supportive
twitched
##usive
builds
Marseille
omitted
motif
Lands
##lusion
##ssed
Barrow
Airfield
Harmony
WWF
endured
merging
convey
branding
examinations
167
Italians
##dh
dude
1781
##teau
crawling
thoughtful
clasped
concluding
brewery
Moldova
Wan
Towers
Heidelberg
202
##ict
Lagos
imposing
##eval
##serve
Bacon
frowning
thirteenth
conception|C0009637|PHYS
calculations
##ович
##mile
##ivated
mutation|C0026882|PHYS
strap
##lund
demographic
nude
perfection
stocks
##renched
##dit
Alejandro
bites|C0005658|DISO
fragment
##hack
##rchy
GB
Surgery
Berger
punish
boiling
consume
Elle
Sid|C0038644|DISO
Dome
relies
Crescent
treasurer
Bloody
1758
upheld
Guess
Restaurant
signatures
font
millennium
mural
stakes
Abel
hailed
insists
Alumni
Breton
##jun
digits|C0582802|ANAT
##FM
##thal
Talking|C0234856|ACTI
motive|C0026605|PHYS
reigning
babe
masks
##ø
Shaun
potato|C2702372|CHEM
sour
whitish
Somali
##derman
##rab
##wy
chancel
telecommunications
Noise
messenger
tidal
grinding|C0185051|PROC
##ogenic
Rebel
constituent
peripheral
recruitment|C0271510|DISO
##ograph
##tler
pumped
Ravi
poked
##gley
Olive|C0228539|ANAT
diabetes|C0011849|DISO
discs
liking
sting|C0038340|DISO
fits|C0036572|DISO
stir
Mari
Sega|C0205768|DISO
creativity|C0010297|PHYS
weights
Macau
mandated
Bohemia
disastrous
Katrina
Baku
Rajasthan
waiter
##psis
Siberia
verbs
##truction
patented
1782
##ndon
Relegated
Hunters
Greenwood
Shock|C0036974|DISO
accusing
skipped
Sessions
markers
subset
monumental
Viola
comparative
Alright
Barbados
setup
Session
standardized
##ík
##sket
appoint
AFB
Nationalist
##WS
Troop
leaped
Treasure
goodness
weary
originates
100th
compassion
expresses
recommend
168
composing
seventeenth
Tex
Atlético
bald|C0002170|DISO
Finding|C0037088|DISO
Presidency
Sharks
favoured
inactive
##lter
suffix
princes
brighter
##ctus
classics
defendants
culminated
terribly
Strategy
evenings
##ção
##iver
##urance
absorb
##rner
Territories
RBI
soothing
Martín
concurrently
##tr
Nicholson
fibers
swam
##oney
Allie
Algerian
Dartmouth
Mafia
##bos
##tts
Councillor
vocabulary
##bla
##lé
intending
##dler
Guerrero
sunshine
pedal|C0016504|ANAT
##TO
administrators
periodic
scholarships
Loop
Madeline
exaggerated
##ressed
Regan|C0740201|CHEM
##cellular
Explorer
##oids
Alexandre
vows
Reporter
Unable|C1299582|DISO
Average
absorption
##bedience
Fortunately
Auxiliary
Grandpa
##HP
##ovo
potent
temporal
adrenaline|C0014563|CHEM
##udo
confusing
guiding
Dry
qualifications
joking
wherein
heavyweight
##ices
nightmares|C0028084|DISO
pharmaceutical|C0013058|CHEM
Commanding
##aled
##ove
Gregor
##UP
censorship
degradation|C0699900|PHYS
glorious
Austro
##rench
380
Miriam
sped
##orous
offset
##KA
fined
specialists
Pune
João
##dina
propped
fungus
##ς
frantically
Gabrielle
Hare
committing|C1171947|CHEM
##plied
Ask
Wilmington
stunt
numb
warmer
preacher
earnings
##lating
integer
##ija
federation
homosexuality
##cademia
epidemic
grumbled
shoving
Milk
Satan
Tobias
innovations
##dington
geology
memoirs
##IR
spared
culminating
Daphne
Focus
severed
stricken
Paige
Mans
flats
Russo
communes
litigation|C1368221|DISO
strengthening
##powered
Staffordshire
Wiltshire
Painting
Watkins
##د
specializes
Select
##rane
##aver
Fulton
playable
##VN
openings
sampling|C0441621|PROC
##coon
##21
Allah
travelers
allocation
##arily
Loch
##hm
commentators
fulfilled
##troke
Emeritus
Vanderbilt
Vijay
pledged
##tative
diagram
drilling|C0337279|PROC
##MD
##plain
Edison
productivity
31st
##rying
##ption
##gano
##oration
##bara
posture|C0722716|CHEM
bothering
platoon
politely
##inating
redevelopment
Job
##vale
stark
incorrect
Mansion
renewal|C2916969|CHEM
threatens
Bahamas
fridge
##tata
Uzbekistan
##edia
Sainte
##mio
gaps
neural
##storm
overturned
Preservation
shields
##ngo
##physics
ah
gradual
killings
##anza
consultation
premiership
Felipe
coincidence
##ène
##any
Handbook
##loaded
Edit
Guns
arguably
##ş
compressed
depict
seller
##qui
Kilkenny
##kling
Olympia
librarian
##acles
dramas
JP
Kit
Maj
##lists
proprietary
##nged
##ettes
##tok
exceeding
Lock
induction
numerical
##vist
Straight
foyer
imaginary
##pop
violinist
Carla
bouncing
##ashi
abolition
##uction
restoring
scenic
##č
Doom
overthrow
para|C0030563|DISO
##vid
##ughty
Concord
HC
cocaine|C0009170|CHEM
deputies
##aul
visibility
##wart
Kapoor
Hutchinson
##agan
flashes|C0085635|DISO
kn
decreasing
##ronology
quotes
vain|C0346208|DISO
satisfying
##iam
##linger
310
Hanson
fauna
##zawa
##rrel
Trenton
##VB
Employment
vocational
Exactly
bartender
butterflies
tow
##chers
##ocks
pigs
merchandise
##game
##pine
Shea
##gration
Connell
Josephine
monopoly
##dled
Cobb
warships
cancellation
someday
stove
##Cs
candidacy
superhero
unrest
Toulouse
admiration
undergone
whirled
Reconnaissance
costly
##ships
290
Cafe
amber|C0242864|CHEM
Tory
##mpt
definitive
##dress
proposes
redesigned
acceleration
##asa
##raphy
Presley
exits
Languages
##cel
Mode
spokesperson
##tius
Ban
forthcoming
grounded
ACC
compelling
logistics
retailers
abused
##gating
soda
##yland
##lution
Landmark
XVI
blush|C0005874|DISO
##tem
hurling
dread
Tobago
Foley
##uad
scenarios
##mentation
##rks
Score
fatigue|C0015672|DISO
hairy
correspond
##iard
defences
confiscated
##rudence
1785
Formerly
Shot|C0021485|PROC
advertised
460
Text
ridges
Promise
Dev
exclusion
NHS|C0796085|DISO
tuberculosis|C0041296|DISO
rockets
##offs
sparkling
256
disappears
mankind
##hore
HP
##omo
taxation
Multi
DS
Virgil
##ams
Dell
stacked
guessing
Jump
Nope
cheer
hates|C0018616|PHYS
ballots
overlooked
analyses
Prevention|C0199176|PROC
maturity
dos
##cards
##lect
Mare
##yssa
Petty
##wning
differing
iOS
##ior
Joachim
Sentinel
##nstein
90s
Pamela
480
Asher
##lary
Vicente
landings
portray
##rda
##xley
Virtual
##uary
finances
Jain
Somebody
Tri
behave
Michele
##ider
dwellings
FAA
Gallagher
##lide
Monkey
195
aforementioned
##rism
##bey
##kim
##puted
Mesa
hopped
unopposed
recipients
Reality
Been
gritted
149
playground
pillar
##rone
Guinness
##tad
Théâtre
depended
Tipperary
Reuben
frightening|C0015726|PHYS
wooded
Target
globally
##uted
Morales
Baptiste
drunken
Institut
characterised
##chemistry
Strip|C3241918|CHEM
discrete
Premiership
##zzling
gazing|C0553544|DISO
Outer
##quisition
Sikh
Booker
##yal
contemporaries
Jericho
##chan
##physical
##witch
Militia
##rez
##zard
dangers
##utter
##₀
Programs
darling
participates
railroads
##ienne
behavioral
bureau
##rook
161
Hicks
##rises
Comes
inflicted
bees
kindness
norm
##ković
generators
##pard
##omy
##ili
methodology
Alvin
façade
latitude
##plified
DE
Morse
##mered
educate
intersects
##MF
##cz
##vated
AL
##graded
##fill
constitutes
artery|C0003842|ANAT
feudal
avant|C2948619|CHEM
cautious
##ogue
immigrated
##chenko
Saul
Clinic
Fang
choke|C0008301|DISO
Cornelius
flexibility
temperate
pins
##erson
oddly
inequality
157
Natasha
Sal
##uter
215
aft
blinking|C0005757|PHYS
##ntino
northward
Exposition
cookies
Wedding
impulse|C0443235|PROC
Overseas
terrifying|C0558261|DISO
##ough
Mortimer
##see
440
https
og
imagining
##cars
Nicola
exceptionally
threads
##cup
Oswald
Provisional
dismantled
deserves
1786
Fairy
discourse
Counsel
departing
Arc
guarding|C0427198|DISO
##orse
420
alterations
vibrant
Em
squinted
terrace
rowing
Led
accessories
SF
Sgt
cheating
Atomic
##raj
Blackpool
##iary
boarded
substituted
bestowed
lime|C0064990|CHEM
kernel
##jah
Belmont
shaken
sticky
retrospective
Louie
migrants
weigh
sunglasses
thumbs|C0040067|ANAT
##hoff
excavation
##nks
Extra
Polo
motives
Drum
infrared
tastes|C0039336|PHYS
berth
verge
##stand
programmed
warmed
Shankar
Titan
chromosome|C0008633|ANAT
cafeteria
dividing
pepper
CPU
Stevie
satirical
Nagar
scowled
Died|C0011065|PHYS
backyard
##gata
##reath
##bir
Governors
portraying
##yah
Revenge
##acing
1772
margins
Bahn
OH
lowland
##razed
catcher
replay
##yoshi
Seriously
##licit
Aristotle
##ald
Habsburg
weekday
Secretariat
CO
##dly
##joy
##stad
litre
ultra
##cke
Mongol
Tucson
correlation
compose
traps|C1275126|DISO
Groups
Hai|C0205721|DISO
Salvatore
##dea
cents
##eese
concession
clash
Trip|C0077275|CHEM
Panzer
Moroccan
cruisers
torque
Ba
grossed
##arate
restriction
concentrating
FDA
##Leod
##ones
Scholars
##esi
throbbing|C1444773|DISO
specialised
##heses
Chicken|C2722032|CHEM
##fia
##ificant
Erich
Residence
##trate
manipulation|C0947647|PROC
namesake
##tom
Hoover
cue
Lindsey
Lonely|C0023974|DISO
275
##HT
combustion
subscribers
Punjabi
respects
Jeremiah
penned
##gor
##rilla
suppression|C0221103|DISO
##tration
Crimson
piston
Derry
crimson
lyrical
oversee
portrays
CF
Districts
Lenin
Cora
searches
clans
VHS
##hel
Jacqueline
Redskins
Clubs
desktop
indirectly
alternatives
marijuana|C0024808|CHEM
suffrage
##smos
Irwin
##liff
Process
##hawks
Sloane
##bson
Sonata|C0876170|CHEM
yielded
Flores
##ares
armament
adaptations|C0000934|PHYS
integrate
neighbours
shelters
##tour
Skinner
##jet
##tations
1774
Peterborough
##elles
ripping
Liang
Dickinson
charities
Rwanda
monasteries
crossover
racist
barked
guerrilla
##ivate
Grayson
##iques
##vious
##got
Rolls
denominations
atom|C0567415|CHEM
affinity
##delity
Wish
##inted
##inae
interrogation
##cey
##erina
##lifting
192
Sands
1779
mast
Likewise
##hyl
##oft
contempt
##por
assaulted
fills
establishments
Mal
consulted
##omi
##sight
greet|C0566229|DISO
##roma
##egan
Pulitzer
##rried
##dius
##ractical
##voked
Hasan
CB
##zzy
Romanesque
Panic|C0030318|DISO
wheeled
recorder
##tters
##warm
##gly
botanist
Balkan
Lockheed
Polly
farewell
suffers|C0683278|DISO
purchases
Eaton
##80
Quick
commenting
Saga
beasts
hides
motifs
##icks
Alonso
Springer
Wikipedia
circulated
encoding
jurisdictions
snout
UAE
Integrated
unmarried
Heinz
##lein
##figured
deleted
##tley
Zen
Cycling
Fuel
Scandinavian
##rants
Conner
reef
Marino
curiously
lingered
Gina
manners
activism
Mines
Expo
Micah
promotions
Server
booked
derivatives
eastward
detailing
reelection
##chase
182
Campeonato
Po
158
Peel|C0237849|DISO
winger
##itch
canyon
##pit
LDS
A1
##shin
Giorgio
pathetic
##rga
##mist
Aren
##lag
confronts
motel
textbook
shine
turbines
1770
Darcy
##cot
Southeastern
##lessness
Banner
recognise
stray
Kitchen
paperwork
realism
Chrysler
filmmakers
fishermen
##hetic
variously
Vishnu
fiddle
Eddy
Origin
##tec
##ulin
Flames
Rs
bankrupt
Extreme
Pomeranian
##emption
ratified
##iu
jockey
Stratford
##ivating
##oire
Babylon
pardon
AI
affordable
deities
disturbance
Trying
##sai
Ida|C0020789|CHEM
Papers
advancement
70s
archbishop
Luftwaffe
announces
tugging
##lphin
##sistence
##eel
##ishes
ambition
aura|C0236018|DISO
##fled
##lected
##vue
Prasad
boiled
clarity
Violin
investigative
routing
Yankee
##uckle
McMahon
bugs
eruption
##rooms
Minutes
relics
##ckle
##nse
sipped
valves
weakly
##ital
Middleton
collided
##quer
bamboo|C1337281|CHEM
insignia
Tyne
exercised
Ninth
echoing
polynomial
considerations
lunged
##bius
objections
complain
disguised
plaza
##VC
institutes
Judicial
ascent
imminent
Waterford
hello
Lumpur
Niger
Goldman
vendors
Kensington
Wren
browser
##bner
##tri
##mize
##pis
##lea
Cheyenne
Bold
Settlement
Hollow
Paralympic
axle
##toire
##actic
impose
perched
utilizing
slips
Benz
Michaels
manipulate|C0947647|PROC
Chiang
##mian
Dolphins
prohibition
attacker
ecology
Estadio
##SB
##uild
attracts
recalls
glacier
lad
##rima
Barlow
kHz
melodic
##aby
##iracy
assumptions
Cornish
##aru
DOS
Maddie
##mers
lyric
Luton
nm
##tron
Reno
Fin
YOU
Broadcast
Finch
sensory
##bent
Jeep
##uman
additionally
Buildings
businessmen
treaties
235
Stranger
gateway
Charlton
accomplishments
Diary
apologized
zinc|C0043481|CHEM
histories
supplier
##tting
162
asphalt|C0052558|CHEM
Treatment|C0087111|PROC
Abbas
##pating
##yres
Bloom
sedan
soloist
##cum
antagonist|C0231491|PHYS
denounced
Fairfax
##aving
##enko
noticeable
Budget
Buckingham
Snyder
retreating
Jai
spoon
invading
giggle
woven
gunfire
arrests
##vered
##come
respiratory
violet
##aws
Byrd
shocking|C0036974|DISO
tenant
Jamaican
Ottomans
Seal
theirs
##isse
##48
cooperate
peering
##nius
163
Composer
organist
Mongolian
Bauer
Spy
collects
prophecy
congregations
##moor
Brick
calculation
fixtures
exempt
##dden
Ada|C0001457|CHEM
Thousand
##lue
tracing
##achi
bodyguard
vicar
supplying
Łódź
interception
monitored
##heart
Paso
overlap|C0185027|PROC
annoyance
##dice
yellowish
stables
elders|C0994408|CHEM
illegally
honesty
##oar
skinny
spinal
##puram
Bourbon
##cor
flourished
Medium
##stics
##aba
Follow
##ckey
stationary|C3839460|DISO
##scription
dresser
scrutiny
Buckley
Clearly
##SF
Lyrics
##heimer
drying
Oracle
internally
rains
##last
Enemy
##oes
McLean
Ole
phosphate
Rosario
Rifles
##mium
battered
Pepper
Presidents
conquer
Château
castles|C1266100|DISO
##aldo
##ulf
Depending
Lesser
Boom
trades
Peyton
164
emphasize
accustomed
SM
Ai
Classification
##mins
##35
##rons
leak
piled
deeds
lush
##self
beginnings
breathless|C0013404|DISO
1660
McGill
##ago
##chaft
##gies
humour
Bomb
securities
Might
##zone
##eves
Matthias
Movies
Levine
vengeance
##ads
Challenger
Misty
Traditionally
constellation
##rass
deepest
workplace
##oof
##vina
impatient
##ML
Mughal
Alessandro
scenery
Slater
postseason
troupe
##ń
Volunteers
Facility
militants
Reggie
sanctions
Expeditionary
Nam
countered
interpret
Basilica
coding
expectation
Duffy
def
Tong
wakes
Bowling|C0336949|ACTI
Vehicle|C0042444|CHEM
Adler
salad
intricate
stronghold
medley
##uries
##bur
joints|C0022417|ANAT
##rac
##yx
##IO
Ordnance
Welch
distributor
Ark
cavern
trench
Weiss
Mauritius
decreases
docks
eagerly
irritation
Matilda
biographer
Visiting
##marked
##iter
##ear
##gong
Moreno
attendant
Bury
instrumentation
theologian
clit
nuns
symphony
translate
375
loser
##user
##VR
##meter
##orious
harmful
##yuki
Commissioners
Mendoza
sniffed
Hulk
##dded
##ulator
##nz
Donnell
##eka
deported
Met
SD
Aerospace
##cultural
##odes
Fantastic
cavity|C0333343|ANAT
remark
emblem
fearing|C0015726|PHYS
##iance
ICAO
Liberia
stab|C0418391|DISO
##yd
Pac|C0033036|DISO
Gymnasium
IS
Everton
##vanna
mantle
##ief
Ramon
##genic
Shooting|C1444774|DISO
Smoke|C0037366|CHEM
Random
Africans
MB
tavern
bargain
voluntarily
Ion|C0022023|CHEM
Peoples
Rusty
attackers
Patton
sins
##cake
Hat|C0062773|CHEM
moderately
##hala
##alia
requesting
mechanic
##eae
Seine
Robbins
##ulum
susceptible
Bravo
Slade
Strasbourg
rubble
entrusted
Creation|C0441513|PROC
##amp
smoothed
##uintet
evenly
reviewers
skip|C0560435|DISO
Sculpture
177
Rough
##rrie
Reeves
##cede
Administrator
garde
minus
carriages
grenade
Ninja
fuscous
##kley
Punk
contributors
Aragon
Tottenham
##cca
##sir
VA
laced
dealers
##sonic
crisp
harmonica
Artistic
Butch
Andes
Farmers
corridors
unseen
##tium
Countries
Lone
envisioned
Katy
##lang
##cc
Quarterly
##neck
consort
##aceae
bidding
Corey
concurrent
##acts
##gum
Highness
##lient
##rators
arising
##unta
pathways
49ers
bolted
complaining
ecosystem
libretto
Ser
narrated
212
Soft
influx
##dder
incorporation
plagued
tents
##ddled
1750
Risk
citation
Tomas
hostilities|C0020039|PHYS
seals
Bruins
Dominique
attic|C0229390|ANAT
competent
##UR
##cci
hugging
Breuning
bacterial
Shrewsbury
vowed
eh
elongated
hangs
render
centimeters
##ficient
Mu
turtle
besieged
##gaard
grapes
bravery
collaborations
deprived
##amine
##using
##gins
arid
##uve
coats
hanged
##sting
Pa
prefix
##ranged
Exit
Chain
Flood
Materials
suspicions
##ö
hovered
Hidden
##state
Malawi
##24
Mandy
norms
fascinating
airlines
delivers
##rust
Cretaceous
spanned
pillows
##onomy
jar
##kka
regent
fireworks
morality
discomfort|C2364135|DISO
lure
uneven
##jack
Lucian
171
archaeology
##til
mornings
Billie
Marquess
impending
spilling
tombs
##volved
Celia
Coke|C0009170|CHEM
underside
##bation
Vaughn
Daytona
Godfrey
Pascal
Alien
##sign
172
##lage
iPhone
Gonna
genocide
##rber
oven
endure
dashed
simultaneous
##phism
Wally
##rō
ants
predator|C3528992|CHEM
reissue
##aper
Speech
funk
Rudy
claw
Hindus
Numbers
Bing|C0596170|DISO
lantern
##aurus
scattering
poisoned
##active
Andrei
algebraic
baseman
##ritz
Gregg
##cola
selections
##putation
lick
Laguna
##IX
Sumatra
Warning
turf
buyers
Burgess
Oldham
exploit
worm|C0018889|DISO
initiate
strapped
tuning
filters
haze
##е
##ledge
##ydro
##culture
amendments
Promotion
##union
Clair
##uria
petty
shutting
##eveloped
Phoebe
Zeke
conducts
grains
clashes
##latter
illegitimate
willingly
Deer
Lakers
Reference
chaplain
commitments
interrupt
salvation
Panther
Qualifying
Assessment
cancel
efficiently
attorneys
Dynamo
impress
accession
clinging
randomly
reviewing
Romero
Cathy
charting
clapped
rebranded
Azerbaijani
coma|C0009421|DISO
indicator
punches
##tons
Sami
monastic
prospects
Pastor
##rville
electrified
##CI
##utical
tumbled
Chef
muzzle
selecting
UP
Wheel
protocols
##tat
Extended
beautifully
nests
##stal
Andersen
##anu
##³
##rini
kneeling|C1260920|DISO
##reis
##xia
anatomy
dusty
Safe
turmoil
Bianca
##elo
analyze
##ر
##eran
podcast
Slovene
Locke
Rue|C0939812|CHEM
##retta
##uni
Person
Prophet
crooked
disagreed
Versailles
Sarajevo
Utrecht
##ogen
chewing|C0024888|PHYS
##ception
##iidae
Missile
attribute
majors
Arch
intellectuals
##andra
ideological
Cory
Salzburg
##fair
Lot
electromagnetic
Distribution
##oper
##pered
Russ
Terra
repeats
fluttered
Riga
##ific
##gt
cows
Hair|C0018494|ANAT
labelled
protects
Gale|C0751161|DISO
Personnel
Düsseldorf
Moran
rematch
##OE
Slow
forgiveness
##ssi
proudly
Macmillan
insist
undoubtedly
Québec
Violence
##yuan
##aine
mourning
linen
accidental
##iol
##arium
grossing
lattice
maneuver
##marine
prestige
petrol
gradient
invasive
militant
Galerie
widening
##aman
##quist
disagreement
##ales
creepy
remembers
buzz
##erial
Exempt
Dirk
mon
Addison
##inen
deposed
##agon
fifteenth
Hang
ornate
slab
##lades
Fountain
contractors
das|C0057671|CHEM
Warwickshire
1763
##rc
Carly
Essays
Indy
Ligue
greenhouse
slit|C0184904|PROC
##sea
chewed
wink|C0043190|PHYS
##azi
Playhouse
##kon
Gram
Ko
Samson
creators
revive
##rians
spawned
seminars
Craft
Tall
diverted
assistants
computational
enclosure
##acity
Coca|C0009170|CHEM
##eve
databases
Drop|C0991568|CHEM
##loading
##hage
Greco
Privy
entrances
pork|C2702371|CHEM
prospective
Memories|C0700327|DISO
robes
##market
transporting
##lik
Rudolph
Horton
visually
##uay
##nja
Centro
Tor|C0076836|CHEM
Howell
##rsey
admitting
postgraduate
herbs
##att
Chin|C0008114|ANAT
Rutherford
##bot
##etta
Seasons
explanations
##bery
Friedman
heap
##ryl
##sberg
jaws|C0022359|ANAT
##agh
Choi
Killing
Fanny
##suming
##hawk
hopeful
##aid
Monty
gum
remarkably
Secrets
disco
harp
advise
##avia
Marathi
##cycle
Truck
abbot
sincere
urine
##mology
masked
bathing|C0518460|DISO
##tun
Fellows
##TM
##gnetic
owl
##jon
hymn
##leton
208
hostility|C0020039|PHYS
##cée
baked
Bottom
##AB
shudder
##ater
##von
##hee
reorganization
Cycle
##phs
Lex|C0080188|CHEM
##style
##rms
Translation|C0597295|PHYS
##erick
##imeter
##ière
attested
Hillary
##DM
gal
wander
Salle
##laming
Perez
Pit|C0175697|DISO
##LP
USAF
contexts|C0449255|DISO
Disease|C0012634|DISO
blazing
aroused|C0043012|PHYS
razor
walled
Danielle
Mont
Funk
royalty
thee
203
donors
##erton
famously
processors
reassigned
welcoming
Goldberg
##quities
undisclosed
Orient
Patty
vaccine|C0042210|CHEM
refrigerator
Cypriot
consonant
##waters
176
sober
##lement
Racecourse
##uate
Luckily
Selection|C0036576|PHYS
conceptual
vines
Breaking
wa
lions
oversight|C1273870|ACTI
sheltered
Dancer
ponds
borrow
##BB
##pulsion
Daly
##eek
fertility|C0015895|PHYS
spontaneous
Worldwide
gasping|C0425449|DISO
##tino
169
ABS
Vickers
ambient
energetic
prisons
##eson
Stacy
##roach
GmbH
Afro
Marin
farmhouse
pinched|C0418416|DISO
##cursion
##sp
Sabine
##pire
181
nak
swelling|C0038999|DISO
humble
perfume
##balls
Rai
cannons
##taker
Married|C0555047|DISO
Maltese
canals
interceptions
hats
lever
slowing
##ppy
Nike
Silas
Scarborough
skirts
166
inauguration
Shuttle
alloy|C0002154|CHEM
beads|C0991566|CHEM
belts
Compton
Cause
battling
critique
surf|C0336932|ACTI
Dock
roommate
##ulet
invade
Garland
##slow
nutrition|C1442959|PHYS
persona
##zam
Wichita
acquaintance
coincided
##cate
Dracula
clamped
##gau
overhaul
##broken
##rrier
melodies
ventures
Paz
convex
Roots
##holding
Tribute
transgender|C0558141|DISO
##ò
chimney
##riad
Ajax
Thereafter
messed
nowadays
pH
##100
##alog
Pomerania
##yra
Rossi
glove
##TL
Races
##asily
tablets|C0039225|CHEM
Jase
##ttes
diner
##rns
Hu
Mohan
anytime
weighted|C1305866|PROC
remixes
Dove
cherry|C2722031|CHEM
imports
##urity
GA
##TT
##iated
##sford
Clarkson
evidently
rugged
Dust
siding
##ometer
acquitted
choral
##mite
infants
Domenico
gallons
Atkinson
gestures
slated
##xa
Archaeology
unwanted
##ibes
##duced
premise
Colby
Geelong
disqualified
##pf
##voking
simplicity
Walkover
Qaeda
Warden
##bourg
##ān
Invasion|C1269955|DISO
Babe
harness
183
##tated
maze
Burt
bedrooms
##nsley
Horizon
##oast
minimize
peeked
MLA|C0599973|DISO
Trains
tractor
nudged
##iform
Growth
Benton
separates
##about
##kari
buffer
anthropology
brigades
foil
##wu
Domain
licking
whore
##rage
##sham
Initial
Courthouse
Rutgers
dams
villains
supermarket
##brush
Brunei
Palermo
arises
Passenger
outreach
##gill
Labrador
McLaren
##uy
Lori
##fires
Heads|C0018670|ANAT
magistrate
¹⁄₂
Weapons
##wai
##roke
projecting
##ulates
bordering
McKenzie
Pavel
midway
Guangzhou
streamed
racer
##lished
eccentric
spectral
206
##mism
Wilde
Grange
preparatory
lent
##tam
starving
Gertrude
##cea
##ricted
Breakfast|C2698559|ACTI
Mira
blurted
derive
##lair
blunt
sob|C0013404|DISO
Cheltenham
Henrik
reinstated
intends
##istan
unite
##ector
playful
sparks
mapped
Cadet
luggage
prosperous
##ein
salon
##utes
Biological
##rland
Tyrone
buyer
##lose
amounted
Saw
smirked
Ronan
Reviews
Adele
trait
##proof
Bhutan
Ginger|C0939895|CHEM
##junct
digitally
stirring
##isted
coconut|C2722035|CHEM
Hamlet
Dinner
Scale
pledge
##RP
Wrong
Goal
Panel
therapeutic|C0087111|PROC
elevations
infectious|C0009450|DISO
priesthood
##inda
Guyana
diagnostic|C0430022|PROC
##mbre
Blackwell
sails
##arm
literal
periodically
gleaming
Robot
Rector
##abulous
##tres
Reaching
Romantic
CP
Wonderful
##tur
ornamental
##nges
traitor
##zilla
genetics
mentioning
##eim
resonance|C0231881|DISO
Areas
Shopping|C0150768|ACTI
##nard
Gail
Solid|C1378566|CHEM
##rito
##mara
Willem
Chip
Matches
Volkswagen
obstacle
Organ
invites
Coral
attain
##anus
##dates
Midway
shuffled
Cecilia
dessert
Gateway
Ch
Napoleonic
Petroleum|C0031264|CHEM
jets
goose|C2725897|CHEM
striped
bowls
vibration
Sims
nickel|C0028013|CHEM
Thirteen
problematic
intervene
##grading
##unds
Mum
semifinal
Radical
##izations
refurbished
##sation
##harine
Maximilian
cites
Advocate
Potomac
surged
preserves
Curry
angled
ordination
##pad
Cade
##DE
##sko
researched
torpedoes
Resident
wetlands
hay
applicants
depart
Bernstein
##pic
##ario
##rae
favourable
##wari
##р
metabolism|C0025519|PHYS
nobleman
Defaulted
calculate
ignition
Celebrity
Belize
sulfur|C0038774|CHEM
Flat
Sc
USB
flicker|C0085635|DISO
Hertfordshire
Sept
CFL
Pasadena
Saturdays
Titus
##nir
Canary
Computing
Isaiah
##mler
formidable
pulp|C0011399|ANAT
orchid
Called
Solutions
kilograms
steamer
##hil
Doncaster
successors
Stokes
Holstein
##sius
sperm|C0037868|ANAT
API|C0002191|CHEM
Rogue
instability|C1444783|DISO
Acoustic
##rag
159
undercover
Wouldn
##pra
##medical
Eliminated
honorable
##chel
denomination
abrupt
Buffy
blouse
fi
Regardless
Subsequent
##rdes
Lover
##tford
bacon
##emia
carving
##cripts
Massacre
Ramos
Latter
##ulp
ballroom
##gement
richest
bruises|C0009938|DISO
Rest|C0035253|ACTI
Wiley
##aster
explosions
##lastic
Edo
##LD
Mir
choking|C0008301|DISO
disgusted
faintly
Barracks
blasted
headlights
Tours
ensued
presentations
##cale
wrought
##oat
##coa
Quaker
##sdale
recipe
##gny
corpses
##liance
comfortably
##wat
Landscape
niche
catalyst
##leader
Securities
messy
##RL
Rodrigo
backdrop
##opping
treats
Emilio
Anand
bilateral
meadow
VC
socialism
##grad
clinics
##itating
##ppe
##ymphonic
seniors
Advisor
Armoured
Method
Alley
##orio
Sad|C0085159|DISO
fueled
raided
Axel
NH
rushes
Dixie
Otis
wrecked
##22
capitalism
café
##bbe
##pion
##forcing
Aubrey
Lublin
Whenever
Sears
Scheme
##lana
Meadows
treatise
##RI
##ustic
sacrifices
sustainability
Biography
mystical
Wanted|C1444647|DISO
multiplayer
Applications
disliked
##tisfied
impaired
empirical
forgetting
Fairfield
Sunni
blurred
Growing
Avalon
coil
Camera
Skin|C1123023|ANAT
bruised|C0009938|DISO
terminals
##fted
##roving
Commando
##hya
##sper
reservations
needles
dangling
##rsch
##rsten
##spect
##mbs
yoga
regretted
Bliss
Orion
Rufus
glucose|C0017725|CHEM
Olsen
autobiographical
##dened
222
humidity
Shan
##ifiable
supper
##rou
flare
##MO
campaigning
descend
socio
declares
Mounted|C0449878|DISO
Gracie
Arte
endurance|C0518031|DISO
##ety
Copper|C0009968|CHEM
costa|C0035561|ANAT
airplay
##MB
Proceedings
dislike
grimaced
occupants
births|C0005615|PHYS
glacial
oblivious
cans
installment
muddy
##ł
captains
pneumonia|C0032285|DISO
Quiet
Sloan
Excuse
##nine
Geography
gymnastics
multimedia
drains
Anthology
Gear
cylindrical
Fry
undertaking
##pler
##tility
Nan
##recht
Dub
philosophers
piss
Atari
##pha
Galicia
México
##nking
Continuing
bump
graveyard
persisted
Shrine
##erapy
defects
Advance
Bomber
##oil
##ffling
cheerful
##lix
scrub
##eto
awkwardly
collaborator
fencing
##alo
prophet
Croix
coughed
##lication
roadway
slaughter
elephants
##erated
Simpsons
vulnerability
ivory
Birth|C0005615|PHYS
lizard
scarce
cylinders
fortunes
##NL
Hate|C0018616|PHYS
Priory
##lai
McBride
##copy
Lenny
liaison
Triangle
coronation
sampled|C0441621|PROC
savage
amidst
Grady
whatsoever
instinctively
Reconstruction|C0524865|PROC
insides
seizure|C0036572|DISO
Drawing
##rlin
Antioch
Gao
Díaz
1760
Sparks
##tien
##bidae
rehearsal
##bbs
botanical
##hers
compensate
wholesale
Seville
shareholder
prediction
astronomical
Reddy
hardest
circling|C0231706|DISO
whereabouts
termination
Rep
Assistance
Dramatic
Herb
##ghter
climbs|C0561942|DISO
188
Poole
301
##pable
wit
##istice
Walters
relying
Jakob
##redo
proceeding
Langley
affiliates
ou
##allo
##holm
Samsung
##ishi
Missing
Xi
vertices
Claus
foam|C0991510|CHEM
restless|C3887611|DISO
##uating
##sso
##ttering
Philips
delta
bombed
Catalogue
coaster
Ling
Willard
satire
410
Composition
Net
Orioles
##ldon
fins
Palatinate
Woodward
tease
tilt
brightness
##70
##bbling
##loss
##dhi
##uilt
Whoever
##yers
hitter
Elton
Extension
ace|C0201888|PROC
Affair
restructuring
##loping
Paterson
hi
##rya
spouse
Shay
Himself
piles|C0019112|DISO
preaching
##gical
bikes
Brave
expulsion|C1293107|PROC
Mirza
stride
Trees
commemorated
famine
masonry
Selena
Watt
Banking
Rancho
Stockton
dip|C0238378|DISO
tattoos|C1366940|DISO
Vlad
acquainted
Flyers
ruthless
fourteenth
illustrate
##akes
EPA|C0000545|CHEM
##rows
##uiz
bumped
Designed
Leaders
mastered
Manfred
swirled
McCain
##rout
Artemis
rabbi
flinched
upgrades
penetrate
shipyard
transforming
caretaker
##eiro
Maureen
tightening
##founded
RAM
##icular
##mper
##rung
Fifteen
exploited
consistency
interstate
##ynn
Bridget
contamination
Mistress
##rup
coating
##FP
##jective
Libyan
211
Gemma
dependence|C0439857|DISO
shrubs
##ggled
Germain
retaliation
traction|C0040597|PROC
##PP
Dangerous
terminology
psychiatrist
##garten
hurdles
Natal
wasting
Weir
revolves
stripe
##reased
preferences
##entation
##lde
##áil
##otherapy
Flame
##ologies
viruses
Label
Pandora
veil
##ogical
Coliseum
Cottage
creeping
Jong
lectured
##çaise
shoreline
##fference
##hra
Shade
Clock
Faye
bilingual
Humboldt
Operating
##fter
##was
algae
towed
amphibious
Parma
impacted
smacked
Piedmont
Monsters|C0026505|DISO
##omb
Moor
##lberg
sinister
Postal
178
Drummond
Sign|C0311392|DISO
textbooks
hazardous
Brass|C0054027|CHEM
Rosemary|C0939869|CHEM
Pick
Sit|C0277814|DISO
Architect
transverse
Centennial
confess
polling
##aia
Julien
##mand
consolidation|C0521530|DISO
Ethel
##ulse
severity
Yorker
choreographer
1840s
##ltry
softer
versa
##geny
##quila
##jō
Caledonia
Friendship
Visa|C1318881|DISO
rogue
##zzle
bait
feather|C0015731|ANAT
incidence
Foods
Ships
##uto
##stead
arousal
##rote
Hazel
##bolic
Swing
##ej
##cule
##jana
##metry
##uity
Valuable
##ₙ
Shropshire
##nect
365
Ones
realise
Café
Albuquerque
##grown
##stadt
209
##ᵢ
prefers
withstand
Lillian
MacArthur
Hara
##fulness
domination
##VO
##school
Freddy
ethnicity
##while
adorned
hormone|C0019932|CHEM
Calder
Domestic
Freud
Shields
##phus
##rgan
BP
Segunda
Mustang
##GI
Bonn
patiently
remarried|C0425380|DISO
##umbria
Crete
Elephant
Nuremberg
tolerate
Tyson
##evich
Programming
##lander
Bethlehem
segregation
Constituency
quarterly
blushed
photographers
Sheldon
porcelain|C0011392|CHEM
Blanche
goddamn
lively
##fused
bumps
##eli
curated
coherent
provoked
##vet
Madeleine
##isco
rainy
Bethel
accusation
ponytail
gag|C0017973|CHEM
##lington
quicker
scroll
##vate
Bow
Gender
Ira
crashes
ACT|C0427611|PROC
Maintenance
##aton
##ieu
bitterly
strains|C0080194|DISO
rattled
vectors
##arina
##ishly
173
parole
##nx
amusing
Gonzalez
##erative
Caucus
sensual
Penelope
coefficient
Mateo
##mani
proposition
Duty
lacrosse|C0022909|ACTI
proportions
Plato
profiles
Botswana
Brandt
reins
mandolin
encompassing
##gens
Kahn
prop
summon
##MR
##yrian
##zaki
Falling|C0085639|DISO
conditional
thy
##bao
##ych
radioactive
##nics
Newspaper
##people
##nded
Gaming
sunny
##look
Sherwood
crafted
NJ
awoke
187
timeline
giants|C0017547|DISO
possessing
##ycle
Cheryl
ng
Ruiz
polymer|C0032521|CHEM
potassium|C0032821|CHEM
Ramsay
relocation
##leen
Sociology
##bana
Franciscan
propulsion
denote
##erjee
registers
headline
Tests|C0022885|PROC
emerges
Articles
Mint|C1576800|CHEM
livery
breakup
kits
Rap
Browning
Bunny
##mington
##watch
Anastasia
Zachary
arranging
biographical
Erica
Nippon
##membrance
Carmel
##sport
##xes
Paddy
##holes
Issues
Spears
compliment
##stro
##graphs
Castillo
##MU
##space
Corporal
##nent
174
Gentlemen
##ilize
##vage
convinces
Carmine|C0007250|CHEM
Crash
##hashi
Files
Doctors
brownish
sweating|C0038990|DISO
goats
##conductor
rendition
##bt
NL
##spiration
generates
##cans
obsession|C0233697|DISO
##noy
Danger
Diaz
heats
Realm
priorities
##phon
1300
initiation|C0589507|PHYS
pagan
bursts
archipelago
chloride|C0596019|CHEM
Screenplay
Hewitt
Khmer
bang
judgement|C0022423|PHYS
negotiating
##ait
Mabel
densely
Boulder
knob
430
Alfredo
##kt
pitches
##ées
##ان
Macdonald
##llum
imply
##mot
Smile|C0517048|DISO
spherical
##tura
Derrick
Kelley
Nico
cortex
launches
differed
parallels
Navigation
##child
##rming
canoe
forestry
reinforce
##mote
confirming
tasting|C0039336|PHYS
scaled
##resh
##eting
Understanding|C0162340|PHYS
prevailing
Pearce
CW
earnest
Gaius
asserts
denoted
landmarks
Chargers
warns
##flies
Judges
jagged
##dain
tails
Historian
Millie
##sler
221
##uard
absurd
Dion
##ially
makeshift
Specifically
ignorance
Eat|C0013470|PHYS
##ieri
comparisons
forensic
186
Giro
skeptical
disciplinary
battleship
##45
Libby
520
Odyssey
ledge
##post
Eternal
Missionary
deficiency
settler
wonders
##gai
raging
##cis
Romney
Ulrich
annexation
boxers
sect
204
ARIA
dei
Hitchcock
te
Varsity
##fic
CC
lending
##nial
##tag
##rdy
##obe
Defensive
##dson
##pore
stellar
Lam|C0751674|DISO
Trials
contention
Sung
##uminous
Poe|C0032483|CHEM
superiority
##plicate
325
bitten
conspicuous
##olly
Lila
Pub
Petit
distorted
ISIL
distinctly
##family
Cowboy
mutant
##cats
##week
Changes
Sinatra
epithet
neglect|C0521874|DISO
Innocent
gamma
thrill|C0232269|DISO
reggae
##adia
##ational
##due
landlord
##leaf
visibly
##ì
Darlington
Gomez
##iting
scarf
##lade
Hinduism
Fever|C0015967|DISO
scouts
##roi
convened
##oki
184
Lao
boycott
unemployed|C0041674|DISO
##lore
##ß
##hammer
Curran
disciples
odor
##ygiene
Lighthouse
Played|C0600138|DISO
whales
discretion
Yves
##ceived
pauses
coincide
##nji
dizzy|C0012833|DISO
##scopic
routed
Guardians
Kellan
carnival
nasal|C0028429|ANAT
224
##awed
Mitsubishi
640
Cast
silky
Projects
joked
Huddersfield
Rothschild
zu
##olar
Divisions
mildly
##eni
##lge
Appalachian
Sahara
pinch|C0418416|DISO
##roon
wardrobe
##dham
##etal
Bubba
##lini
##rumbling
Communities
Poznań
unification
Beau
Kris
SV
Rowing
Minh
reconciliation
##saki
##sor
taped
##reck
certificates
gubernatorial
rainbow
##uing
litter
##lique
##oted
Butterfly
benefited
Images
induce
Balkans
Velvet
##90
##xon
Bowman
##breaker
penis|C0030851|ANAT
##nitz
##oint
##otive
crust|C0205204|DISO
##pps
organizers
Outdoor
nominees
##rika
TX
##ucks
Protestants
##imation
appetite|C0003618|PHYS
Baja
awaited
##points
windshield
##igh
##zled
Brody
Buster
stylized
Bryce
##sz
Dollar
vest
mold
ounce
ok
receivers
##uza
Purdue
Harrington
Hodges
captures
##ggio
Reservation
##ssin
##tman
cosmic
straightforward
flipping
remixed
##athed
Gómez
Lim|C0449205|ANAT
motorcycles
economies
owning
Dani
##rosis
myths
sire
kindly
1768
Bean|C2722017|CHEM
graphs
##mee
##RO
##geon
puppy
Stephenson
notified
##jer
Watching
##rama
Sino
urgency
Islanders
##mash
Plata
fumble
##chev
##stance
##rack
##she
facilitated
swings
akin
enduring
payload
##phine
Deputies
murals
##tooth
610
Jays
eyeing
##quito
transparency
##cote
Timor
negatively
##isan
battled
##fected
thankful
Rage
hospitality
incorrectly
207
entrepreneurs
##cula
##wley
hedge
##cratic
Corpus|C0227813|ANAT
Odessa
Whereas
##ln
fetch
happier
Amherst
bullying|C0424318|DISO
graceful
Height
Bartholomew
willingness
qualifier
191
Syed
Wesleyan
Layla
##rrence
Webber
##hum
Rat
##cket
##herence
Monterey
contaminated
Beside
Mustafa
Nana
213
##pruce
Reason
##spense
spike
##gé
AU
disciple
charcoal|C0007955|CHEM
##lean
formulated
Diesel
Mariners
accreditation
glossy
1800s
##ih
Mainz
unison
Marianne
shear
overseeing
vernacular
bowled
##lett
unpopular
##ckoned
##monia
Gaston
##TI
##oters
Cups
##bones
##ports
Museo
minors
1773
Dickens
##EL
##NBC
Presents
ambitions
axes
Río
Yukon
bedside
Ribbon
Units
faults
conceal
##lani
prevailed
214
Goodwin
Jaguar
crumpled
Cullen
Wireless
ceded
remotely
Bin
mocking|C0562577|DISO
straps
ceramics
##avi
##uding
##ader
Taft
twenties
##aked
Problem|C0033213|DISO
quasi
Lamar
##ntes
##avan
Barr
##eral
hooks
sa
##ône
194
##ross
Nero
Caine
trance
Homeland
benches
Guthrie
dismiss
##lex
César
foliage
##oot
##alty
Assyrian
Ahead
Murdoch
dictatorship
wraps
##ntal
Corridor
Mackay
respectable
jewels
understands|C0162340|PHYS
##pathic
Bryn
##tep
ON
capsule|C0006935|CHEM
intrigued
Sleeping
communists
##chayat
##current
##vez
doubling
booklet
##uche
Creed
##NU
spies
##sef
adjusting
197
Imam
heaved
Tanya
canonical
restraint
senators
stainless
##gnate
Matter
cache
restrained
conflicting
stung
##ool
Sustainable
antiquity
193
heavens
inclusive
##ador
fluent
303
911
archaeologist
superseded
##plex
Tammy
inspire
##passing
##lub
Lama
Mixing
##activated
##yote
parlor
tactic
198
Stefano
prostitute
recycling
sorted
banana
Stacey
Musée
aristocratic
cough|C0010200|DISO
##rting
authorised
gangs
runoff
thoughtfully
##nish
Fisheries
Provence
detector
hum
##zhen
pill|C0994475|CHEM
##árez
Map|C0428886|DISO
Leaves
Peabody
skater
vent
##color
390
cerebral|C0228174|ANAT
hostages
mare
Jurassic
swell|C0038999|DISO
##isans
Knoxville
Naked|C0424470|DISO
Malaya
scowl
Cobra
##anga
Sexual
##dron
##iae
196
##drick
Ravens
Blaine
##throp
Ismail
symmetric|C0332516|DISO
##lossom
Leicestershire
Sylvester
glazed
##tended
Radar
fused
Families
Blacks
Sale
Zion
foothills
microwave
slain
Collingwood
##pants
##dling
killers
routinely
Janice
hearings
##chanted
##ltration
continents
##iving
##yster
##shot
##yna
injected
Guillaume
##ibi
kinda
Confederacy
Barnett
disasters
incapable
##grating
rhythms
betting
draining
##hak
Callie
Glover
##iliated
Sherlock
hearted
punching
Wolverhampton
Leaf
Pi
builders
furnished
knighted
Photo
##zle
Touring
fumbled
pads
##ий
Bartlett
Gunner
eerie
Marius
Bonus
pots
##hino
##pta
Bray
Frey
Ortiz
stalls
belongings
Subway
fascination
metaphor
Bat|C0006298|ANAT
Boer
Colchester
sway
##gro
rhetoric
##dheim
Fool
PMID
admire
##hsil
Strand
TNA
##roth
Nottinghamshire
##mat
##yler
Oxfordshire
##nacle
##roner
BS
##nces
stimulus
transports
Sabbath
##postle
Richter
4000
##grim
##shima
##lette
deteriorated
analogous
##ratic
UHF
energies
inspiring
Yiddish
Activities
##quential
##boe
Melville
##ilton
Judd
consonants
labs|C0587081|DISO
smuggling
##fari
avid
##uc
truce
undead
##raith
Mostly
bracelet
Connection
Hussain
awhile
##UC
##vention
liable
genetically
##phic
Important
Wildcats
daddy
transmit
##cas
conserved
Yesterday
##lite
Nicky
Guys
Wilder
Lay
skinned|C1123023|ANAT
Communists
Garfield
Nearby
organizer
Loss
crafts
walkway
Chocolate|C2728194|CHEM
Sundance
Synod
##enham
modify
swayed
Surface
analysts
brackets
drone
parachute
smelling|C0037361|PHYS
Andrés
filthy
frogs
vertically
##OK
localities
marries
AHL|C0014077|DISO
35th
##pian
Palazzo
cube
dismay
relocate
##на
Hear
##digo
##oxide
prefecture
converts
hangar
##oya
##ucking
Spectrum
deepened
spoiled
Keeping
##phobic
Verona
outrage
Improvement
##UI
masterpiece
slung
Calling
chant
Haute
mediated
manipulated
affirmed
##hesis
Hangul
skies
##llan
Worcestershire
##kos
mosaic
##bage
##wned
Putnam
folder
##LM
guts
noteworthy
##rada
AJ
sculpted
##iselle
##rang
recognizable
##pent
dolls
lobbying
impatiently
Se
staple
Serb
tandem
Hiroshima
thieves
##ynx
faculties
Norte
##alle
##trusion
chords
##ylon
Gareth
##lops
##escu
FIA
Levin
auspices
groin|C0018246|ANAT
Hui
nun
Listed
Honourable
Larsen
rigorous
##erer
Tonga
##pment
##rave
##track
##aa
##enary
540
clone|C0009013|ANAT
sediment
esteem
sighted
cruelty
##boa
inverse
violating
Amtrak
Status
amalgamated
vertex|C0230003|ANAT
AR
harmless
Amir
mounts
Coronation
counseling
Audi
CO₂
splits
##eyer
Humans
Salmon|C2702377|CHEM
##have
##rado
##čić
216
takeoff
classmates
psychedelic|C0018533|CHEM
##gni
Gypsy
231
Anger|C0002957|PHYS
GAA|C0017921|DISO
ME
##nist
##tals
Lissa
Odd
baptized
Fiat
fringe
##hren
179
elevators
perspectives
##TF
##ngle
Question
frontal
950
thicker
Molecular
##nological
Sixteen
Baton
Hearing|C1455844|DISO
commemorative
dorm
Architectural
purity
##erse
risky
Georgie
relaxing
##ugs
downed
##rar
Slim
##phy
IUCN
##thorpe
Parkinson
217
Marley
Shipping
sweaty
Jesuits
Sindh
Janata
implying
Armenians
intercept
Ankara
commissioners
ascended
sniper
Grass
Walls
salvage|C0442967|PROC
Dewey
generalized
learnt
PT
##fighter
##tech
DR
##itrus
##zza
mercenaries
slots
##burst
##finger
##nsky
Princes
Rhodesia
##munication
##strom
Fremantle
homework
ins
##Os
##hao
##uffed
Thorpe
Xiao
exquisite
firstly
liberated
technician
Oilers
Phyllis
herb
sharks
MBE
##stock
Product
banjo
##morandum
##than
Visitors
unavailable
unpublished
oxidation|C0030011|PHYS
Vogue
##copic
##etics
Yates
##ppard
Leiden
Trading
cottages
Principles
##Millan
##wife
##hiva
Vicar
nouns
strolled
##eorological
##eton
##science
precedent
Armand
Guido
rewards
##ilis
##tise
clipped
chick
##endra
averages
tentatively
1830s
##vos
Certainly
305
Société
Commandant
##crats
##dified
##nka
marsh
angered
ventilation
Hutton
Ritchie
##having
Eclipse
flick
motionless
Amor
Fest
Loire
lays
##icit
##sband
Guggenheim
Luck
disrupted
##ncia
Disco
##vigator
criticisms
grins
##lons
##vial
##ody
salute
Coaches
junk|C0011892|CHEM
saxophonist
##eology
Uprising
Diet
##marks
chronicles
robbed
##iet
##ahi
Bohemian
magician
wavelength
Kenyan
augmented
fashionable
##ogies
Luce
F1
Monmouth
##jos
##loop
enjoyment|C0018592|PHYS
exemption
Centers
##visor
Soundtrack
blinding
practitioner
solidarity
sacrificed
##oso
##cture
##riated
blended
Abd|C0000726|ANAT
Copyright
##nob
34th
##reak
Claudio
hectare
rotor
testify
##ends
##iably
##sume
landowner
##cess
##ckman
Eduard
Silesian
backseat
mutually
##abe
Mallory
bounds
Collective
Poet
Winkler
pertaining
scraped
Phelps
crane
flickering|C0085635|DISO
Proto
bubbles
popularized
removes
##86
Cadillac
Warfare
audible
rites
shivering|C0036973|DISO
##sist
##nst
##biotic
Mon
fascist
Bali
Kathryn
ambiguous
furiously
morale
patio
Sang
inconsistent
topology
Greens
monkeys
Köppen
189
Toy
vow
##ías
bombings
##culus
improvised
lodged
subsidiaries
garment
startling
practised
Hume
Thorn
categorized
Till
Eileen
wedge
##64
Federico
patriotic
unlock
##oshi
badminton
Compared
Vilnius
##KE
Crimean
Kemp
decks
spaced
resolutions
sighs|C0425481|DISO
##mind
Imagine
Cartoon
huddled
policemen
forwards
##rouch
equals
##nter
inspected
Charley
MG
##rte
pamphlet
Arturo
dans
scarcely
##ulton
##rvin
parental
unconstitutional
watts
Susannah
Dare
##sitive
Rowland
Valle
invalid|C0231173|DISO
##ué
Detachment
acronym
Yokohama
verified
##lsson
groove
Liza
clarified
compromised
265
##rgon
##orf
hesitant
Fruit
Application
Mathias
icons
##cell
Qin
interventions
##uron
punt
remnant
##rien
Ames
manifold
spines|C0037949|ANAT
floral
##zable
comrades
Fallen
orbits|C0029180|ANAT
Annals
hobby
Auditorium
implicated
researching
Pueblo
Ta
terminate
##pella
Rings
approximation
fuzzy
##ús
thriving
##ket
Conor
alarmed
etched
Cary
##rdon
Ally
##rington
Pay
mint|C1576800|CHEM
##hasa
##unity
##dman
##itate
Oceania
furrowed
trams
##aq
Wentworth
ventured
choreography
prototypes
Patel
mouthed
trenches
##licing
##yya
Lies
deception
##erve
##vations
Bertrand
earthquakes|C0417614|DISO
##tography
Southwestern
##aja
token
Gupta
##yō
Beckett
initials
ironic
Tsar
subdued
shootout
sobbing
liar
Scandinavia
Souls
ch
therapist
trader
Regulation
Kali
busiest
##pation
32nd
Telephone
Vargas
##moky
##nose
##uge
Favorite
abducted
bonding
219
255
correction
mat
drown|C0013142|DISO
fl
unbeaten
Pocket
Summers
Quite
rods|C0206427|ANAT
Percussion|C0030987|PROC
##ndy
buzzing
cadet
Wilkes
attire
directory
utilities
naive
populous
Hendrix
##actor
disadvantage
1400
Landon
Underworld
##ense
Occasionally
mercury|C0025424|CHEM
Davey
Morley
spa
wrestled
##vender
eclipse
Sienna
supplemented
thou
Stream
liturgical
##gall
##berries
##piration
1769
Bucks
abandoning
##jutant
##nac
232
venom|C0042479|CHEM
##31
Roche
dotted
Currie
Córdoba
Milo
Sharif
divides
justification
prejudice
fortunate
##vide
##ābād
Rowe
inflammatory
##eld
avenue
Sources|C0449416|DISO
##rimal
Messenger
Blanco
advocating
formulation
##pute
emphasizes
nut
Armored
##ented
nutrients
##tment
insistence
Martins
landowners
##RB
comparatively
headlines
snaps|C1177045|CHEM
##qing
Celebration
##mad
republican
##NE
Trace
##500
1771
proclamation
NRL
Rubin
Buzz
Weimar
##AG
199
posthumous
##ental
##deacon
Distance
intensely
overheard
Arcade
diagonal
hazard
Giving
weekdays
##ù
Verdi
actresses
##hare
Pulling|C0580846|DISO
##erries
##pores
catering
shortest
##ctors
##cure
##restle
##reta
##runch
##brecht
##uddin
Moments
senate
Feng
Prescott
##thest
218
divisional
Bertie
sparse
surrounds
coupling
gravitational
werewolves
##lax
Rankings
##mated
##tries
Shia
##mart
##23
##vocative
interfaces
morphology|C0700329|DISO
newscast
##bide
inputs
solicitor
Olaf
cabinets
puzzles
##tains
Unified
##firmed
WA
solemn
##opy
Tito
Jaenelle
Neolithic
horseback
##ires
pharmacy
prevalence
##lint
Swami
##bush
##tudes
Philipp
mythical
divers
Scouting
aperture
progressively
##bay
##nio
bounce
Floor
##elf
Lucan
adulthood
helm
Bluff
Passage
Salvation
lemon|C2741542|CHEM
napkin
scheduling
##gets
Elements|C0013879|CHEM
Mina
Novak
stalled
##llister
Infrastructure
##nky
##tania
##uished
Katz
Norma
sucks|C0677049|DISO
trusting
1765
boilers
Accordingly
##hered
223
Crowley
##fight
##ulo
Henrietta
##hani
pounder
surprises
##chor
##glia
Dukes
##cracy
##zier
##fs
Patriot
silicon|C0037107|CHEM
##VP
simulcast
telegraph
Mysore
cardboard
Len|C0152353|ANAT
##QL
Auguste
accordion
analytical
specify
ineffective
hunched
abnormal
Transylvania
##dn
##tending
Emilia
glittering
Maddy
##wana
1762
External
Lecture
endorsement
Hernández
Anaheim
Ware
offences
##phorus
Plantation
popping
Bonaparte
disgusting
neared
##notes
Identity|C0424215|PHYS
heroin|C0011892|CHEM
nicely
##raverse
apron
congestion|C0700148|DISO
##PR
padded
##fts
invaders
##came
freshly
Halle
endowed
fracture|C0016658|DISO
ROM|C1562926|PROC
##max
sediments
diffusion
dryly
##tara
Tam
Draw
Spin
Talon
Anthropology
##lify
nausea|C0027497|DISO
##shirt
insert
Fresno
capitalist
indefinitely
apples
Gift
scooped
60s
Cooperative
mistakenly
##lover
murmur|C0018808|DISO
##iger
Equipment
abusive
orphanage
##9th
##lterweight
##unda
Baird
ant
saloon
33rd
Chesapeake
##chair
##sound
##tend
chaotic
pornography
brace
##aret
heiress
SSR
resentment
Arbor
headmaster
##uren
unlimited
##with
##jn
Bram
Ely
Pokémon
pivotal
##guous
Database
Marta
Shine
stumbling|C3536730|DISO
##ovsky
##skin
Henley
Polk
functioned
##layer
##pas
##udd
##MX
blackness
cadets
feral
Damian
##actions
2D
##yla
Apocalypse
##aic
inactivated
##china
##kovic
##bres
destroys
nap
Macy
sums
Madhya
Wisdom
rejects
##amel
60th
Cho
bandwidth
##sons
##obbing
##orama
Mutual
shafts
##estone
##rsen
accord
replaces
waterfront
##gonal
##rida
convictions
##ays
calmed
suppliers
Cummings
GMA
fearful|C0015726|PHYS
Scientist
Sinai
examines
experimented
Netflix
Enforcement
Scarlett
##lasia
Healthcare
##onte
Dude
inverted
##36
##regation
##lidae
Munro
##angay
Airbus
overlapping|C0185027|PROC
Drivers
lawsuits
bodily
##udder
Wanda
Effects
Fathers
##finery
##islav
Ridley
observatory
pod
##utrition
Electricity
landslide
##mable
##zoic
##imator
##uration
Estates
sleepy|C0013144|DISO
Nickelodeon
steaming|C0038225|CHEM
irony
schedules
snack
spikes
Hmm|C0019453|CHEM
##nesia
##bella
##hibit
Greenville
plucked
Harald
##ono
Gamma
infringement
roaring|C0234786|DISO
deposition
##pol
##orum
660
seminal
passports
engagements
Akbar
rotated
##bina
##gart
Hartley
##lown
##truct
uttered
traumatic
Dex|C0011816|CHEM
##ôme
Holloway
MV
apartheid
##nee
Counter
Colton
OR
245
Spaniards
Regency
Schedule
scratching
squads
verify
##alk
keyboardist
rotten
Forestry
aids|C0001175|DISO
commemorating
##yed
##érie
Sting|C0038340|DISO
##elly
Dai
##fers
##berley
##ducted
Melvin
cannabis
glider
##enbach
##rban
Costello
Skating|C0037247|ACTI
cartoonist
AN
audit
##pectator
distributing
226
312
interpreter
header
Alternatively
##ases
smug
##kumar
cabins
remastered
Connolly
Kelsey
LED
tentative
Check
Sichuan
shaved|C0518505|DISO
##42
Gerhard
Harvest
inward
##rque
Hopefully
hem|C0019080|DISO
##34
Typical
binds
wrath
Woodstock
forcibly
Fergus
##charged
##tured
prepares
amenities
penetration
##ghan
coarse
##oned
enthusiasts
##av
##twined
fielded
##cky
Kiel
##obia
470
beers
tremble|C0234369|DISO
youths
attendees
##cademies
##sex
Macon
communism
dir
##abi
Lennox
Wen|C0086809|DISO
differentiate
jewel
##SO
activate
assert
laden
unto
Gillespie
Guillermo
accumulation
##GM
NGO
Rosenberg
calculating
drastically
##omorphic
peeled
Liège
insurgents
outdoors
##enia
Aspen
Sep
awakened
##eye
Consul
Maiden
insanity
##brian
furnace
Colours
distributions
longitudinal
syllables
##scent
Martian
accountant
Atkins
husbands
sewage
zur
collaborate
highlighting
##rites
##PI
colonization
nearer
##XT
dunes
positioning|C0150305|PROC
Ku
multitude
luxurious
Volvo
linguistics
plotting
squared
##inder
outstretched
##uds
Fuji
ji
##feit
##ahu
##loat
##gado
##luster
##oku
América
##iza
Residents
vine
Pieces
DD
Vampires
##ová
smoked
harshly
spreads
##turn
##zhi
betray
electors
##settled
Considering
exploits
stamped
Dusty
enraged
Nairobi
##38
intervened
##luck
orchestras
##lda
Hereford
Jarvis
calf|C0230445|ANAT
##itzer
##CH
salesman
Lovers
cigar
Angelica
doomed
heroine
##tible
Sanford
offenders
##ulously
articulated
##oam
Emanuel
Gardiner
Edna
Shu
gigantic
##stable
Tallinn
coasts
Maker
ale
stalking
##oga
##smus
lucrative
southbound
##changing
Reg
##lants
Schleswig
discount
grouping
physiological
##OH
##sun
Galen
assurance
reconcile|C1960278|CHEM
rib|C0035561|ANAT
scarlet
Thatcher
anarchist
##oom
Turnpike
##ceding
cocktail
Sweeney|C3662000|DISO
Allegheny
concessions
oppression|C0522171|DISO
reassuring
##poli
##ticus
##TR
##VI
##uca
##zione
directional
strikeouts
Beneath
Couldn
Kabul
##national
hydroelectric
##jit
Desire
##riot
enhancing
northbound
##PO
Ok
Routledge
volatile
Bernardo
Python
333
ample
chestnut
automobiles
##innamon
##care
##hering
BWF
salaries
Turbo
acquisitions
##stituting
strengths
pilgrims
Ponce
Pig
Actors
Beard|C0221982|ANAT
sanitation
##RD
##mett
Telecommunications
worms|C0018889|DISO
##idas
Juno
Larson
Ventura
Northeastern
weighs
Houghton
collaborating
lottery
##rano
Wonderland
gigs
##lmer
##zano
##edd
##nife
mixtape
predominant
tripped
##ruly
Alexei
investing
Belgarath
Brasil
hiss
##crat
##xham
Côte
560
kilometer
##cological
analyzing
##As
engined
listener
##cakes
negotiation
##hisky
Santana
##lemma
IAAF
Seneca
skeletal|C0037253|ANAT
Covenant
Steiner
##lev
##uen
Neptune
retention
##upon
Closing
Czechoslovak
chalk|C0205687|CHEM
Navarre
NZ
##IG
##hop
##oly
##quatorial
##sad
Brewery
Conflict
Them
renew
turrets
disagree
Petra
Slave
##reole
adjustment
##dela
##regard
##sner
framing
stature|C0424639|DISO
##rca
##sies
##46
##mata
Logic
inadvertently
naturalist
spheres
towering
heightened
Dodd
rink
##fle
Keyboards
bulb|C0025148|ANAT
diver
ul
##tsk
Exodus|C3663648|CHEM
Deacon
España
Canadiens
oblique
thud
reigned
rug
Whitman
Dash
##iens
Haifa
pets
##arland
manually
dart
##bial
Sven
textiles
subgroup
Napier
graffiti
revolver
humming
Babu
protector
typed
Provinces
Sparta
Wills|C0042950|PHYS
subjective
##rella
temptation
##liest
FL
Sadie
manifest
Guangdong
Transfer
entertain
eve
recipes
##33
Benedictine
retailer
##dence
establishes
##cluded
##rked
Ursula
##ltz
##lars
##rena
qualifiers
##curement
colt
depictions
##oit
Spiritual
differentiation
staffed
transitional
##lew
1761
fatalities
##oan
Bayern
Northamptonshire
Weeks
##CU
Fife
capacities
hoarse|C0019825|DISO
##latt
##ة
evidenced
##HD
##ographer
assessing
evolve
hints
42nd
streaked
##lve
Yahoo
##estive
##rned
##zas
baggage
Elected
secrecy
##champ
Character
Pen
Decca
cape|C0671970|CHEM
Bernardino
vapor
Dolly
counselor
##isers
Benin
##khar
##CR
notch
##thus
##racy
bounty
lend
grassland
##chtenstein
##dating
pseudo|C0722890|CHEM
golfer
simplest
##ceive
Lucivar
Triumph|C3643615|CHEM
dinosaur
dinosaurs
##šić
Seahawks
##nco
resorts
reelected
1766
reproduce
universally
##OA
ER
tendencies
Consolidated
Massey
Tasmanian
reckless
##icz
##ricks
1755
questionable
Audience
##lates
preseason
Quran
trivial
Haitian
Freeway
dialed
Appointed
Heard
ecosystems
##bula
hormones|C0019932|CHEM
Carbon|C0007009|CHEM
Rd
##arney
##working
Christoph
presiding
pu
##athy
Morrow
Dar|C0022595|DISO
ensures
posing
remedy
EA
disclosed
##hui
##rten
rumours
surveying
##ficiency
Aziz
Jewel
Plays|C0600138|DISO
##smatic
Bernhard
Christi
##eanut
##friend
jailed
##dr
govern
neighbour
butler
Acheron
murdering
oils|C0028908|CHEM
mac|C0009545|CHEM
Editorial
detectives
bolts
##ulon
Guitars
malaria|C0024530|DISO
36th
Pembroke
Opened
##hium
harmonic
serum
##sio
Franks
fingernails|C0222001|ANAT
##gli
culturally
evolving
scalp|C0036270|ANAT
VP
deploy
uploaded
mater
##evo
Jammu
Spa
##icker
flirting
##cursions
Heidi
Majority
sprawled
##alytic
Zheng
bunker
##lena
ST
##tile
Jiang
ceilings
##ently
##ols
Recovery
dire
##good
Manson
Honestly
Montréal
1764
227
quota
Lakshmi
incentive
Accounting
##cilla
Eureka
Reaper
buzzed
##uh
courtroom
dub
##mberg
KC
Gong
Theodor
Académie
NPR
criticizing
protesting
##pired
##yric
abuses
fisheries
##minated
1767
yd
Gemini
Subcommittee
##fuse
Duff
Wasn
Wight
cleaner
##tite
planetary
Survivor
Zionist
mounds
##rary
landfall
disruption
yielding
##yana
bids
unidentified
Garry
Ellison
Elmer
Fishing
Hayward
demos
modelling
##anche
##stick
caressed
entertained
##hesion
piers
Crimea
##mass
WHO
boulder
trunks
1640
Biennale
Palestinians
Pursuit
##udes
Dora
contender
##dridge
Nanjing
##ezer
##former
##ibel
Whole
proliferation|C0334094|DISO
##tide
##weiler
fuels
predictions
##ente
##onium
Filming
absorbing
Ramón
strangled
conveyed
inhabit
prostitutes
recession|C0333047|DISO
bonded
clinched
##eak
##iji
##edar
Pleasure
Rite
Christy
Therapy|C0087111|PROC
sarcasm
##collegiate
hilt
probation
Sarawak
coefficients
underworld
biodiversity
SBS
groom
brewing
dungeon
##claiming
Hari
turnover
##ntina
##omer
##opped
orthodox
styling
##tars
##ulata
priced
Marjorie
##eley
##abar
Yong
##tically
Crambidae
Hernandez
##ego
##rricular
##ark
##lamour
##llin
##augh
##tens
Advancement
Loyola
##4th
##hh
goin
marshes
Sardinia
##ša
Ljubljana
Singing
suspiciously
##hesive
Félix
Regarding
flap|C0038925|ANAT
stimulation|C1292856|PROC
##raught
Apr|C2004459|PROC
Yin
gaping
tighten
skier|C0425040|DISO
##itas
##lad
##rani
264
Ashes
Olson
Problems
Tabitha
##rading
balancing|C0014653|PHYS
sunrise
##ease
##iture
##ritic
Fringe
##iciency
Inspired|C0004048|PHYS
Linnaeus
PBA|C0281398|CHEM
disapproval
##kles
##rka
##tails
##urger
Disaster
Laboratories
apps|C0699919|CHEM
paradise
Aero
Came
sneaking
Gee
Beacon
ODI
commodity
Ellington
graphical
Gretchen
spire
##skaya
##trine
RTÉ
efficacy
plc|C0031669|CHEM
tribunal
##ytic
downhill
flu|C0021400|DISO
medications|C0013227|CHEM
##kaya
widen
Sunrise
##nous
distinguishing
pawn
##BO
##irn
##ssing
##ν
Easton
##vila
Rhineland
##aque
defect
##saurus
Goose|C2725897|CHEM
Ju
##classified
Middlesbrough
shaping
preached
1759
##erland
Ein|C1333394|DISO
Hailey
musicals
##altered
Galileo
Hilda
Fighters
Lac
##ometric
295
Leafs
Milano
##lta
##VD
##ivist
penetrated
Mask
Orchard
plaintiff
##icorn
Yvonne
##fred
outfielder
peek
Collier
Caracas
repealed
Bois
dell
restrict
Dolores
Hadley
peacefully
##LL
condom
Granny
Orders
sabotage
##toon
##rings
compass
marshal
gears
brigadier
dye|C0013343|CHEM
Yunnan
communicating|C0566001|DISO
donate
emerald
vitamin|C0042890|CHEM
administer
Fulham
##classical
##llas
Buckinghamshire
Held
layered
disclosure
Akira
programmer
shrimp|C2702382|CHEM
Crusade
##ximal
Luzon
bakery
##cute
Garth
Citadel
uniquely
Curling
info
mum
Para|C0030563|DISO
##ști
sleek
##ione
hey
Lantern
mesh
##lacing
##lizzard
##gade
prosecuted
Alba|C0731378|CHEM
Gilles
greedy
twists
##ogged
Viper
##kata
Appearances
Skyla|C3531219|CHEM
hymns
##pelled
curving
predictable
Grave
Watford
##dford
##liptic
##vary
Westwood
fluids
Models
statutes
##ynamite
1740
##culate
Framework
Johanna
##gression
Vuelta
imp|C0021533|CHEM
##otion
##raga
##thouse
Ciudad
festivities
##love
Beyoncé
italics
##vance
DB
##haman
outs
Singers
##ueva
##urning
##51
##ntiary
##mobile
285
Mimi
emeritus
nesting
Keeper
Ways
##onal
##oux
Edmond
MMA
##bark
##oop
Hampson
##ñez
##rets
Gladstone
wreckage
Pont
Playboy
reluctance
##ná
apprenticeship
preferring
Value
originate
##wei
##olio
Alexia|C0002018|DISO
##rog
Parachute
jammed
stud
Eton
vols
##ganized
1745
straining
creep
indicators
##mán
humiliation
hinted
alma
tanker
##egation
Haynes
Penang
amazement
branched
rumble
##ddington
archaeologists
paranoid
expenditure
Absolutely
Musicians
banished
##fining
baptism
Joker
Persons
hemisphere
##tieth
##ück
flock
##xing
lbs
Kung
crab|C2702369|CHEM
##dak
##tinent
Regulations
barrage
parcel
##ós
Tanaka
##rsa
Natalia
Voyage
flaws
stepfather
##aven
##eological
Botanical
Minsk
##ckers
Cinderella
Feast
Loving|C0024028|PHYS
Previous
Shark|C3486821|CHEM
##took
barrister
collaborators
##nnes
Croydon
Graeme
Juniors
##7th
##formation
##ulos
##ák
£2
##hwa
##rove
##ș
Whig
demeanor
Otago
##TH
##ooster
Faber
instructors
##ahl
##bha
emptied
##schen
saga
##lora
exploding
##rges
Crusaders
##caster
##uations
streaks
CBN|C0006865|CHEM
bows
insights|C0233820|PHYS
ka
1650
diversion|C0185033|PROC
LSU
Wingspan
##liva
Response
sanity
Producers
imitation
##fine
Lange
Spokane
splash
weed
Siberian
magnet
##rocodile
capitals
##rgus
swelled
Rani
Bells
Silesia
arithmetic
rumor
##hampton
favors
Weird
marketplace
##orm
tsunami
unpredictable
##citation
##ferno
Tradition
postwar
stench
succeeds
##roup
Anya
Users
oversized
totaling
pouch
##nat
Tripoli
leverage
satin
##cline
Bathurst
Lund
Niall
thereof
##quid
Bangor
barge
Animated
##53
##alan
Ballard
utilizes
Done
ballistic
NDP
gatherings
##elin
##vening
Rockets
Sabrina
Tamara
Tribal
WTA
##citing
blinded
flux
Khalid
Una
prescription
##jee
Parents
##otics
##food
Silicon|C0037107|CHEM
cured
electro
perpendicular
intimacy
##rified
Lots
##ceiving
##powder
incentives
McKenna
##arma
##ounced
##rinkled
Alzheimer
##tarian
262
Seas
##cam
Novi
##hout
##morphic
##hazar
##hul
##nington
Huron
Bahadur
Pirate
pursed
Griffiths
indicted
swap
refrain
##mulating
Lal
stomped
##Pad
##mamoto
Reef
disposed
plastered
weeping|C0424109|DISO
##rato
Minas
hourly
tumors|C0027651|DISO
##ruising
Lyle
##yper
##sol
Odisha
credibility
##Dowell
Braun
Graphic
lurched
muster
##nex
##ührer
##connected
[...]
