[PAD]
[unused1]
[unused2]
[unused3]
[unused4]
[unused5]
[unused6]
[unused7]
[unused8]
[unused9]
[unused10]
[unused11]
[unused12]
[unused13]
[unused14]
[unused15]
[unused16]
[unused17]
[unused18]
[unused19]
[unused20]
[unused21]
[unused22]
[unused23]
[unused24]
[unused25]
[unused26]
[unused27]
[unused28]
[unused29]
[unused30]
[unused31]
[unused32]
[unused33]
[unused34]
[unused35]
[unused36]
[unused37]
[unused38]
[unused39]
[unused40]
[unused41]
[unused42]
[unused43]
[unused44]
[unused45]
[unused46]
[unused47]
[unused48]
[unused49]
[unused50]
[unused51]
[unused52]
[unused53]
[unused54]
[unused55]
[unused56]
[unused57]
[unused58]
[unused59]
[unused60]
[unused61]
[unused62]
[unused63]
[unused64]
[unused65]
[unused66]
[unused67]
[unused68]
[unused69]
[unused70]
[unused71]
[unused72]
[unused73]
[unused74]
[unused75]
[unused76]
[unused77]
[unused78]
[unused79]
[unused80]
[unused81]
[unused82]
[unused83]
[unused84]
[unused85]
[unused86]
[unused87]
[unused88]
[unused89]
[unused90]
[unused91]
[unused92]
[unused93]
[unused94]
[unused95]
[unused96]
[unused97]
[unused98]
[unused99]
[UNK]
[CLS]
[SEP]
[MASK]
[unused100]
[unused101]
!
"
#
$
%
&
'
(
)
*
+
,
-
.
/
0
1
2
3
4
5
6
7
8
9
:
;
<
=
>
?
@
A
B
C
D
E
F
G
H
I
J
K
L
M
N
O
P
Q
R
S
T
U
V
W
X
Y
Z
[
\
]
^
_
`
a
b
c
d
e
f
g
h
i
j
k
l
m
n
o
p
q
r
s
t
u
v
w
x
y
z
{

}
~
¡
¢
£
¥
§
¨
©
ª
«
¬
®
°
±
²
³
´
µ
¶
·
¹
º
»
¼
½
¾
¿
À
Á
Â
Ä
Å
Æ
Ç
È
É
Í
Î
Ñ
Ó
Ö
×
Ø
Ú
Ü
Þ
ß
à
á
â
ã
ä
å
æ
ç
è
é
ê
ë
ì
í
î
ï
ð
ñ
ò
ó
ô
õ
ö
÷
ø
ù
ú
û
ü
ý
þ
ÿ
Ā
ā
ă
ą
Ć
ć
Č
č
ď
Đ
đ
ē
ė
ę
ě
ğ
ġ
Ħ
ħ
ĩ
Ī
ī
İ
ı
ļ
Ľ
ľ
Ł
ł
ń
ņ
ň
ŋ
Ō
ō
ŏ
ő
Œ
œ
ř
Ś
ś
Ş
ş
Š
š
Ţ
ţ
ť
ũ
ū
ŭ
ů
ű
ų
ŵ
ŷ
ź
Ż
ż
Ž
ž
Ə
ƒ
ơ
ư
ǎ
ǐ
ǒ
ǔ
ǫ
Ș
ș
Ț
ț
ɐ
ɑ
ɔ
ɕ
ə
ɛ
ɡ
ɣ
ɨ
ɪ
ɲ
ɾ
ʀ
ʁ
ʂ
ʃ
ʊ
ʋ
ʌ
ʐ
ʑ
ʒ
ʔ
ʰ
ʲ
ʳ
ʷ
ʻ
ʼ
ʾ
ʿ
ˈ
ː
ˡ
ˢ
ˣ
́
̃
̍
̯
͡
Α
Β
Γ
Δ
Ε
Η
Θ
Ι
Κ
Λ
Μ
Ν
Ο
Π
Σ
Τ
Φ
Χ
Ψ
Ω
ά
έ
ή
ί
α
β
γ
δ
ε
ζ
η
θ
ι
κ
λ
μ
ν
ξ
ο
π
ρ
ς
σ
τ
υ
φ
χ
ψ
ω
ό
ύ
ώ
І
Ј
А
Б
В
Г
Д
Е
Ж
З
И
К
Л
М
Н
О
П
Р
С
Т
У
Ф
Х
Ц
Ч
Ш
Э
Ю
Я
а
б
в
г
д
е
ж
з
и
й
к
л
м
н
о
п
р
с
т
у
ф
х
ц
ч
ш
щ
ъ
ы
ь
э
ю
я
ё
і
ї
ј
њ
ћ
Ա
Հ
ա
ե
ի
կ
մ
յ
ն
ո
ս
տ
ր
ւ
ְ
ִ
ֵ
ֶ
ַ
ָ
ֹ
ּ
א
ב
ג
ד
ה
ו
ז
ח
ט
י
כ
ל
ם
מ
ן
נ
ס
ע
פ
צ
ק
ר
ש
ת
،
ء
آ
أ
إ
ئ
ا
ب
ة
ت
ث
ج
ح
خ
د
ذ
ر
ز
س
ش
ص
ض
ط
ظ
ع
غ
ف
ق
ك
ل
م
ن
ه
و
ى
ي
َ
ِ
ٹ
پ
چ
ک
گ
ہ
ی
ے
ं
आ
क
ग
च
ज
ण
त
द
ध
न
प
ब
भ
म
य
र
ल
व
श
ष
स
ह
ा
ि
ी
ु
े
ो
्
।
॥
আ
ই
এ
ও
ক
খ
গ
চ
ছ
জ
ট
ত
থ
দ
ধ
ন
প
ব
ম
য
র
ল
শ
স
হ
়
া
ি
ী
ু
ে
ো
্
য়
க
த
ப
ம
ய
ர
ல
வ
ா
ி
ு
்
ร
་
ག
ང
ད
ན
བ
མ
ར
ལ
ས
ི
ུ
ེ
ོ
ა
ე
ი
ლ
ნ
ო
რ
ს
ᴬ
ᴵ
ᵀ
ᵃ
ᵇ
ᵈ
ᵉ
ᵍ
ᵏ
ᵐ
ᵒ
ᵖ
ᵗ
ᵘ
ᵢ
ᵣ
ᵤ
ᵥ
ᶜ
ᶠ
ḍ
Ḥ
ḥ
Ḩ
ḩ
ḳ
ṃ
ṅ
ṇ
ṛ
ṣ
ṭ
ạ
ả
ấ
ầ
ẩ
ậ
ắ
ế
ề
ể
ễ
ệ
ị
ọ
ố
ồ
ổ
ộ
ớ
ờ
ợ
ụ
ủ
ứ
ừ
ử
ữ
ự
ỳ
ỹ
ἀ
ἐ
ὁ
ὐ
ὰ
ὶ
ὸ
ῆ
ῖ
ῦ
ῶ
‐
‑
‒
–
—
―
‖
‘
’
‚
“
”
„
†
‡
•
…
‰
′
″
⁄
⁰
ⁱ
⁴
⁵
⁶
⁷
⁸
⁹
⁺
⁻
ⁿ
₀
₁
₂
₃
₄
₅
₆
₇
₈
₉
₊
₍
₎
ₐ
ₑ
ₒ
ₓ
ₕ
ₖ
ₘ
ₙ
ₚ
ₛ
ₜ
₤
€
₱
₹
ℓ
№
ℝ
⅓
←
↑
→
↔
⇌
⇒
∂
∈
−
∗
∘
√
∞
∧
∨
∩
∪
≈
≠
≡
≤
≥
⊂
⊆
⊕
⋅
─
│
■
●
★
☆
☉
♠
♣
♥
♦
♭
♯
⟨
⟩
ⱼ
、
。
《
》
「
」
『
』
〜
い
う
え
お
か
き
く
け
こ
さ
し
す
せ
そ
た
ち
つ
て
と
な
に
の
は
ひ
ま
み
む
め
も
や
ゆ
よ
ら
り
る
れ
ん
ア
ィ
イ
ウ
エ
オ
カ
ガ
キ
ク
グ
コ
サ
シ
ジ
ス
ズ
タ
ダ
ッ
テ
デ
ト
ド
ナ
ニ
ハ
バ
パ
フ
ブ
プ
マ
ミ
ム
ャ
ュ
ラ
リ
ル
レ
ロ
ン
・
ー
一
三
上
下
中
事
二
井
京
人
亻
仁
佐
侍
光
公
力
北
十
南
原
口
史
司
吉
同
和
囗
国
國
土
城
士
大
天
太
夫
女
子
宀
安
宮
宿
小
尚
山
島
川
州
平
年
心
愛
戸
文
新
方
日
明
星
書
月
木
本
李
村
東
松
林
正
武
氏
水
氵
江
河
海
版
犬
王
生
田
白
皇
省
真
石
社
神
竹
美
義
花
藤
西
谷
車
辶
道
郎
郡
部
野
金
長
門
陽
青
食
馬
高
龍
龸
사
씨
의
이
한
ﬁ
ﬂ
！
（
）
，
－
／
：
the
of
and
to
in
was
The
is
for
as
on
with
that
##s
his
by
he
at
from
it
her
He
had
an
were
you
be
In
she
are
but
which
It
not
or
have
my
him
one
this
me
has
also
up
their
first
out
who
been
they
She
into
all
would
its
##ing
time
two
##a
##e
said
about
when
over
more
other
can
after
back
them
then
##ed
there
like
so
only
##n
could
##d
##i
##y
what
no
##o
where
This
made
than
if
You
##ly
through
we
before
##r
just
some
##er
years
do
New
##t
down
between
new
now
will
three
most
On
around
year
used
such
being
well
during
They
know
against
under
later
did
part
known
off
while
His
re
...
##l
people
until
way
American
didn
University
your
both
many
get
United
became
head|C0018670|T029
There
second
As
work|C0043227|T057
any
But
still
again
born|C0005615|T040
even
eyes|C0015392|T023
After
including
de
took
And
long
team
season
family
see
right
same
called
name
because
film|C1704608|T122
don
10
found
much
school
##es
going
won
place
away
We
day
left
John
000
hand|C0018563|T023
since
World
these
how
make
number
each
life
area
man
four
go
No
here
very
National
##m
played
released
never
began
States
album
home
last
too
held
several
May
own
##on
take
end
School
##h
ll
series
What
want
use
another
city
When
2010
side
At
may
That
came
face|C0015450|T029
June
think|C0039869|T041
game
those
high
March
early
September
##al
2011
looked
July
state
small
thought|C0039869|T041
went
January
October
##u
based
August
##us
world
good
April
York
us
12
2012
2008
For
2009
group
along
few
South
little
##k
following
November
something
2013
December
set
2007
old
2006
2014
located
##an
music
County
City
former
##in
room
ve
next
All
##man
got
father
house
##g
body
15
20
18
started
If
2015
town
our
line
War
large
population
named
British
company
member
five
My
single
##en
age
State
moved
February
11
Her
should
century
government
built
come
best
show
However
within
look
men
door
without
need
wasn
2016
water|C0043047|T197
One
system
knew
every
died|C0011065|T040
League
turned
asked
North
St
wanted
building
received
song
served
though
felt
##ia
station
band
##ers
local
public
himself
different
death|C0011065|T040
say
##1
30
##2
2005
16
night
behind
children
English
members
near
saw
together
son
14
voice
village
13
hands|C0018563|T023
help
##3
due
French
London
top
told
open
published
third
2017
play|C0600138|T033
across
During
put
final
often
include
25
##le
main
having
2004
once
ever
let
book
led
gave
late
front
find
club
##4
German
included
species
College
form
opened
mother
women
enough
West
must
2000
power
really
17
making
half
##6
order
might
##is
given
million
times
days
point
full
service|C0557854|T057
With
km
major
##7
original
become
seen
II
north
six
##te
love|C0024028|T041
##0
national
International
##5
24
So
District
lost
run
couldn
career
always
##9
2003
##th
country
##z
House
air|C3536832|T197
tell
south
worked|C0043227|T057
woman
player
##A
almost
war
River
##ic
married|C0555047|T033
continued
Then
James
close
black
short
##8
##na
using
history|C0262926|T033
returned
light
car
##ra
sure
William
things
General
##ry
2002
better
support|C0344211|T061
100
among
From
feet|C0016504|T023
King
anything
21
19
established
district
2001
feel|C0013987|T041
great
##ton
level
Cup
These
written
games
others
already
title
story
##p
law
thing
US
record
role
however
By
students
England
white
control
least
inside
land
##C
22
give
community
hard
##ie
non
##c
produced
George
round
period|C0025344|T040
Park
business
various
##ne
does
present
wife
far
taken
per|C0449201|T029
reached
David
able|C1299581|T033
version
working|C0043227|T057
young
live
created
joined
East
living
appeared
case
High
done
23
important
President
Award
France
position
office
looking
total
general
class
To
production
##S
football|C0016517|T056
party
brother
keep
mind
free
Street
hair|C0018494|T023
announced
development
either
nothing|C0442735|T033
moment
Church
followed
wrote
why
India
San
election
1999
lead|C0023175|T131
How
##ch
##rs
words
European
course
considered
America
arms
Army
political
##la
28
26
west
east
ground
further
church
less
site
First
Not
Australia
toward
California
##ness
described
works|C0043227|T057
An
Council
heart|C0018787|T023
past
military
27
##or
heard
field
human
soon
founded
1998
playing|C0600138|T033
trying
##x
##ist
##ta
television
mouth|C0226896|T030
although
taking
win
fire
Division|C1293097|T061
##ity
Party
Royal
program|C2728259|T121
Some
Don
Association|C0004083|T041
According
tried
TV
Paul
outside
daughter
Best
While
someone
match
recorded
Canada
closed
region
Air|C3536832|T197
above
months
elected
##da
##ian
road
##ar
brought
move|C0578671|T033
1997
leave
##um
Thomas
1996
am
low
Robert
formed
person
services|C0557854|T057
points
Mr
miles
##b
stop
rest|C0035253|T056
doing
needed
international
release|C1963578|T061
floor
start
sound
call
killed
real
dark
research
finished
language
Michael
professional
change
sent
50
upon
29
track
hit|C0272285|T047
event
2018
term|C0233324|T040
example
Germany
similar
return
##ism
fact
pulled
stood
says
ran
information
yet
result
developed
girl
##re
God
1995
areas
signed
decided
##ment
Company
seemed
##el
co
turn|C0541749|T033
race
common
video
Charles
Indian
##ation
blood|C0005767|T024
art
red
##able
added
rather
1994
met
director
addition
design
average
minutes
##ies
##ted
available
bed
coming
friend
idea
kind
Union
Road
remained
##ting
everything
##ma
running|C0035953|T056
care
finally
Chinese
appointed
1992
Australian
##ley
popular
mean
teams
probably|C0332148|T033
##land
usually
project
social
Championship
possible
word
Russian
instead
mi
herself
##T
Peter
Hall
Center
seat
style
money
1993
else
Department
table
Music
current
31
features
special
events
character
Two
square
sold
debut
##v
process
Although
Since
##ka
40
Central
currently
education|C0424927|T033
placed
lot
China
quickly
forward
seven
##ling
Europe
arm|C0446516|T029
performed
Japanese
1991
Henry
Now
Dr
##ion
week
Group
myself
big
UK
Washington
ten
deep
1990
Club
Japan
space
La
directed
smile|C0517048|T033
episode
hours
whole
##de
##less
Why
wouldn
designed
strong
training
changed
Society
stage
involved
hadn
towards
leading
police
eight
kept
Institute
study
largest
child
eventually
private
modern
Court
throughout
getting
originally
attack|C1304680|T033
##E
talk
Great
longer
songs
alone|C0439044|T033
##ine
wide
dead|C0011065|T040
walked
shot|C0021485|T061
##ri
Oh
force
##st
Art
today
friends
Island
Richard
1989
center
construction|C0441513|T061
believe
size
White
ship
completed
##B
gone
Just
rock
sat
##R
radio
below
entire
families
league
includes
type
lived
official
range
hold
featured
Most
##ter
president
passed
means
##f
forces
lips|C0023759|T023
Mary
Do
guitar
##ce
food
wall
Of
spent
Its
performance
hear
##P
Western
reported
sister
##et
morning
##M
especially
##ive
Minister
itself
post
bit
groups
1988
##tion
Black
##ng
Well
raised
sometimes
Canadian
Paris
Spanish
replaced
schools
Academy
leaving
central
female
Christian
Jack
whose
college
onto
provided
##D
##ville
players
actually
stopped
##son
Museum
doesn
##ts
books
fight
allowed
##ur
beginning
Records
awarded
parents
coach
##os
Red
saying
##ck
Smith
Yes
Lake
##L
aircraft
1987
##ble
previous
ft
action
Italian
African
happened
vocals
Act|C0427611|T059
future
court
##ge
1986
degree
phone
##ro
Is
countries
winning
breath
Love|C0024028|T041
river
matter
Lord
Other
list
self
parts
##ate
provide
cut|C0000925|T037
shows
plan|C0270724|T047
1st
interest|C0543488|T041
##ized
Africa
stated
Sir
fell
owned
earlier
ended
competition
attention|C0004268|T041
1985
lower
nearly
bad
older
stay
Saint
##se
certain
1984
fingers|C0016129|T029
blue
try
fourth
Grand
##as
king
##nt
makes
chest|C0817096|T029
movement|C0026649|T040
states
moving
data
introduced
model
date
section
Los
deal
##I
skin|C1123023|T022
entered
middle
success
Texas
##w
summer
island
##N
Republic
length
husband
1980
##ey
reason
anyone
forced
via
base
500
job
covered
Festival
Roman
successful
rights
cover
Man
writing|C2584304|T041
Ireland
##F
related|C0445223|T033
goal
takes
buildings
true
weeks
1983
Because
opening
novel
ISBN
meet
gold|C0018026|T196
##ous
mid
km²
standing
Football|C0016517|T056
Chicago
shook
whom
##ki
1982
Day
feeling|C1527305|T041
scored
boy
higher
Force
leader
heavy
fall|C0085639|T033
question
sense|C0036658|T042
army
Second
energy
meeting
themselves
kill
##am
board
census
##ya
##ns
mine
meant
market
required
battle
campaign
attended
approximately
Kingdom
runs|C0600140|T033
active
##ha
contract
clear
previously
health
1979
Arts
complete
Catholic
couple
units
##ll
##ty
Committee
shoulder|C0037004|T029
sea
systems
listed
##O
caught
tournament
##G
northern
author
Film|C1704608|T122
Your
##men
holding
offered
personal
1981
southern
artist
traditional
studio
200
capital
##ful
regular
ask
giving
organization
month
news
Are
read
managed|C1273870|T057
helped
studied
student
defeated
natural
industry
Year
noted
decision
Government
quite
##id
smiled
1972
Maybe
tracks
##ke
Mark
al
media|C0162867|T024
engine
hour
Their
relationship
plays|C0600138|T033
property
structure
1976
ago
Hill
Martin
1978
ready
Many
Like
Bay
immediately
generally
Italy
Greek
practice
caused
division|C1293097|T061
significant
Joseph
speed
Let
thinking|C0039869|T041
completely
1974
primary|C0439631|T061
mostly
##field
##K
1975
##to
Even
writer
##led
dropped
magazine
collection
understand|C0162340|T041
route
highest
particular
films
lines
network
Science
loss
carried
direction
green
1977
location
producer
according
Women
Queen
neck|C0027530|T029
thus
independent|C1299583|T033
view
1970
Angeles
Soviet
distance
problem|C0033213|T033
Board
tour
western
income
appearance
access
Mexico
nodded
street
surface
arrived
believed
Old
1968
1973
becoming
whether
1945
figure
singer
stand
Following
issue|C0033213|T033
window
wrong
pain|C0030193|T184
everyone
lives|C0595998|T033
issues
park
slowly
la
act|C0427611|T059
##va
bring
Lee
operations
key
comes
fine
cold|C0009443|T047
famous
Navy
1971
Me
additional
individual
##ner
Zealand
goals
county
contains
Service|C0557854|T057
minute
2nd
reach
talking
particularly
##ham
movie
Director
glass|C0025611|T131
paper
studies
##co
railway
standard
Education|C0424927|T033
45
represented
Chief
Louis
launched
Star
terms
60
1969
experience
watched
Another
Press
Tom
staff
starting
subject
break
Virginia
nine
eye|C0015392|T023
##age
evidence
foot|C0016504|T023
##est
companies
Prince
##V
gun
create
Big
People
guy
Green
simply
numerous
##line
increased
twenty
##ga
##do
1967
award
officer
stone
Before
material
Northern
grew
male
plant
Life
legs|C1140621|T023
step
Al
unit
35
except
answer
##U
report
response
Edward
commercial
edition
trade
science
##ca
Irish
Law
shown
rate
failed
##ni
remains
changes
mm
limited
larger
Later
cause
waiting
Time
##wood
cost
Bill
manager
activities
likely|C0332148|T033
allow
operated
retired|C0035345|T033
##ping
65
directly
Who
associated
effect
hell
Florida
straight
hot
Valley
management|C1273870|T057
girls
expected
eastern
Mike
chance
cast
centre
chair
hurt
problems
##li
walk|C0080331|T056
programs
Team
characters
Battle
edge
pay
maybe
corner
majority
medical
Joe
Summer
##io
attempt
Pacific
command
Radio
##by
names
municipality
1964
train
economic
Brown
feature
sex|C0009253|T040
source|C0449416|T033
agreed
remember
Three
1966
1965
Pennsylvania
victory
senior
annual
III
Southern
results
Sam
serving
religious|C0557075|T033
Jones
appears
##der
despite
claimed
Both
musical
matches
fast|C0015663|T033
security
selected
Young
double
complex
hospital
chief
Times
##ve
Championships
filled
Public
Despite
beautiful
Research
plans
Province
##ally
Wales
##ko
artists
metal|C0025552|T197
nearby
Spain
##il
32
houses
supported
piece
##no
stared
recording
nature
legal
Russia
##ization
remaining
looks
##sh
bridge
closer
cases
scene
marriage|C0024841|T033
Little
##é
uses
Earth
specific
Frank
theory
Good
discovered
referred
bass
culture|C2242979|T059
university
presented
Congress
##go
metres
continue
1960
isn
Awards
meaning
cell|C0007634|T025
composed
separate
Series
forms
Blue
cross
##tor
increase
test
computer
slightly
Where
Jewish
Town
tree
status
1944
variety
responsible|C1273518|T033
pretty
initially
##way
realized
pass
provides
Captain
Alexander
recent
score
broke
Scott
drive|C0013126|T041
financial
showed
Line
stories
ordered
soldiers
genus
operation
gaze|C0553544|T033
sitting|C0277814|T033
society
Only
hope
actor
follow
Empire
Yeah
technology
happy|C0018592|T041
focus
policy
spread
situation
##ford
##ba
Mrs
watch
Can
1963
Commission
touch|C0702221|T042
earned
troops
Under
1962
individuals
cannot
19th
##lin
mile
expression|C0185117|T061
exactly
suddenly
weight|C1305866|T060
dance
stepped
places
appear
difficult|C1299586|T033
Railway
anti
numbers
kilometres
star
##ier
department
ice|C0020746|T197
Britain
removed
Once
##lo
Boston
value
##ant
mission
trees
Order
sports|C0038039|T056
join
serve
Major
poor
Poland
mainly
Theatre
pushed
Station
##it
Lady
federal
silver|C0037125|T196
##ler
foreign
##ard
Eastern
##den
box
hall
subsequently
lies
acquired
1942
ancient
CD
History
Jean
beyond
##ger
El
##les
growing
championship
native
Parliament
Williams
watching
direct
overall
offer
Also
80
Secretary
spoke
Latin
ability
##ated
safe
presence
##ial
headed
regional
planned
1961
Johnson
throat|C0031354|T023
consists
##W
extended
Or
bar
walls
Chris
stations
politician
Olympics
influence
share
fighting
speak|C0234856|T056
hundred
Carolina
die|C0012144|T023
stars
##tic
color
Chapter
##ish
fear|C0015726|T041
sleep|C0037313|T040
goes
Francisco
oil|C1947940|T122
Bank
sign|C0311392|T033
physical
##berg
Dutch
seasons
##rd
Games
Governor
sorry
lack
Centre
memory|C0025260|T041
baby
smaller
charge
Did
multiple
ships
shirt
Assembly
amount
leaves
3rd
Foundation
conditions
1943
Rock
Democratic
Daniel
##at
winner
products
##ina
store
latter
Professor
civil
prior
host
1956
soft
vote
needs
Each
rules
1958
pressure|C0460139|T033
letter
normal
proposed
levels
records
1959
paid
intended
Victoria
purpose
okay
historical
issued
1980s
broadcast
rule
simple
picked
firm
Sea
1941
Elizabeth
1940
serious
featuring
highly
graduated
mentioned
choice
1948
replied
percent
Scotland
##hi
females
constructed
1957
settled
Steve
recognized
cities
crew
glanced
kiss
competed
flight
knowledge
editor
More
Conference
##H
fifth
elements|C0013879|T196
##ee
##tes
function
newspaper
recently
Miss
cultural
brown
twice
Office
1939
truth
Creek
1946
households
USA
1950
quality
##tt
border
seconds
destroyed
pre
wait
ahead
build
image
90
cars
##mi
33
promoted
professor
et
bank
medal
text
broken
Middle
revealed
sides
wing
seems
channel
1970s
Ben
loved|C0024028|T041
effort|C0015264|T040
officers
Will
##ff
70
Israel
Jim
upper
fully
label
Jr
assistant
powerful
pair
positive
##ary
gives
1955
20th
races
remain
kitchen
primarily
##ti
Sydney
easy
Tour
whispered
buried
300
News
Polish
1952
Duke
Columbia
produce
accepted
00
approach
minor
1947
Special
44
Asian
basis|C1874451|T121
visit
Fort
Civil
finish
formerly
beside
leaned
##ite
median
rose
coast
effects
supposed
Cross
##hip
Corps
residents
Jackson
##ir
Bob
basketball|C0004818|T056
36
Asia
seem
Bishop
Book
##ber
ring
##ze
owner
BBC
##ja
transferred
acting
De
appearances
walking|C0080331|T056
Le
press
grabbed
1954
officially
1953
##pe
risk
taught
review
##X
lay
##well
council
Avenue
seeing
losing
Ohio
Super
province
ones
travel|C0040802|T056
##sa
projects
equipment
spot
Berlin
administrative
heat
potential
shut
capacity
elections
growth
fought
Republican
mixed
Andrew
teacher
turning
strength
shoulders|C0037004|T029
beat
wind|C0016204|T184
1949
Health
follows
camp
suggested
perhaps
Alex
mountain
contact
divided
candidate
fellow
34
Show
necessary
workers
ball
horse
ways
questions
protect
gas|C1704673|T122
activity|C0026606|T056
younger
bottom
founder
Scottish
screen|C0199230|T060
treatment|C0087111|T061
easily
com
##house
dedicated
Master
warm
Night
Georgia
Long
von
##me
perfect
website
1960s
piano
efforts
##ide
Tony
sort
offers
Development
Simon
executive
##nd
save
Over
Senate
1951
1990s
draw
master
Police
##ius
renamed
boys
initial
prominent
damage|C0010957|T037
Co
##ov
##za
online
begin
occurred
captured
youth
Top
account
tells
Justice
conducted
forest
##town
bought
teeth|C0040426|T023
Jersey
##di
purchased
agreement
Michigan
##ure
campus
prison
becomes
product
secret
guess
Route
huge
types
drums
64
split
defeat
estate
housing
##ot
brothers
Coast
declared
happen
titled
therefore
sun
commonly
alongside
Stadium
library
Home
article
steps
telling
slow
assigned
refused
laughed
wants
Nick
wearing
Rome
Open
##ah
Hospital
pointed
Taylor
lifted
escape
participated
##j
drama
parish
Santa
##per
organized
mass|C0577559|T033
pick
Airport
gets
Library
unable|C1299582|T033
pull|C0580846|T033
Live
##ging
surrounding
##ries
focused
Adam
facilities
##ning
##ny
38
##ring
notable
era
connected
gained
operating
laid
Regiment
branch
defined
Christmas
machine
Four
academic
Iran
adopted
concept
Men
compared
search
traffic
Max
Maria
greater
##ding
widely
##burg
serves
1938
37
Go
hotel
shared
typically
scale
1936
leg|C1140621|T023
suffered|C0683278|T048
yards
pieces
Ministry
Wilson
episodes
empty
1918
safety
continues
yellow
historic
settlement
400
Come
Corporation
enemy
content|C0423896|T041
picture
evening
territory
method
trial
solo
driver
Here
##ls
entrance
Prize
spring
whatever
##ent
75
##ji
reading|C0034754|T056
Arthur
##cy
Our
clothes
Prime
Illinois
Kong
code
##ria
sit|C0277814|T033
Harry
Federal
chosen
administration
bodies
begins
stomach
Though
seats
Hong
density
Sun
leaders
Field
museum
chart
platform
languages
##ron
birth|C0005615|T040
holds
Gold|C0018026|T196
##un
fish
combined
##ps
4th
1937
largely
captain
trust
Game
van
boat
Oxford
basic
beneath
Islands
painting
nice
Toronto
path
males
sources|C0449416|T033
block|C0028778|T046
conference
parties
murder
clubs
crowd
calling
About
Business
peace
knows
lake
speaking|C0234856|T056
stayed
Brazil
allowing
Born
unique
thick
Technology
##que
receive
des|C0012203|T121
semi
alive|C2584946|T033
noticed
format
##ped
coffee
digital|C0582802|T023
##ned
handed
guard
tall
faced
setting
plants
partner
claim
reduced
temple
animals
determined
classes
##out
estimated
##ad
Olympic
providing
Massachusetts
learned
Inc
Philadelphia
Social
carry
42
possibly
hosted
tonight
respectively
Today
shape
Mount|C0449878|T033
roles
designated
brain|C0006104|T023
etc
Korea
thoughts|C0039869|T041
Brian
Highway
doors
background
drew
models
footballer
tone
turns
1935
quiet
tower
wood
bus
write|C2584304|T041
software
weapons
flat
marked
1920
newly
tight
Eric
finger|C0016129|T029
Journal
FC
Van
rise
critical
Atlantic
granted
returning
communities
humans
quick
39
48
ranked
sight|C0042789|T040
pop
Swedish
Stephen
card
analysis|C0002778|T059
attacked|C0004063|T037
##wa
Sunday
identified
Jason
champion
situated
1930
expanded
tears
##nce
reaching
Davis
protection
Emperor
positions
nominated
Bridge
tax|C0144576|T121
dress|C3541994|T047
allows
avoid
leadership
killing
actress
guest
steel
knowing
electric
cells|C0007634|T025
disease|C0012634|T047
grade
unknown
##ium
resulted
Pakistan
confirmed
##ged
tongue|C0040408|T023
covers
##Y
roof
entirely
applied
votes
drink
interview
exchange
Township
reasons
##ised
page
calls
dog
agent
nose|C0028429|T023
teaching
##ds
##ists
advanced
wish
Golden
existing
vehicle|C0042444|T122
del
1919
develop
attacks|C1304680|T033
pressed
Sports|C0038039|T056
planning|C0032074|T041
resulting
facility
Sarah
notes
1933
Class
Historic
winter
##mo
audience
Community
household
Netherlands
creation|C0441513|T061
##ize
keeping
1914
claims
dry
guys
opposite
##ak
explained
Ontario
secondary
difference
Francis
actions
organizations
yard
animal
Up
Lewis
titles
Several
1934
Ryan
55
Supreme|C3282376|T109
rolled
1917
distribution
figures
afraid|C0015726|T041
rural
yourself
##rt
sets
barely
Instead
passing
awards
41
silence
authority
occupied
environment
windows
engineering
surprised
flying
crime
reports
Mountain
powers
driving|C0004379|T056
succeeded
reviews
1929
Head|C0018670|T029
missing
Song
Jesus
opportunity
inspired
ends
albums
conversation
impact
injury|C3263723|T037
surprise
billion
learning|C0023185|T041
heavily
oldest
union
creating
##ky
festival
literature
letters
sexual
##tte
apartment
Final
comedy
nation
orders
##sen
contemporary
Power
drawn
existence
connection
##ating
Post
Junior
remembered
message
Medal
castle
note
engineer
sounds
Beach
crossed
##dy
ear|C0013443|T023
scientific
sales
##ai
theme
starts
clearly
##ut
trouble
##gan
bag
##han
BC
sons
1928
silent
versions
daily
Studies
ending
Rose
guns
1932
headquarters
reference
obtained
Squadron
concert
none
du
Among
##don
prevent
Member
answered
staring|C0423086|T047
Between
##lla
portion
drug|C0013227|T121
liked
association|C0004083|T041
performances
Nations
formation
Castle|C1266100|T191
lose
learn|C0023185|T041
scoring
relatively
quarter
47
Premier
##ors
Sweden
baseball|C0004795|T056
attempted
trip
worth
perform
airport
fields
enter
honor
Medical
rear
commander
officials
condition|C0012634|T047
supply
materials
52
Anna
volume
threw
Persian
43
interested|C0543488|T041
Gallery
achieved
visited
laws
relief|C0564405|T033
Area
Matt
singles
Lieutenant
Country
fans
Cambridge
sky
Miller
effective
tradition
Port
##ana
minister
extra
entitled
System
sites
authorities
acres
committee
racing
1931
desk
trains
ass
weren
Family
farm
##ance
industrial
##head
iron|C0302583|T196
49
abandoned
Out
Holy
chairman
waited
frequently
display
Light
transport|C0005528|T043
starring
Patrick
Engineering
eat|C0013470|T040
FM
judge
reaction
centuries
price
##tive
Korean
defense
Get
arrested|C0018790|T047
1927
send
urban|C0724128|T121
##ss
pilot
Okay
Media|C0162867|T024
reality
arts|C0796028|T047
soul
thirty
##be
catch|C0231617|T184
generation
##nes
apart
Anne
drop|C0991568|T122
See
##ving
sixth
trained
Management|C1273870|T057
magic
cm
height
Fox
Ian
resources
vampire
principal
Was
haven
##au
Walter
Albert
rich
1922
causing
entry
##ell
shortly
46
worry|C0233481|T033
doctor
composer
rank
Network
bright|C0423899|T033
showing
regions
1924
wave
carrying
kissed
finding|C0037088|T184
missed
Earl
lying
target
vehicles|C0042444|T122
Military
controlled
dinner
##board
briefly
lyrics
motion
duty
strange
attempts
invited
kg
villages
5th
Land
##mer
Christ
prepared
twelve
check
thousand
earth
copies
en
transfer
citizens
Americans
politics
nor
theatre
Project
##bo
clean
rooms
laugh
##ran
application
contained
anyway
containing
Sciences
1925
rare
speech
exist
1950s
falling|C0085639|T033
passenger
##im
stands|C0596013|T033
51
##ol
##ow
phase
governor
kids
details
methods
Vice
employed|C0557351|T033
performing
counter
Jane
heads|C0018670|T029
Channel
wine
opposition|C0231519|T033
aged
1912
Every
1926
highway
##ura
1921
aired
978
permanent
Forest
finds
joint|C0022417|T030
approved
##pur
brief
doubt
acts
brand
wild
closely
Ford
Kevin
chose
shall
port
sweet
fun
asking
Be
##bury
sought
Dave
Mexican
mom
Right
Howard
Moscow
Charlie
Stone
##mann
admitted
##ver
wooden
1923
Officer
relations
Hot
combat
publication
chain
shop|C0150768|T056
inhabitants
proved
ideas|C0459920|T041
address
1915
Memorial
explain
increasing
conflict
Anthony
Melbourne
narrow
temperature
slid
1916
worse|C1457868|T033
selling
documentary
Ali
Ray
opposed
vision|C0042789|T040
dad
extensive
Infantry
commissioned
Doctor
offices
programming
core
respect
storm
##pa
##ay
##om
promotion
der
struck
anymore
shit
Region
receiving
DVD
alternative
##ue
ride
maximum
1910
##ious
Third
Affairs
cancer|C0006826|T191
Executive
##op
dream|C0013117|T041
18th
Due
##ker
##worth
economy
IV
Billboard
identity|C0424215|T041
subsequent
statement
skills
##back
funding
##ons
Round
Foreign
truck
Please
lights
wondered
##ms
frame
yes
Still
districts
fiction
Colonel
converted
150
grown
accident
critics
fit|C0036572|T184
Information
architecture
Point
Five
armed
Billy
poet
functions
consisted
suit
Turkish
Band
object
desire
##ities
sounded
flow
Norwegian
articles
Marie
pulling|C0580846|T033
thin
singing
Hunter
Human
Battalion
Federation
Kim
origin
represent
dangerous
weather
fuel
ex
##sing
Last
bedroom
aid|C0021588|T061
knees|C0022742|T023
Alan
angry|C0002957|T041
assumed
plane
Something
founding
concerned
global
Fire
di
please
Portuguese
touched
Roger
nuclear
Register
Jeff
fixed
royal
lie
finals
NFL
Manchester
towns
handle
shaped
Chairman
Dean
launch
understanding|C0162340|T041
Children
violence
failure
sector
Brigade
wrapped
fired|C0014007|T033
sharp|C1444775|T033
tiny
developing
expansion
Free
institutions
technical
Nothing|C0442735|T033
otherwise
Main
inch
Saturday
wore
Senior
attached
cheek|C0007966|T029
representing
Kansas
##chi
##kin
actual
advantage
Dan
Austria
##dale
hoped
multi
squad
Norway
streets
1913
Services|C0557854|T057
hired
grow
pp
wear
painted
Minnesota
stuff
Building
54
Philippines
1900
##ties
educational
Khan
Magazine
##port
Cape
signal
Gordon
sword
Anderson
cool
engaged
Commander
images
Upon
tied
Security
cup
rail
Vietnam
successfully
##red
Muslim
gain
bringing
Native
hers
occurs
negative
Philip
Kelly
Colorado
category
##lan
600
Have
supporting
wet
56
stairs
Grace
observed
##ung
funds
restaurant
1911
Jews
##ments
##che
Jake
Back
53
asks
journalist
accept
bands
bronze
helping
##ice
decades
mayor
survived
usual
influenced
Douglas
Hey
##izing
surrounded
retirement|C0035345|T033
Temple
derived
Pope
registered
producing
##ral
structures
Johnny
contributed
finishing
buy
specifically
##king
patients
Jordan
internal
regarding
Samuel
Clark
##q
afternoon
Finally
scenes
notice
refers
quietly
threat
Water|C0043047|T197
Those
Hamilton
promise
freedom
Turkey
breaking
maintained
device
lap
ultimately
Champion
Tim
Bureau
expressed
investigation
extremely
capable
qualified
recognition|C0524637|T041
items
##up
Indiana
adult
rain
greatest
architect
Morgan
dressed
equal
Antonio
collected
drove
occur
Grant
graduate
anger|C0002957|T041
Sri
worried|C0233481|T033
standards
##ore
injured
somewhere
damn
Singapore
Jimmy
pocket
homes
stock
religion|C0682141|T033
aware|C0004448|T041
regarded
Wisconsin
##tra
passes
fresh
##ea
argued
Ltd|C0023548|T123
EP
Diego
importance
Census
incident
Egypt
Missouri
domestic
leads
ceremony
Early
camera
Father
challenge
Switzerland
lands
familiar
hearing|C1455844|T033
spend
educated
Tennessee
Thank
##ram
Thus
concern
putting
inches
map|C0428886|T033
classical
Allen
crazy
valley
Space
softly
##my
pool
worldwide
climate
experienced
neighborhood
scheduled
neither
fleet|C0591516|T121
1908
Girl
##J
Part
engines
locations
darkness
Revolution|C2948499|T109
establishment
lawyer
objects
apparently
Queensland
Entertainment
bill
mark
Television
##ong
pale|C0030232|T033
demand
Hotel
selection|C0036576|T045
##rn
##ino
Labour|C0022864|T040
Liberal
burned|C0006434|T037
Mom
merged
Arizona
request
##lia
##light
hole
employees
##ical
incorporated
95
independence
Walker
covering
joining
##ica
task
papers
backing
sell
biggest
6th
strike
establish
##ō
gently
59
Orchestra
Winter
protein|C0033684|T123
Juan
locked
dates
Boy
aren
shooting|C1444774|T033
Luke
solid|C1378566|T122
charged
Prior
resigned
interior
garden
spoken
improve
wonder
promote
hidden
##med
combination
Hollywood
Swiss
consider
##ks
Lincoln
literary
drawing
Marine
weapon
Victor
Trust
Maryland
properties
##ara
exhibition
understood|C0162340|T041
hung
Tell
installed
loud
fashion
affected
junior
landing
flowers
##he
Internet
beach
Heart|C0018787|T023
tries
Mayor
programme
800
wins
noise
##ster
##ory
58
contain
fair
delivered
##ul
wedding
Square
advance
behavior
Program|C2728259|T109
Oregon
##rk
residence
realize
certainly
hill
Houston
57
indicated
##water
wounded
Village
massive
Moore
thousands
personnel
dating
opera
poetry
##her
causes
feelings|C1527305|T041
Frederick
applications
push
approached
foundation
pleasure
sale
fly
gotten
northeast
costs
raise
paintings
##ney
views
horses
formal
Arab
hockey
typical
representative
rising
##des
clock
stadium
shifted
Dad
peak
Fame
vice
disappeared
users
Way
Naval
prize
hoping
values
evil
Bell
consisting
##ón
Regional
##ics
improved
circle
carefully
broad
##ini
Fine
maintain
operate
offering
mention
Death|C0011065|T040
stupid
Through
Princess
attend
interests|C0543488|T041
ruled
somewhat
wings
roads
grounds
##ual
Greece
Champions
facing
hide
voted
require
Dark
Matthew
credit
sighed
separated
manner
##ile
Boys
1905
committed|C1171947|T121
impossible
lip|C0023759|T023
candidates
7th
Bruce
arranged
Islamic
courses
criminal
##ened
smell|C0037361|T040
##bed
08
consecutive
##ening
proper
purchase
weak|C3714552|T184
Prix
1906
aside
introduction
Look
##ku
changing
budget
resistance
factory
Forces
agency
##tone
northwest
user
1907
stating
##one
sport|C0038039|T056
Design
environmental
cards
concluded
Carl
250
accused
##ology
Girls
sick|C0221423|T184
intelligence|C0021704|T041
Margaret
responsibility
Guard
##tus
17th
sq
goods
1909
hate|C0018616|T041
##ek
capture
stores
Gray
comic
Modern
Silver|C0037125|T196
Andy
electronic
wheel
##ied
Deputy
##bs
Czech
zone
choose
constant
reserve
##lle
Tokyo
spirit|C1705899|T122
sub
degrees
flew
pattern
compete
Dance
##ik
secretary
Imperial
99
reduce
Hungarian
confused|C0009676|T048
##rin
Pierre
describes
regularly
Rachel
85
landed
passengers
##ise
##sis
historian
meters
Youth
##ud
participate
##cing
arrival
tired|C0557875|T184
Mother
##gy
jumped|C0560453|T033
Kentucky
faces|C0015450|T029
feed
Israeli
Ocean
##Q
##án
plus
snow|C0009170|T131
techniques
plate
sections
falls|C0085639|T033
jazz
##ris
tank
loan
repeated
opinion
##res
unless
rugby|C0035945|T056
journal
Lawrence
moments
shock|C0036974|T046
distributed
##ded
adjacent
Argentina
crossing
uncle
##ric
Detroit
communication
mental
tomorrow
session
Emma
Without
##gen
Miami
charges
Administration
hits
coat
protected
Cole
invasion|C1269955|T033
priest
09
Gary
enjoyed|C0018592|T041
plot
measure
bound
friendly
throw|C0560512|T033
musician
##lon
##ins
Age
knife
damaged
birds
driven
lit
ears|C0013443|T023
breathing|C0004048|T040
Arabic
Jan
faster
Jonathan
##gate
Independent|C1299583|T033
starred
Harris
teachers
Alice
sequence
mph|C0025810|T109
file
translated
decide
determine
Review
documents
sudden
threatened
##ft
bear
distinct
decade
burning|C0085624|T184
##sky
1930s
replace
begun
extension
##time
1904
equivalent
accompanied
Christopher
Danish
##ye
Besides
##more
persons
fallen
Rural
roughly
saved
willing|C0600109|T033
ensure
Belgium
05
musicians
##ang
giant|C0017547|T047
Six
Retrieved
worst
purposes
##bly
mountains
seventh
slipped
brick
07
##py
somehow
Carter
Iraq
cousin
favor
islands
journey
FIFA
contrast|C0009924|T130
planet
vs
calm|C0522165|T041
##ings
concrete
branches
gray
profit
Russell
##ae
##ux
##ens
philosophy
businesses
talked
parking
##ming
owners
Place
##tle
agricultural
Kate
06
southeast
draft
Eddie
earliest
forget
Dallas
Commonwealth
edited
66
inner
ed
operates
16th
Harvard
assistance
##si
designs
Take
bathroom
indicate
CEO
Command
Louisiana
1902
Dublin
Books
1901
tropical
1903
##tors
Places
tie
progress
forming
solution|C1382100|T122
62
letting
##ery
studying
##jo
duties
Baseball|C0004795|T056
taste|C0039336|T042
Reserve
##ru
Ann
##gh
visible
##vi
notably
link
NCAA
southwest
Never
storage
mobile
writers
favorite
Pro
pages
truly
count
##tta
string
kid
98
Ross
row
##idae
Kennedy
##tan
Hockey
hip
waist|C0230097|T029
grandfather
listen
##ho
feels|C0013987|T041
busy
72
stream
obvious
cycle
shaking|C0040822|T184
Knight
##ren
Carlos
painter
trail
web|C0332875|T019
linked
04
Palace
existed
##ira
responded
closing
End
examples
Marshall
weekend
jaw|C0022359|T023
Denmark
lady
township
medium
chin|C0008114|T029
Story
option
fifteen
Moon
represents
makeup
investment
jump
childhood
Oklahoma
roll
normally
Ten
Operation
Graham
Seattle
Atlanta
paused
promised
rejected
treated
returns
flag
##ita
Hungary
danger
glad
movements|C0026649|T040
visual
subjects
credited
soldier
Norman
ill|C0231218|T184
translation
José
Quebec
medicine|C0013227|T121
warning
theater
praised
municipal
01
commune
churches
acid
folk
8th
testing
add
survive
Sound
devices
residential
severe|C1519275|T033
presidential
Mississippi
Austin
Perhaps
Charlotte
hanging
Montreal
grin
##ten
racial
partnership
shoot
shift
##nie
Les|C0227192|T023
downtown
Brothers
Garden
matters
restored
mirror
forever
winners
rapidly
poverty
##ible
Until
DC
faith
hundreds
Real
Ukraine
Nelson
balance|C0014653|T040
Adams
contest
relative
ethnic
Edinburgh
composition
##nts
emergency
##van
marine
reputation
Down
pack|C1999262|T122
12th
Communist
Mountains
pro
stages
measures
##ld
ABC
Li
victims
benefit
Iowa
Broadway
gathered
rating
Defense
classic
##ily
ceiling
##ions
snapped
Everything
constituency
Franklin
Thompson
Stewart
entering
Judge
forth
##sk
wanting
smiling
moves|C0578671|T033
tunnel
premiered
grass
unusual
Ukrainian
bird
Friday
tail
Portugal
coal|C0009131|T109
element|C0013879|T196
Fred
guards
Senator
collaboration
beauty
Wood
chemical
beer
justice
signs|C0311392|T033
##Z
sees|C0042789|T040
##zi
Puerto
##zed
96
smooth
Bowl|C0336949|T056
gift
limit
97
heading
Source|C0449416|T033
wake
requires
Ed
Constitution
factor
Lane
factors
adding
Note
cleared
pictures
pink
##ola
Kent
Local
Singh
moth
Ty
##ture
courts
Seven
temporary
involving
Vienna
emerged
fishing
agree
defensive
stuck
secure
Tamil
##ick
bottle
03
Player
instruments
Spring
patient
flesh
contributions
cry
Malaysia
120
Global
da
Alabama
Within
##work
debuted
expect
Cleveland
concerns
retained
horror
10th
spending
Peace
Transport|C0005528|T043
grand
Crown|C0226993|T023
instance
institution
acted
Hills
mounted
Campbell
shouldn
1898
##ably
chamber
soil
88
Ethan
sand|C0037098|T197
cheeks|C0007966|T029
##gi
marry|C0555047|T033
61
weekly
classification
DNA|C0012854|T123
Elementary
Roy
definitely
Soon
Rights
gate
suggests
aspects
imagine
golden
beating
Studios
Warren
differences
significantly
glance
occasionally
##od
clothing
Assistant
depth
sending
possibility
mode
prisoners
requirements
daughters
dated
Representatives
prove
guilty|C0018379|T041
interesting|C0543488|T041
smoke|C0037366|T131
cricket
93
##ates
rescue
Connecticut
underground
Opera
13th
reign
##ski
thanks
leather
equipped
routes
fan
##ans
script
Wright|C1261259|T130
bishop
Welsh
jobs
faculty
eleven
Railroad
appearing
anniversary
Upper
##down
anywhere
Rugby|C0035945|T056
Metropolitan
Meanwhile
Nicholas
champions
forehead|C0016540|T029
mining
drinking|C0684271|T040
76
Jerry
membership
Brazilian
Wild
Rio
scheme
Unlike
strongly
##bility
fill
##rian
easier
MP
Hell
##sha
Stanley
banks
Baron
##ique
Robinson
67
Gabriel
Austrian
Wayne
exposed
##wan
Alfred
1899
manage
mix
visitors
eating|C0013470|T040
##rate
Sean
commission
Cemetery
policies
Camp|C0001455|T121
parallel
traveled
guitarist
02
supplies
couples
poem
blocks|C0028778|T046
Rick
Training
Energy
achieve
appointment
Wing
Jamie
63
novels
##em
1890
songwriter
Base
Jay
##gar
naval
scared
miss
labor|C0022864|T040
technique
crisis|C0231224|T033
Additionally
backed
destroy
seriously
tools
tennis|C0039515|T056
91
god
##ington
continuing
steam|C0038225|T197
obviously
Bobby
adapted
fifty
enjoy
Jacob
publishing
column|C1185738|T023
##ular
Baltimore
Donald
Liverpool
92
drugs|C0013227|T121
movies
##ock
Heritage
##je
##istic
vocal
strategy
gene
advice
##bi
Ottoman
riding
##side
Agency
Indonesia
11th
laughing
sleeping
und
muttered
listening|C0004339|T060
deck
tip
77
ownership
grey
Claire
deeply
provincial
popularity
Cooper
##á
Emily
##sed
designer
Murray
describe
Danny
Around
Parker
##dae
68
rates
suffering|C0683278|T048
considerable
78
nervous
powered
tons
circumstances
wished
belonged
Pittsburgh
flows
9th
##use
belt
81
useful
15th
context|C0449255|T033
List
Dead|C0011065|T040
Iron|C0302583|T196
seek
Season
worn
frequency
legislation
replacement|C0035139|T061
memories|C0700327|T033
Tournament
Again
Barry
organisation
copy
Gulf
waters|C0043047|T197
meets
struggle
Oliver
1895
Susan
protest
kick
Alliance
components
1896
Tower
Windows
demanded
regiment
sentence
Woman
Logan
Referee
hosts
debate
knee
Blood|C0005767|T024
##oo
universities
practices
Ward
ranking
correct
happening
Vincent
attracted
classified
##stic
processes
immediate
waste
increasingly
Helen
##po
Lucas
Phil
organ
1897
tea
suicide|C0038661|T033
actors
lb
crash
approval
waves
##ered
hated
grip|C0021400|T047
700
amongst
69
74
hunting|C4255216|T056
dying
lasted
illegal
##rum
stare|C0423086|T047
defeating
##gs
shrugged
°C
Jon
Count
Orleans
94
affairs
formally
##and
##ves
criticized
Disney
Vol
successor
tests|C0022885|T059
scholars
palace
Would
celebrated
rounds
grant
Schools
Such
commanded
demon
Romania
##all
Karl
71
##yn
84
Daily
totally
Medicine|C0013227|T121
fruit
Die|C0012144|T023
upset|C3887804|T041
Lower
Conservative
14th
Mitchell
escaped
shoes
Morris
##tz
queen
harder
prime
Thanks
indeed
Sky
authors
rocks
definition
Nazi
accounts
printed
experiences
##ters
divisions
Cathedral
denied
depending
Express
##let
73
appeal
loose
colors
filed
##isation
gender
##ew
throne
forests
Finland
domain
boats
Baker
squadron
shore
remove
##ification
careful
wound|C0043250|T037
railroad
82
seeking
agents
##ved
Blues
##off
customers
ignored
net
##ction
hiding
Originally
declined
##ess
franchise
eliminated
NBA
merely
pure
appropriate
visiting
forty
markets
offensive
coverage
cave
##nia
spell
##lar
Benjamin
##ire
Convention
filmed
Trade
##sy
##ct
Having
palm|C0230373|T029
1889
Evans
intense
plastic
Julia
document
jeans
vessel|C0005847|T023
SR
##fully
proposal
Birmingham
le
##ative
assembly
89
fund
lock
1893
AD
meetings
occupation
modified
Years
odd
aimed
reform
Mission
Works|C0043227|T057
shake|C0040822|T184
cat
exception
convinced
executed
pushing
dollars
replacing
soccer|C0037393|T056
manufacturing
##ros
expensive
kicked
minimum
Josh
coastal
Chase
ha
Thailand
publications
deputy
Sometimes
Angel
effectively
##illa
criticism
conduct
Serbian
landscape
NY
absence|C1689985|T190
passage
##ula
Blake
Indians
1892
admit
Trophy
##ball
Next
##rated
##ians
charts
kW
orchestra
79
heritage
1894
rough
exists
boundary
Bible
Legislative
moon
medieval
##over
cutting|C0152060|T061
print
##ett
birthday
##hood
destruction|C1261381|T061
Julian
injuries|C3263723|T037
influential
sisters
raising
statue
colour
dancing
characteristics
orange
##ok
##aries
Ken
colonial
twin
Larry
surviving
##shi
Barbara
personality|C0031208|T041
entertainment
assault|C0004063|T037
##ering
talent
happens
license
86
couch
Century
soundtrack
shower
swimming|C0039003|T056
cash
Staff
bent
1885
bay
lunch
##lus
dozen
vessels|C0005847|T023
CBS
greatly
critic
Test
symbol
panel
shell
output
reaches|C0596012|T033
87
Front
motor
ocean
##era
##ala
maintenance
violent
scent|C0031516|T123
Limited
Las|C1562368|T061
Hope
Theater
Which
survey
Robin
recordings
compilation
##ward
bomb
insurance
Authority
sponsored
satellite
Jazz
refer
stronger
blow|C0009170|T131
whilst
Wrestling|C0043261|T056
suggest
##rie
climbed|C0561942|T033
##els
voices
shopping|C0150768|T056
1891
Neil
discovery
##vo
##ations
burst
Baby
peaked
Brooklyn
knocked
lift
##try
false
nations
Hugh
Catherine
preserved
distinguished
terminal
resolution
ratio
pants
cited
competitions
completion
DJ
bone|C0262950|T023
uniform
schedule
shouted
83
1920s
rarely
Basketball|C0004818|T056
Taiwan
artistic
bare
vampires
arrest|C0018790|T047
Utah
Marcus
assist
gradually
qualifying
Victorian
vast
rival
Warner
Terry
Economic
##cia
losses
boss
versus
audio
runner
apply
surgery
Play|C0600138|T033
twisted
comfortable
##cs
Everyone
guests
##lt
Harrison
UEFA
lowered
occasions
##lly
##cher
chapter
youngest
eighth
Culture
##room
##stone
1888
Songs
Seth
Digital|C0582802|T023
involvement
expedition
relationships
signing
1000
fault
annually
circuit
afterwards
meat
creature
##ou
cable
Bush
##net
Hispanic
rapid
gonna
figured
extent
considering
cried
##tin
sigh|C0425481|T184
dynasty
##ration
cabinet
Richmond
stable
##zo
1864
Admiral
Unit
occasion
shares
badly
longest
##ify
Connor
extreme
wondering
girlfriend
Studio
##tions
1865
tribe
exact
muscles|C0026845|T024
hat
Luis
Orthodox
decisions
amateur
description
##lis
hips|C0019552|T023
kingdom
##ute
Portland
whereas
Bachelor|C0337600|T033
outer
discussion|C0557061|T061
partly
Arkansas
1880
dreams|C0013117|T041
perfectly
Lloyd
##bridge
asleep|C0424522|T033
##tti
Greg
permission
trading
pitch
mill
Stage
liquid|C1697794|T122
Keith
##tal
wolf
processing
stick
Jerusalem
profile
rushed
spiritual
argument
Ice|C0020746|T197
Guy
till
Delhi
roots
Section
missions
Glasgow
penalty
NBC|C0028458|T109
encouraged
identify
keyboards
##zing
##ston
disc|C0993608|T122
plain
informed
Bernard
thinks|C0039869|T041
fled
Justin
##day
newspapers
##wick
Ralph
##zer
unlike
Stars
artillery
##ified
recovered
arrangement
searching
##pers
##tory
##rus
deaths|C0011065|T040
Egyptian
diameter
##í
marketing
corporate
teach
marks
Turner
staying
hallway
Sebastian
chapel
naked|C0424470|T033
mistake
possession
1887
dominated
jacket
creative
Fellow
Falls|C0085639|T033
Defence
suspended
employment
##rry
Hebrew
Hudson
Week
Wars
recognize
Natural
controversial
Tommy
thank
Athletic
benefits
decline
intention|C0162425|T041
##ets
Lost
Wall
participation
elevation|C0439775|T061
supports
parliament
1861
concentration|C0086045|T041
Movement|C0026649|T040
##IS
competing
stops
behalf
##mm
limits
funded
discuss
Collins
departure
obtain
woods
latest
universe
alcohol|C0001962|T109
Laura
rush
blade|C2948008|T121
funny
Dennis
forgotten
Amy
Symphony
apparent
graduating
1862
Rob
Grey
collections
Mason
emotions|C0013987|T041
##ugh
literally
Any
counties
1863
nomination
fighter
habitat
respond
external
Capital
exit
Video
carbon|C0007009|T196
sharing
Bad
opportunities
Perry
photo
##mus
Orange
posted
remainder
transportation
portrayed
Labor|C0022864|T040
recommended
percussion|C0030987|T060
rated
Grade
rivers
partially
suspected
strip|C3241918|T122
adults
button
struggled
intersection
Canal|C0086881|T030
##ability
poems|C0085404|T047
claiming
Madrid
1886
Together
##our
Much
Vancouver
instrument
instrumental
1870
mad|C0002957|T041
angle
Control
Phoenix
Leo
Communications
mail
##ette
##ev
preferred
adaptation|C0000934|T040
alleged
discussed
deeper
##ane
Yet
Monday
volumes
thrown
Zane
##logy
displayed
rolling
dogs
Along
Todd
##ivity
withdrew
representation
belief
##sia
crown|C0226993|T023
Late
Short
hardly
grinned
romantic
Pete
##ken
networks
enemies
Colin
Eventually
Side
donated
##su
steady
grab
guide
Finnish
Milan
pregnant|C0549206|T033
controversy
reminded|C0557033|T061
1884
Stuart
##bach
##ade
Race
Belgian
LP
Production
Zone
lieutenant
infantry
Child
confusion|C0009676|T048
sang
resident
##ez
victim
1881
channels
Ron
businessman
##gle
Dick
colony
pace
producers
##ese
agencies
Craig
Lucy
Very
centers
Yorkshire
photography
##ched
Album
championships
Metro
substantial
Standard
terrible
directors
contribution
advertising
emotional|C0849912|T033
##its
layer
segment
sir
folded
Roberts
ceased
Hampshire
##ray
detailed
partners
m²
##pt
Beth
genre
commented
generated
remote
aim
Hans
credits
concerts
periods|C0025344|T040
breakfast|C2698559|T056
gay
shadow
defence
Too
Had
transition
Afghanistan
##book
eggs
defend
##lli
writes
Systems
bones|C0262950|T023
mess
seed
scientists
Shortly
Romanian
##zy
Freedom
muscle|C0026845|T024
hero
parent
agriculture
checked
Islam
Bristol
Freyja
Arena
cabin
Germans
electricity
ranks
viewed
medals
Wolf
associate
Madison
Sorry
fort
Chile
detail
widespread
attorney
boyfriend
##nan
Students
Spencer
##ig
bite|C0005658|T037
Maine
demolished
Lisa
erected
Someone
operational
Commissioner
NHL
Coach
Bar
forcing
Dream|C0013117|T041
Rico
cargo
Murphy
##fish
##ase
distant
##master
##ora
Organization
doorway
Steven
traded
electrical
frequent
##wn
Branch
Sure
1882
placing
Manhattan
attending
attributed
excellent
pounds
ruling
principles
component
Mediterranean
Vegas
machines
percentage
infrastructure
throwing|C0560512|T033
affiliated
Kings
secured
Caribbean
Track
Ted
honour
opponent
Virgin|C0555061|T033
Construction|C0441513|T061
grave
produces
Challenge
stretched
paying
murmured
##ata
integrated
waved
Nathan
##ator
transmission
videos
##yan
##hu
Nova
descent
AM
Harold
conservative
Therefore
venue
competitive
##ui
conclusion
funeral
confidence|C0237529|T041
releases|C1963578|T061
scholar
##sson
Treaty
stress|C0038435|T033
mood|C0026516|T041
##sm
Mac
residing
Action
Fund
##ship
animated
fitted
##kar
defending
voting
tend
##berry
answers
believes
##ci
helps
Aaron
##tis
themes
##lay
populations
Players
stroke|C0038454|T047
Trinity
electoral
paint
abroad
charity
keys
Fair
##pes
interrupted
participants
murdered
Days
supporters
##ab
expert
borders
mate
##llo
solar
architectural
tension|C0233494|T048
##bling
Parish
tape
operator
Cultural
Clinton
indicates
publisher
ordinary
sugar|C0242209|T109
arrive
rifle
acoustic
##uring
assets
##shire
SS
sufficient
options
HMS
Classic
bars
rebuilt
governments
Beijing
reporter
screamed
Abbey
crying
mechanical
instantly
communications
Political
cemetery
Cameron
Stop
representatives
USS
texts
mathematics
innings
civilian
Serbia
##hill
practical
patterns
dust
Faculty
debt|C0581901|T033
##end
##cus
junction
suppose
experimental
Computer
Food
wrist|C0043262|T029
abuse
dealing
bigger
cap
principle
##pin
Muhammad
Fleet|C0591516|T121
Collection
attempting
dismissed
##burn
regime
Herbert
##ua
shadows
1883
Eve
Lanka
1878
Performance
fictional
##lock
Noah
Run
Voivodeship
exercise|C0015259|T056
broadcasting
##fer
RAF
Magic
Bangladesh
suitable
##low
##del
styles
toured
Code
identical
links
insisted
110
flash|C0262485|T060
Model
slave
Derek
Rev
fairly
Greater
sole|C0230463|T029
##lands
connecting
zero
bench
##ome
switched
Fall|C0085639|T033
Owen
yours
Electric
shocked|C0036974|T046
convention
##bra
climb|C0561942|T033
memorial
swept
Racing
decides
belong
##nk
parliamentary
##und
ages
proof
##dan
delivery|C0011209|T061
1860
##ów
sad|C0085159|T048
publicly
leaning
Archbishop
dirt|C1563093|T023
##ose
categories
1876
burn|C0006434|T037
##bing
requested
Guinea
Historical
rhythm
relation
##heim
ye
pursue
merchant
##mes
lists
continuous
frowned
colored
tool
gods
involves
Duncan
photographs
Cricket
slight
Gregory
atmosphere
wider
Cook
##tar
essential
Being
FA
emperor
wealthy
nights
##bar
licensed
Hawaii
viewers
Language
load
nearest
milk
kilometers
platforms
##ys
territories
Rogers
sheet
Rangers
contested
##lation
isolated
assisted
swallowed
Small
Contemporary
Technical
Edwards
express
Volume
endemic
##ei
tightly
Whatever
indigenous
Colombia
##ulation
hp
characterized
##ida
Nigeria
Professional
duo
Soccer|C0037393|T056
slaves
Farm
smart
Attorney
Attendance
Common
salt|C0037494|T197
##vin
tribes
nod
sentenced
bid
sample
Drive|C0013126|T041
switch
instant
21st
Cuba
drunk|C0001969|T048
Alaska
proud
awareness|C0004448|T041
hitting
sessions
Thai
locally
elsewhere
Dragon
gentle|C0720654|T121
touching
##lee
Springs
Universal
Latino
spin
1871
Chart
recalled
Type
pointing
##ii
lowest
##ser
grandmother
Adelaide
Jacques
spotted
Buffalo
restoration
Son
Joan
farmers
Lily
1879
lucky
##dal
luck
eldest
##rant
Market
drummer
deployed
warned
prince
sing
amazing
sailed
##oon
1875
Primary|C0439631|T061
traveling|C0040802|T056
Masters
Sara
cattle
Trail
gang
Further
desert
relocated
##tch
##ord
Flight
illness|C0221423|T184
Munich
ninth
repair|C0374711|T061
Singles
##lated
Tyler
tossed
boots
Work|C0043227|T057
sized
earning
shoved
magazines
housed
dam
researchers
Former
spun
premiere
spaces
organised
wealth
crimes
devoted
stones
Urban|C0724128|T121
automatic
hop
affect|C0001721|T041
outstanding
tanks
mechanism
Muslims
Ms
shots
argue
Jeremy
connections
Armenian
increases
rubbed
1867
retail
gear
Pan
bonus
jurisdiction
weird
concerning
whisper
##gal
Microsoft
tenure
hills
www
Gmina
porch
files
reportedly
venture
Storm
##ence
Nature
killer
panic|C0030318|T033
fate
Secret
Wang
scream
drivers
belongs
Chamber
clan
monument
mixing
Peru
bet
Riley
Friends
Isaac
submarine
1877
130
judges
harm
ranging
affair
prepare
pupils|C0034121|T023
householder
Policy
decorated
Nation
slammed
activist
implemented
Room
qualify
Publishing
establishing
Baptist
touring
subsidiary
##nal
legend|C2729544|T121
1872
laughter
PC
Athens
settlers
ties
dual
dear
Draft
strategic
Ivan
reveal
closest
dominant
Ah
##ult
Denver
bond
boundaries
drafted
tables
##TV
eyed
Edition
##ena
1868
belonging
1874
Industrial
cream|C1378128|T122
Ridge
Hindu
scholarship
Ma
opens
initiated
##ith
yelled
compound
random
Throughout
grades
physics
sank
grows
exclusively
settle|C1266099|T191
Saints
brings
Amsterdam
Make
Hart
walks|C0600108|T033
battery
violin
##born
explanation
##ware
1873
##har
provinces
thrust
exclusive
sculpture
shops
##fire
VI
constitution
Barcelona
monster|C0026505|T019
Devon
Jefferson
Sullivan
bow
##din
desperate
##ć
Julie
##mon
##ising
terminus
Jesse
abilities
golf|C0018041|T056
##ple
##via
##away
Raymond
measured
jury
firing
revenue
suburb
Bulgarian
1866
##cha
timber
Things
##weight
Morning
spots|C0848332|T184
Alberta
Data
explains
Kyle
friendship
raw
tube
demonstrated
aboard
immigrants
reply
breathe
Manager
ease
##ban
##dia
Diocese
##vy
##ía
pit|C0175697|T047
ongoing
##lie
Gilbert
Costa|C0035561|T023
1940s
Report
voters
cloud
traditions
##MS
gallery
Jennifer
swung
Broadcasting
Does
diverse
reveals
arriving
initiative|C0424093|T041
##ani
Give
Allied
Pat
Outstanding
monastery
blind
Currently
##war
bloody
stopping|C0723457|T197
focuses
managing|C1273870|T057
Florence
Harvey
creatures
900
breast|C0006141|T023
internet
Artillery
purple
##mate
alliance
excited
fee
Brisbane
lifetime
Private
##aw
##nis
##gue
##ika
phrase
regulations
reflected
manufactured
conventional
pleased
client
##ix
##ncy
Pedro
reduction|C0441610|T061
##con
welcome
jail
comfort
Iranian
Norfolk
Dakota
##tein
evolution
everywhere
Initially
sensitive|C0020517|T046
Olivia
Oscar
implementation
sits|C0728713|T033
stolen
demands
slide
grandson
##ich
merger
##mic
Spirit|C1705899|T122
##°
ticket
root|C0040452|T023
difficulty|C1299586|T033
Nevada
##als
lined
Dylan
Original
Call
biological
EU
dramatic
##hn
Operations
treaty
gap
##list
Am
Romanized
moral
Butler
perspective
Furthermore
Manuel
absolutely
unsuccessful
disaster
dispute
preparation
tested
discover
##ach
shield
squeezed
brushed
battalion
Arnold
##ras
superior
treat|C0087111|T061
clinical
##so
Apple|C2702351|T129
Syria
Cincinnati
package
flights
editions
Leader
minority
wonderful
hang
Pop|C0175314|T023
Philippine
telephone
bell
honorary
##mar
balls
Democrat
dirty
thereafter
collapsed|C0344329|T033
Inside
slip
wrestling|C0043261|T056
##ín
listened
regard
bowl|C0336949|T056
None
Sport|C0038039|T056
completing
trapped
##view
copper|C0009968|T123
Wallace
Honor
blame
Peninsula
##ert
##oy
Anglo
bearing
simultaneously
honest
##ias
Mix
Got
speaker
voiced
impressed
prices
error
1869
##feld
trials
Nine
Industry
substitute
Municipal
departed
slept
##ama
Junction
Socialist
flower
dropping
comment
fantasy
##ress
arrangements
travelled
furniture
fist
relieved
##tics
Leonard
linear
earn
expand
Soul
Plan|C0270724|T047
Leeds
Sierra
accessible
innocent
Winner
Fighter
Range
winds
vertical
Pictures
101
charter
cooperation
prisoner
interviews
recognised
sung
manufacturer
exposure|C0274281|T037
submitted
Mars
leaf
gauge
screaming
likes
eligible
##ac
gathering
columns
##dra
belly|C0224086|T023
UN
maps
messages
speakers
##ants
garage
unincorporated
Number
Watson
sixteen
lots
beaten
Could
Municipality
##ano
Horse
talks|C0600118|T033
Drake
scores
Venice
genetic|C0017296|T061
##mal
##ère
Cold|C0009443|T047
Jose
nurse
traditionally
##bus
Territory
Key
Nancy
##win
thumb|C0040067|T023
São
index
dependent
carries|C0699809|T033
controls
Comics
coalition
physician
referring
Ruth
Based
restricted
inherited
internationally
stretch|C0600080|T061
THE
plates
margin
Holland
knock
significance
valuable
Kenya
carved
emotion|C0013987|T041
conservation
municipalities
overseas
resumed
Finance
graduation
blinked
temperatures
constantly
productions
scientist
ghost
cuts|C0000925|T037
permitted
##ches
firmly
##bert
patrol
##yo
Croatian
attacking
1850
portrait
promoting
sink
conversion
##kov
locomotives
Guide
##val
nephew
relevant
Marc
drum
originated
Chair
visits
dragged
Price
favour
corridor
properly
respective
Caroline
reporting
inaugural
1848
industries
##ching
edges
Christianity
Maurice
Trent
Economics
carrier|C0007294|T033
Reed
##gon
tribute
Pradesh
##ale
extend
attitude|C0004271|T041
Yale
##lu
settlements
glasses
taxes
targets
##ids
quarters
##ological
connect
hence
metre
collapse|C0344329|T033
underneath
banned
Future
clients
alternate
explosion|C0005700|T037
kinds
Commons
hungry|C0020175|T184
dragon
Chapel
Buddhist
lover
depression|C0011581|T048
pulls|C0580846|T033
##ges
##uk
origins
computers
crosses
kissing
assume
emphasis
lighting
##ites
personally
crashed
beam
touchdown
lane
comparison
##mont
Hitler
##las
execution
##ene
acre
sum|C0228378|T023
Pearl
ray
##point
essentially
worker
convicted
tear|C0043246|T037
Clay
recovery
Literature
Unfortunately
##row
partial
Petersburg
Bulgaria
coaching
evolved
reception
enters
narrowed
elevator
therapy|C0087111|T061
defended
pairs
##lam
breaks
Bennett
Uncle
cylinder
##ison
passion|C0939808|T121
bases
Actor
cancelled
battles
extensively
oxygen|C0030054|T121
Ancient
specialized
negotiations
##rat
acquisition
convince
interpretation
##00
photos
aspect
colleges
Artist
keeps
##wing
Croatia
##ona
Hughes
Otto
comments
##du
Ph
Sweet
adventure
describing
Student
Shakespeare
scattered
objective
Aviation
Phillips
Fourth
athletes
##hal
##tered
Guitar
intensity
née
dining
curve
Obama
topics
legislative
Mill
Cruz
##ars
Members
recipient
Derby
inspiration|C0004048|T040
corresponding
fed
YouTube
coins
pressing
intent|C0162425|T041
Karen
cinema
Delta
destination
shorter
Christians
imagined
canal|C0086881|T030
Newcastle
Shah
Adrian
super
Males
160
liberal
lord
bat|C0006298|T024
supplied
Claude
meal
worship
##atic
Han
wire
°F
##tha
punishment
thirteen
fighters
##ibility
1859
Ball
gardens
##ari
Ottawa
pole
indicating
Twenty
Higher
Bass
Ivy
farming
##urs
certified
Saudi
plenty
##ces
restaurants
Representative
Miles
payment
##inger
##rit
Confederate
festivals
references
##ić
Mario
PhD
playoffs
witness
rice|C3484401|T121
mask
saving
opponents
enforcement
automatically
relegated
##oe
radar
whenever
Financial
imperial
uncredited
influences
Abraham
skull|C0037303|T023
Guardian
Haven
Bengal
impressive
input
mixture
Warsaw
altitude
distinction
1857
collective
Annie
##ean
##bal
directions
Flying|C0441659|T056
##nic
faded
##ella
contributing
##ó
employee
##lum
##yl
ruler
oriented|C1961028|T033
conductor
focusing|C2981153|T033
##die
Giants|C0017547|T047
Mills
mines
Deep
curled
Jessica
guitars
Louise
procedure|C0184661|T061
Machine
failing
attendance
Nepal
Brad
Liam
tourist
exhibited
Sophie
depicted
Shaw
Chuck
##can
expecting
challenges
##nda
equally
resignation
##logical
Tigers
loop
pitched
outdoor
reviewed
hopes
True
temporarily
Borough
torn|C0043246|T037
jerked|C0231530|T033
collect
Berkeley
Independence
cotton|C2727825|T121
retreat
campaigns
participating
Intelligence|C0021704|T041
Heaven
##ked
situations
borough
Democrats
Harbor
##len
Liga
serial
circles
fourteen
##lot
seized
filling
departments
finance
absolute
Roland
Nate|C0228405|T023
floors
raced
struggling
deliver
protests
##tel
Exchange
efficient
experiments
##dar
faint|C0039070|T184
3D
binding
Lions
lightly
skill
proteins|C0033684|T116
difficulties|C1299586|T033
##cal
monthly
camps|C0006811|T056
flood
loves|C0024028|T041
Amanda
Commerce
##oid
##lies
elementary
##tre
organic
##stein
##ph
receives
Tech
enormous
distinctive
Joint|C0022417|T030
experiment
Circuit
citizen
##hy
shelter
ideal
practically
formula
addressed
Foster
Productions
##ax
variable
punk
Voice
fastest
concentrated
##oma
##yer
stored
surrender
vary
Sergeant
Wells
ward
Wait
##ven
playoff
reducing
cavalry
##dle
Venezuela
tissue|C0040300|T024
amounts
sweat|C0038990|T033
##we
Non
##nik
beetle
##bu
##tu
Jared
Hunt
##₂
fat|C0015677|T121
Sultan
Living
Circle
Secondary
Suddenly
reverse
##min
Travel|C0040802|T056
##bin
Lebanon
##mas
virus
Wind|C0016204|T184
dissolved
enrolled
holiday
Keep
helicopter
Clarke
constitutional
technologies
doubles
instructions
##ace
Azerbaijan
##ill
occasional
frozen
trick
wiped
writings
Shanghai
preparing
challenged
mainstream
summit
180
##arian
##rating
designation
##ada
revenge
filming
tightened
Miguel
Montana
reflect|C0558058|T041
celebration
bitch
flashed
signals
rounded
peoples
##tation
renowned
Google
characteristic
Campaign
sliding
##rman
usage
Record
Using
woke
solutions
holes
theories
logo
Protestant
relaxed
brow
nickname
Reading|C0034754|T056
marble
##tro
symptoms
Overall
capita
##ila
outbreak
revolution|C2948499|T109
deemed
Principal
Hannah
approaches
inducted
Wellington
vulnerable
Environmental
Drama
incumbent
Dame
1854
travels|C0040802|T056
samples
accurate
physically
Sony
Nashville
##sville
##lic
##og
Producer
Lucky
tough
Stanford
resort
repeatedly
eyebrows|C0015420|T023
Far
choir
commenced
##ep
##ridge
rage
swing
sequel
heir
buses
ad
Grove
##late
##rick
updated
##SA
Delaware
##fa
Athletics
warmth
Off
excitement|C0233571|T041
verse
Protection
Villa
corruption
intellectual
Jenny
##lyn
mystery
prayer
healthy
##ologist
Bear
lab
Ernest
Remix
register
basement
Montgomery
consistent
tier
1855
Preston
Brooks
##maker
vocalist
laboratory|C0022885|T059
delayed
wheels
rope
bachelor|C0337600|T033
pitcher
Block|C0028778|T046
Nevertheless
suspect
efficiency
Nebraska
siege
FBI
planted
##AC
Newton
breeding
##ain
eighteen
Argentine
encounter
servant
1858
elder|C0994408|T109
Shadow
Episode
fabric
doctors
survival
removal|C0015252|T061
chemistry
volunteers
Kane
variant
arrives
Eagle
Left
##fe
Jo
divorce|C0086170|T033
##ret
yesterday
Bryan
handling
diseases|C0012634|T047
customer
Sheriff
Tiger
Harper
##oi
resting|C0035253|T056
Linda
Sheffield
gasped
sexy
economics
alien
tale
footage
Liberty
yeah
fundamental
Ground
flames
Actress
photographer
Maggie
Additional
joke
custom
Survey
Abu
silk|C0074529|T121
consumption
Ellis
bread
##uous
engagement|C0425152|T033
puts
Dog
##hr
poured
guilt|C0018379|T041
CDP|C0010724|T114
boxes
hardware
clenched
##cio
stem
arena
extending
##com
examination
Steel
encountered
revised
140
picking
Car
hasn
Minor
pride
Roosevelt
boards
##mia
blocked|C0028778|T046
curious
drag|C1562415|T033
narrative
brigade
Prefecture
mysterious
namely
connects
Devil
historians
CHAPTER
quit
installation
Golf|C0018041|T056
empire
elevated
##eo
releasing
Bond
##uri
harsh
ban
##BA
contracts
cloth
presents
stake
chorus
##eau
swear|C0233730|T033
##mp
allies
generations
Motor
meter
pen
warrior
veteran
##EC
comprehensive
missile
interaction|C0687133|T044
instruction
Renaissance
rested|C0035253|T056
Dale
fix
fluid
les|C0227192|T023
investigate
loaded
widow|C0206275|T033
exhibit
artificial
select
rushing
tasks
signature
nowhere
Engineer
feared
Prague
bother
extinct
gates
Bird
climbing|C0561942|T033
heels|C0018870|T029
striking
artwork
hunt
awake|C0234422|T033
##hin
Formula
thereby
commitment
imprisoned
Beyond
##MA
transformed
Agriculture
Low
Movie
radical
complicated
Yellow
Auckland
mansion
tenth
Trevor
predecessor
##eer
disbanded
sucked|C0677049|T033
circular
witch
gaining
lean
Behind
illustrated
rang
celebrate
bike
consist
framework
##cent
Shane
owns
350
comprises
collaborated
colleagues
##cast
engage
fewer
##ave
1856
observation
diplomatic
legislature
improvements
Interstate
craft
MTV
martial
administered
jet
approaching
permanently
attraction
manuscript
numbered
Happy|C0018592|T041
Andrea
shallow
Gothic
Anti
##bad
improvement
trace
preserve
regardless
rode
dies
achievement
maintaining
Hamburg
spine|C0037949|T023
##air
flowing
encourage
widened
posts
##bound
125
Southeast
Santiago
##bles
impression
receiver
Single
closure|C0185003|T061
##unt
communist
honors
Northwest
105
##ulated
cared
un
hug
magnetic
seeds
topic
perceived
prey
prevented
Marvel
Eight
Michel
Transportation
rings
Gate
##gne
Byzantine
accommodate
floating
##dor
equation
ministry
##ito
##gled
Rules
earthquake
revealing
Brother
Celtic
blew
chairs
Panama
Leon
attractive
descendants
Care
Ambassador
tours
breathed
threatening
##cho
smiles|C0517048|T033
Lt
Beginning
##iness
fake
assists
fame
strings
Mobile
Liu
parks
http
1852
brush
Aunt
bullet
consciousness|C0234421|T041
##sta
##ther
consequences
gather
dug
1851
bridges
Doug
##sion
Artists
ignore
Carol
brilliant
radiation|C1522449|T061
temples
basin
clouds
##cted
Stevens
spite
soap
consumer
Damn
Snow|C0009170|T109
recruited
##craft
Advanced
tournaments
Quinn
undergraduate
questioned
Palmer
Annual
Others
feeding
Spider
printing
##orn
cameras
functional
Chester
readers
Alpha
universal
Faith
Brandon
François
authored
Ring
el
aims
athletic
possessed
Vermont
programmes
##uck
bore
Fisher
statements
shed
saxophone
neighboring
pronounced
barrel
bags
##dge
organisations
pilots
casualties
Kenneth
##brook
silently
Malcolm
span
Essex
anchor|C1293132|T061
##hl
virtual
lessons
Henri
Trump
Page|C0013862|T059
pile|C0019112|T047
locomotive
wounds|C0043250|T037
uncomfortable
sustained
Diana
Eagles
##pi
2000s
documented
##bel
Cassie
delay
kisses
##ines
variation
##ag
growled
##mark
##ways
Leslie
studios
Friedrich
aunt
actively
armor
eaten
historically
Better
purse
honey|C0939937|T109
ratings
##ée
naturally
1840
peer
Kenny
Cardinal
database
Looking
runners
handsome
Double
PA
##boat
##sted
protecting
##jan
Diamond|C0057717|T196
concepts
interface
##aki
Watch
Article
Columbus
dialogue
pause
##rio
extends
blanket
pulse
1853
affiliate
ladies
Ronald
counted
kills
demons
##zation
Airlines
Marco
Cat
companion
mere
Yugoslavia
Forum
Allan
pioneer
Competition
Methodist
patent
nobody
Stockholm
##ien
regulation
##ois
accomplished
##itive
washed
sake
Vladimir
crops
prestigious
humor|C0597811|T061
Sally
labour|C0022864|T040
tributary
trap
altered
examined
Mumbai
bombing
Ash
noble
suspension|C0038960|T122
ruins
##bank
spare
displays
guided
dimensional
Iraqi
##hon
sciences
Franz
relating
fence
followers
Palestine
invented
proceeded
Batman
Bradley
##yard
##ova
crystal|C1378554|T122
Kerala
##ima
shipping
handled
Want
abolished
Drew
##tter
Powell
Half
##table
##cker
exhibitions
Were
assignment
assured
##rine
Indonesian
Grammy
acknowledged
Kylie
coaches
structural
clearing
stationed
Say
Total
Rail
besides
glow
threats
afford
Tree
Musical
##pp
elite
centered
explore
Engineers
Stakes
Hello
tourism
severely
assessment
##tly
crack|C0085163|T109
politicians
##rrow
sheets
volunteer
##borough
##hold
announcement
recover
contribute
lungs|C0024109|T023
##ille
mainland
presentation
Johann
Writing|C2584304|T041
1849
##bird
Study
Boulevard
coached
fail
airline
Congo
Plus
Syrian
introduce
ridge
Casey
manages
##fi
searched
Support|C0344211|T061
succession
progressive
coup
cultures
##lessly
sensation|C0036658|T042
Cork|C0304066|T109
Elena
Sofia
Philosophy
mini
trunk|C0460005|T029
academy
Mass|C0577559|T033
Liz
practiced
Reid
##ule
satisfied
experts
Wilhelm
Woods
invitation
Angels
calendar
joy|C0018592|T041
Sr
Dam
packed|C0184967|T061
##uan
bastard
Workers
broadcasts
logic
cooking
backward
##ack
Chen
creates
enzyme|C0014442|T126
##xi
Davies
aviation
VII
Conservation
fucking
Knights
##kan
requiring
hectares
wars
ate|C0004135|T047
##box
Mind
desired
oak|C0338508|T047
absorbed
Really
Vietnamese
Paulo
athlete
##car
##eth
Talk
Wu
##cks
survivors
Yang
Joel
Almost
Holmes
Armed
Joshua
priests
discontinued
##sey
blond
Rolling
suggesting
CA
clay
exterior
Scientific
##sive
Giovanni
Hi
farther
contents
Winners
animation
neutral
mall
Notes
layers
professionals
Armstrong
Against
Piano
involve
monitor
angel
parked
bears
seated
feat
beliefs
##kers
Version
suffer|C0683278|T048
##ceae
guidance
##eur
honored
raid
alarm
Glen
Ellen
Jamaica
trio
enabled|C0562342|T041
##ils
procedures|C0184661|T061
##hus
moderate
upstairs
##ses
torture
Georgian
rebellion
Fernando
Nice
##are
Aires
Campus
beast
##hing
1847
##FA
Isle
##logist
Princeton
cathedral
Oakland
Solomon
##tto
Milwaukee
upcoming
midfielder
Neither
sacred
Eyes|C0015392|T023
appreciate
Brunswick
secrets
Rice|C3484401|T121
Somerset
Chancellor
Curtis
##gel
Rich
separation|C0036679|T046
grid
##los
##bon
urge
##ees
##ree
freight
towers
psychology
requirement
dollar
##fall
##sman
exile
tomb
Salt|C0037494|T197
Stefan
Buenos
Revival
Porter
tender
diesel
chocolate|C2728194|T121
Eugene
Legion
Laboratory|C0022885|T059
sheep
arched
hospitals
orbit|C0029180|T030
Full
##hall
drinks
ripped
##RS
tense|C0235108|T184
Hank
leagues
##nberg
PlayStation
fool
Punjab
relatives
Comedy
sur|C0038880|T121
1846
Tonight
Sox
##if
Rabbi
org
speaks|C0600116|T033
institute
defender
painful|C0030193|T184
wishes
Weekly
literacy
portions
snake
item
deals
##tum
autumn
sharply
reforms
thighs|C0039866|T029
prototype
##ition
argues
disorder|C0012634|T047
Physics
terror
provisions
refugees
predominantly
independently
march
##graphy
Arabia
Andrews
Bus|C0006463|T121
Money
drops|C0991568|T122
##zar
pistol
matrix|C4050026|T121
revolutionary
##ust
Starting
##ptic
Oak|C0338508|T047
Monica
##ides
servants
##hed
archaeological
divorced|C0086170|T033
rocket
enjoying
fires
##nel
assembled
qualification
retiring|C0035345|T033
##fied
Distinguished
handful
infection|C0009450|T047
Durham
##itz
fortune
renewed
Chelsea
##sley
curved
gesture
retain
exhausted|C0392674|T184
##ifying
Perth
jumping|C0221189|T056
Palestinian
Simpson
colonies
steal
##chy
corners
Finn
arguing
Martha
##var
Betty
emerging
Heights
Hindi
Manila
pianist
founders
regret
Napoleon
elbow|C0013769|T029
overhead
bold
praise
humanity
##ori
Revolutionary
##ere
fur
##ole
Ashley
Official
##rm
lovely
Architecture
##sch
Baronet
virtually
##OS
descended
immigration
##das
##kes
Holly
Wednesday
maintains
theatrical
Evan
Gardens
citing
##gia
segments
Bailey
Ghost
##city
governing
graphics
##ined
privately
potentially
transformation
Crystal|C1378554|T122
Cabinet
sacrifice
hesitated
mud
Apollo
Desert
bin
victories
Editor
Railways
Web|C0332875|T019
Case
tourists
Brussels
Franco
compiled
topped
Gene
engineers
commentary
egg
escort
nerve|C0027740|T024
arch
necessarily
frustration|C0016770|T041
Michelle
democracy
genes
Facebook
halfway
##ient
102
flipped
Won
##mit
NASA
Lynn
Provincial
ambassador
Inspector
glared
Change
McDonald
developments
tucked
noting
Gibson
circulation
dubbed
armies
resource
Headquarters
##iest
Mia
Albanian
Oil|C1947940|T122
Albums
excuse
intervention
Grande
Hugo
integration
civilians
depends
reserves
Dee
compositions
identification|C0020792|T041
restrictions
quarterback
Miranda
Universe
favourite
ranges
hint
loyal
Op
entity
Manual
quoted
dealt
specialist
Zhang
download
Westminster
Rebecca
streams
Anglican
variations
Mine
detective
Films
reserved
##oke
##key
sailing|C0522727|T056
##gger
expanding
recall
discovers
particles
behaviour
Gavin
blank
permit
Java
Fraser
Pass
##non
##TA
panels
statistics
notion
courage
dare
venues
##roy
Box
Newport
travelling
Thursday
warriors
Glenn
criteria
360
mutual
restore
varied
bitter
Katherine
##lant
ritual|C0233622|T048
bits
##à
Henderson
trips
Richardson
Detective
curse
psychological
Il
midnight
streak
facts
Dawn
Indies
Edmund
roster
Gen
##nation
1830
congregation
shaft
##ically
##mination
Indianapolis
Sussex
loving|C0024028|T041
##bit
sounding|C1293120|T059
horrible
Continental
Griffin
advised
magical
millions
##date
1845
Safety
lifting
determination
valid
dialect
Penn
Know
triple
avoided
dancer
judgment|C0022423|T041
sixty
farmer
lakes
blast
aggressive
Abby
tag|C0037293|T191
chains
inscription
##nn
conducting
Scout
buying
##wich
spreading
##OC
array
hurried
Environment
improving
prompted
fierce
Taking
Away
tune
pissed
Bull
catching|C0231617|T184
##ying
eyebrow|C0015420|T023
metropolitan
terrain
##rel
Lodge
manufacturers
creator
##etic
happiness|C0018592|T041
ports
##ners
Relations
fortress
targeted
##ST
allegedly
blues
##osa
Bosnia
##dom
burial|C4064401|T033
similarly
stranger
pursued
symbols
rebels
reflection
routine
traced
indoor
eventual
##ska
##ão
##una
MD
##phone
oh
grants
Reynolds
rid|C0073361|T109
operators
##nus
Joey
vital
siblings
keyboard
br
removing
societies
drives|C0013126|T041
solely
princess
lighter
Various|C0440102|T130
Cavalry
believing
SC
underwent
relay
smelled|C0037361|T040
syndrome|C0039082|T047
welfare
authorized
seemingly
Hard
chicken|C2722032|T121
##rina
Ages
Bo
democratic
barn
Eye|C0015392|T023
shorts
##coming
##hand
disappointed
unexpected
centres
Exhibition
Stories
Site
banking
accidentally
Agent
conjunction
André
Chloe
resist
width
Queens
provision
##art
Melissa
Honorary
Del
prefer
abruptly
duration|C2926735|T121
##vis
Glass|C0025611|T131
enlisted
##ado
discipline
Sisters
carriage
##ctor
##sburg
Lancashire
log|C0228228|T023
fuck
##iz
closet
collecting
holy
rape
trusted
cleaning|C0542277|T033
inhabited
Rocky
104
editorial
##yu
##ju
succeed
strict
Cuban
##iya
Bronze
outcome
##ifies
##set
corps
Hero
barrier
Kumar
groaned
Nina
Burton
enable|C0562342|T041
stability
Milton
knots
##ination
slavery
##borg
curriculum
trailer
warfare
Dante
Edgar
revival
Copenhagen
define
advocate
Garrett
Luther
overcome
pipe
750
construct
Scotia
kings
flooding|C0021114|T061
##hard
Ferdinand
Felix
forgot
Fish
Kurt
elaborate
##BC
graphic
gripped
colonel
Sophia
Advisory
Self
##uff
##lio
monitoring
seal
senses|C0036658|T042
rises
peaceful
journals
1837
checking
legendary
Ghana
##power
ammunition
Rosa
Richards
nineteenth
ferry
aggregate
Troy
inter
##wall
Triple
steep
tent
Cyprus
1844
##woman
commanding
farms
doi
navy
specified
na
cricketer
transported
Think|C0039869|T041
comprising
grateful
solve
##core
beings
clerk
grain
vector
discrimination|C0012632|T041
##TC
Katie
reasonable
drawings
veins|C0042449|T023
consideration
Monroe
repeat
breed
dried
witnessed
ordained
Current
spirits
remarkable
consultant
urged
Remember
anime
singers
phenomenon
Rhode
Carlo
demanding
findings
manual
varying
Fellowship
generate
safely
heated
withdrawn
##ao
headquartered
##zon
##lav
##ency
Col
Memphis
imposed
rivals
Planet
healing|C0043240|T040
##hs
ensemble
Warriors
##bone
cult
Frankfurt
##HL
diversity
Gerald
intermediate
##izes
reactions
Sister
##ously
##lica
quantum
awkward
mentions
pursuit
##ography
varies
profession
molecular
consequence
lectures
cracked
103
slowed
##tsu
cheese
upgraded
suite
substance
Kingston
1800
Idaho
Theory
##een
ain|C0347129|T191
Carson
Molly
##OR
configuration
Whitney
reads|C0034754|T056
audiences
##tie
Geneva
Outside
##nen
##had
transit
volleyball
Randy
Chad
rubber|C0035918|T109
motorcycle
respected
eager|C0558083|T041
Level
coin
##lets
neighbouring
##wski
confident
##cious
poll
uncertain|C0087130|T033
punch
thesis
Tucker
IATA
Alec|C0104263|T121
##ographic
##law
1841
desperately
1812
Lithuania
accent
Cox|C0033551|T116
lightning
skirt
##load
Burns|C0006434|T037
Dynasty
##ug
chapters
Working|C0043227|T057
dense
Morocco
##kins
casting
Set
activated
oral
Brien
horn
HIV|C0019693|T047
dawn
stumbled
altar
tore
considerably
Nicole
interchange
registration
biography
Hull
Stan
bulk
consent
Pierce
##ER
Fifth
marched
terrorist
##piece
##itt
Presidential
Heather
staged
Plant
relegation
sporting|C0038039|T056
joins
##ced
Pakistani
dynamic
Heat
##lf
ourselves
Except
Elliott
nationally
goddess
investors
Burke
Jackie
##ā
##RA
Tristan
Associate
Tuesday
scope
Near
bunch
##abad
##ben
sunlight
##aire
manga
Willie
trucks
boarding
Lion
lawsuit
Learning|C0023185|T041
Der
pounding
awful
##mine
IT
Legend|C2729544|T121
romance
Serie
AC
gut
precious
Robertson
hometown
realm
Guards
Tag|C0037293|T191
batting
##vre
halt
conscious|C0234421|T041
1838
acquire
collar
##gg
##ops
Herald
nationwide
citizenship
Aircraft
decrease
em
Fiction
Female
corporation
Located
##ip
fights
unconscious|C0041657|T033
Tampa
Poetry
lobby
Malta
##sar
##bie
layout
Tate
reader
stained
##bre
##rst
##ulate
loudly
Eva
Cohen
exploded
Merit
Maya
##rable
Rovers
##IC
Morrison
Should
vinyl|C0032624|T109
##mie
onwards
##gie
vicinity
Wildlife
probability
Mar|C0430991|T059
Barnes
##ook
spinning
Moses
##vie
Surrey
Planning|C0032074|T041
conferences
protective
Plaza
deny
Canterbury
manor
Estate
tilted
comics
IBM|C0238190|T047
destroying
server
Dorothy
##horn
Oslo
lesser
heaven
Marshal
scales
strikes
##ath
firms
attract
##BS
controlling
Bradford
southeastern
Amazon
Travis
Janet
governed
1842
Train
Holden
bleeding|C0019080|T046
gifts
rent
1839
palms
##ū
judicial
Ho
Finals
conflicts
unlikely
draws
##cies
compensation|C0152057|T041
adds
elderly
Anton
lasting
Nintendo
codes
ministers
pot
associations|C0004083|T041
capabilities
##cht
libraries
##sie
chances
performers
runway
##af
##nder
Mid
Vocals
##uch
##eon
interpreted
priority
Uganda
ruined
Mathematics
cook
AFL
Lutheran
AIDS|C0001175|T047
Capitol
chase
axis|C0004457|T023
Moreover
María
Saxon
storyline
##ffed
Tears
Kid
cent
colours
Sex|C0009253|T040
##long
pm
blonde
Edwin
CE
diocese
##ents
##boy
Inn
##ller
Saskatchewan
##kh
stepping|C0427149|T033
Windsor
##oka
##eri
Xavier
Resources
1843
##top
##rad
##lls
Testament
poorly
1836
drifted
slope
CIA
remix
Lords
mature
hosting
diamond|C0057717|T196
beds
##ncies
luxury
trigger
##lier
preliminary
hybrid|C0007597|T059
journalists
Enterprise
proven
expelled
insects
Beautiful
lifestyle
vanished
##ake
##ander
matching
surfaces
Dominican
Kids
referendum
Orlando
Truth
Sandy
privacy
Calgary
Speaker
sts|C0037556|T121
Nobody
shifting
##gers
Roll
Armenia
Hand|C0018563|T023
##ES
106
##ont
Guild
larvae
Stock
flame
gravity
enhanced
Marion
surely
##tering
Tales
algorithm
Emmy
darker
VIII
##lash
hamlet
deliberately
occurring
choices
Gage
fees
settling
ridiculous
##ela
Sons
cop|C0242770|T047
custody
##ID
proclaimed
Cardinals
##pm
Metal|C0025552|T197
Ana|C0003243|T116
1835
clue
Cardiff
riders
observations
MA
sometime
##och
performer
intact
Points
allegations
rotation
Tennis|C0039515|T056
tenor
Directors
##ats
Transit
thigh|C0039866|T029
Complex
##works
twentieth
Factory
doctrine
Daddy
##ished
pretend
Winston
cigarette
##IA
specimens
hydrogen|C0020275|T196
smoking
mathematical
arguments
openly
developer
##iro
fists
somebody
##san
Standing
Caleb
intelligent
Stay
Interior
echoed
Valentine
varieties
Brady
cluster
Ever
voyage
##of
deposits
ultimate
Hayes
horizontal
proximity
##ás
estates
exploration|C1280903|T061
NATO
Classical
##most
bills
condemned
1832
hunger|C0020175|T184
##ato
planes
deserve
offense
sequences
rendered
acceptance
##ony
manufacture
Plymouth
innovative
predicted
##RC
Fantasy
##une
supporter
absent
Picture
bassist
rescued
##MC
Ahmed
Monte
##sts
##rius
insane
novelist
##és
agrees
Antarctic
Lancaster
Hopkins
calculated
startled
##star
tribal
Amendment
##hoe
invisible
patron
deer
Walk|C0080331|T056
tracking
Lyon
tickets
##ED
philosopher
compounds
chuckled
##wi
pound
loyalty
Academic
petition
refuses
marking
Mercury|C0025424|T196
northeastern
dimensions
scandal
Canyon
patch
publish
##oning
Peak
minds
##boro
Presbyterian
Hardy
theoretical
magnitude
bombs
cage
##ders
##kai
measuring
explaining
avoiding
touchdowns
Card
theology
##ured
Popular
export
suspicious
Probably|C0332148|T033
photograph
Lou
Parks
Arms
compact
Apparently
excess
Banks
lied
stunned
territorial
Filipino
spectrum
learns
wash
imprisonment|C0205255|T033
ugly
##rose
Albany
Erik
sends
##hara
##rid
consumed
##gling
Belgrade
Da
opposing
Magnus
footsteps
glowing
delicate
Alexandria
Ludwig
gorgeous
Bros
Index
##PA
customs
preservation
bonds
##mond
environments
##nto
instructed
parted
adoption
locality
workshops
goalkeeper
##rik
##uma
Brighton
Slovenia
##ulating
##tical
towel
hugged
stripped
Bears
upright
Wagner
##aux
secretly
Adventures
nest
Course
Lauren
Boeing
Abdul
Lakes
450
##cu
USSR
caps
Chan
##nna
conceived
Actually
Belfast
Lithuanian
concentrate
possess
militia
pine|C0872909|T109
protagonist
Helena
##PS
##band
Belle
Clara
Reform
currency
pregnancy|C0032961|T040
1500
##rim
Isabella
hull
Name
trend
journalism
diet
##mel
Recording
acclaimed
Tang
Jace
steering|C0553654|T033
vacant
suggestion
costume
laser
##š
##ink
##pan
##vić
integral
achievements
wise
classroom
unions
southwestern
##uer
Garcia
toss
Tara
Large
##tate
evident
responsibilities
populated
satisfaction
##bia
casual
Ecuador
##ght
arose
##ović
Cornwall
embrace
refuse
Heavyweight
XI
Eden
activists
##uation
biology
##shan
fraud
Fuck
matched
legacy|C2979241|T121
Rivers
missionary
extraordinary
Didn
holder
wickets
crucial
Writers
Hurricane|C0375739|T037
Iceland
gross
trumpet
accordance
hurry
flooded
doctorate
Albania
##yi
united
deceased|C0011065|T040
jealous
grief|C0018235|T041
flute
portraits
##а
pleasant
Founded
Face|C0015450|T029
crowned
Raja
advisor
Salem
##ec
Achievement
admission
freely
minimal
Sudan
developers
estimate
disabled
##lane
downstairs
Bruno
##pus
pinyin
##ude
lecture
deadly
underlying
optical
witnesses
Combat
Julius
tapped
variants
##like
Colonial
Critics
Similarly
mouse
voltage
sculptor
Concert
salary
Frances
##ground
hook
premises
Software
instructor
nominee
##ited
fog
slopes
##zu
vegetation|C1285498|T190
sail|C0522727|T056
##rch
Body
Apart
atop
View
utility
ribs|C0035561|T023
cab|C0010055|T061
migration
##wyn
bounded
2019
pillow
trails
##ub
Halifax
shade
Rush
##lah
##dian
Notre
interviewed
Alexandra
Springfield
Indeed
rubbing
dozens
amusement
legally
##lers
Jill
Cinema
ignoring
Choice
##ures
pockets
##nell
laying
Blair
tackles
separately
##teen
Criminal
performs
theorem
Communication
suburbs
##iel
competitors
rows
##hai
Manitoba
Eleanor
interactions
nominations
assassination
##dis
Edmonton
diving|C0012823|T056
##dine
essay
##tas
AFC
Edge
directing
imagination|C0020913|T041
sunk
implement
Theodore
trembling|C0234369|T184
sealed
##rock
Nobel
##ancy
##dorf
##chen
genuine
apartments
Nicolas
AA
Bach
Globe
Store
220
##10
Rochester
##ño
alert|C0239110|T033
107
Beck
##nin
Naples
Basin
Crawford
fears|C0015726|T041
Tracy
##hen
disk|C0993608|T122
##pped
seventeen
Lead|C0023175|T131
backup
reconstruction|C0524865|T061
##lines
terrified|C0558261|T033
sleeve
nicknamed
popped
##making
##ern
Holiday
Gospel
ibn
##ime
convert
divine
resolved
##quet
ski|C0037262|T029
realizing
##RT
Legislature
reservoir
Rain
sinking
rainfall
elimination
challenging
tobacco|C0040329|T131
##outs
Given
smallest
Commercial
pin|C0282612|T191
rebel
comedian
exchanged
airing
dish|C0020498|T047
Salvador
promising
##wl
relax
presenter
toll
aerial
##eh
Fletcher
brass|C0054027|T197
disappear
zones
adjusted
contacts
##lk
sensed
Walt
mild|C1513302|T033
toes|C0040357|T023
flies
shame
considers
wildlife
Hanna
Arsenal
Ladies
naming|C0233735|T041
##ishing
anxiety|C0003467|T048
discussions|C0557061|T061
cute
undertaken
Cash
strain|C0080194|T037
Wyoming
dishes
precise|C2939802|T121
Angela
##ided
hostile
twins
115
Built
##pel
Online
tactics
Newman
##bourne
unclear
repairs
embarrassed
listing
tugged
Vale
##gin
Meredith
bout
##cle
velocity
tips|C0339897|T061
froze
evaluation
demonstrate
##card
criticised
Nash
lineup
Rao
monks
bacteria|C0004618|T059
lease
##lish
frightened
den
revived
finale
##rance
flee
Letters
decreased
##oh
Sounds
wrap
Sharon
incidents
renovated
everybody
stole
Bath
boxing|C0006080|T056
1815
withdraw
backs
interim
react|C4224854|T125
murders
Rhodes
Copa
framed
flown
Estonia
Heavy
explored
##rra
##GA
##ali
Istanbul
1834
##rite
##aging
##ues
Episcopal
arc
orientation|C0029266|T041
Maxwell
infected
##rot
BCE
Brook
grasp
Roberto
Excellence
108
withdrawal
Marines
rider
Lo
##sin
##run
Subsequently
garrison
hurricane|C0375739|T037
facade
Prussia
crushed|C0185060|T061
enterprise
##mber
Twitter
Generation
Physical
Sugar|C0242209|T109
editing
communicate|C0566001|T033
Ellie
##hurst
Ernst
wagon
promotional
conquest
Parliamentary
courtyard
lawyers
Superman
email
Prussian
lately
lecturer
Singer
Majesty
Paradise
sooner
Heath
slot
curves
convoy
##vian
induced
synonym
breeze
##plane
##ox
peered
Coalition
##hia
odds
##esh
##lina
Tomorrow
Nadu
##ico
##rah
damp|C0376257|T121
autonomous
console
Victory
counts
Luxembourg
intimate
Archived
Carroll
spy
Zero
habit
Always
faction
teenager
Johnston
chaos
ruin
commerce
blog
##shed
##the
reliable
Word
Yu
Norton
parade
Catholics
damned
##iling
surgeon
##tia
Allison
Jonas
remarked
##ès
idiot
Making
proposals
Industries
strategies
artifacts
batteries
reward
##vers
Agricultural
distinguish
lengths
Jeffrey
Progressive
kicking
Patricia
##gio
ballot
##ios
skilled
##gation
Colt
limestone
##AS
peninsula
##itis
LA
hotels
shapes
Crime
depicting
northwestern
HD
silly
Das|C0057671|T109
##²
##ws
##ash
##matic
thermal
Has
forgive
surrendered
Palm|C0230373|T029
Nacional
drank
haired
Mercedes
##foot
loading
Timothy
##roll
mechanisms
traces
digging
discussing
Natalie
##zhou
Forbes
landmark
Anyway
Manor
conspiracy
gym
knocking
viewing
Formation
Pink
Beauty
limbs|C0015385|T023
Phillip
sponsor
Joy|C0018592|T041
granite
Harbour
##ero
payments
Ballet
conviction
##dam
Hood
estimates
lacked
Mad|C0002957|T041
Jorge
##wen
refuge
##LA
invaded
Kat
suburban
##fold
investigated
Ari
complained
creek
Georges
##uts
powder|C0032861|T122
accepting
deserved
carpet
Thunder
molecules
Legal
cliff
strictly
enrollment
ranch
##rg
##mba
proportion
renovation
crop
grabbing
##liga
finest
entries
receptor|C0597357|T116
helmet
blown
Listen
flagship
workshop
resolve
nails|C0027342|T023
Shannon
portal|C0205054|T029
jointly
shining
Violet
overwhelming
upward
Mick
proceedings
##dies
##aring
Laurence
Churchill
##rice
commit|C1171947|T121
170
inclusion
Examples
##verse
##rma
fury
paths
##SC
ankle|C0003086|T030
nerves|C0027740|T024
Chemistry
rectangular
sworn
screenplay
cake|C0993597|T122
Mann
Seoul
Animal
sizes
Speed
vol
Population
Southwest
Hold
continuously
Qualified
wishing
Fighting
Made
disappointment
Portsmouth
Thirty
##beck
Ahmad
teammate
MLB
graph
Charleston
realizes
##dium
exhibits
preventing
##int
fever|C0015967|T033
rivalry
Male
mentally
dull
##lor
##rich
consistently
##igan
Madame
certificate
suited
Krishna
accuracy
Webb
Budapest
Rex
1831
Cornell
OK
surveillance
##gated
habitats
Adventure
Conrad
Superior
Gay
sofa
aka
boot
Statistics
Jessie
Liberation
##lip
##rier
brands
saint
Heinrich
Christine
bath
Rhine
ballet
Jin
consensus
chess
Arctic
stack
furious
cheap
toy
##yre
##face
##gging
gastropod
##nne
Romans
membrane
answering
25th
architects
sustainable
##yne
Hon
1814
Baldwin
dome
##awa
##zen
celebrity
enclosed
##uit
##mmer
Electronic
locals
##CE
supervision|C0038842|T061
mineral|C0026162|T197
Chemical
Slovakia
alley
hub
##az
heroes
Creative
##AM
incredible
politically
ESPN
yanked
halls|C2356088|T121
Aboriginal
Greatest
yield
##20
congressional
robot
Kiss
welcomed
MS
speeds
proceed
Sherman
eased
Greene
Walsh
Geoffrey
variables
rocky
##print
acclaim
Reverend
Wonder
tonnes
recurring
Dawson
continent
finite
AP
continental
ID
facilitate
essays
Rafael
Neal
1833
ancestors
##met
##gic
Especially
teenage
frustrated|C0016770|T041
Jules
cock
expense
##oli
##old
blocking|C0233660|T048
Notable
prohibited|C0138547|T109
ca
dock
organize
##wald
Burma
Gloria
dimension
aftermath
choosing
Mickey
torpedo
pub
##used
manuscripts
laps
Ulster
staircase
sphere
Insurance
Contest
lens|C0023317|T023
risks
investigations
ERA
glare|C3887688|T184
##play
Graduate
auction
Chronicle
##tric
##50
Coming
seating
Wade
seeks
inland
Thames
Rather
butterfly
contracted
positioned
consumers
contestants
fragments
Yankees
Santos
administrator
hypothesis
retire|C0035345|T033
Denis
agreements
Winnipeg
##rill
1820
trophy
crap
shakes|C0040822|T184
Jenkins
##rium
ya
twist
labels
Maritime
##lings
##iv
111
##ensis
Cairo
Anything
##fort
opinions
crowded
##nian
abandon
##iff
drained
imported
##rr
tended
##rain
Going
introducing
sculptures
bankruptcy
danced
demonstration
stance
settings
gazed
abstract
pet|C0032743|T060
Calvin
stiff
strongest
wrestler
##dre
Republicans
grace
allocated
cursed
snail
advancing
Return
errors
Mall
presenting
eliminate
Amateur
Institution
counting
##wind
warehouse
##nde
Ethiopia
trailed
hollow
##press
Literary
capability
nursing|C0006147|T040
preceding
lamp
Thomson
Morton
##ctic
Crew
Close
composers
boom
Clare|C1301526|T047
missiles
112
hunter
snap|C1177045|T122
##oni
##tail
Us
declaration
##cock
rally
huh
lion
straightened
Philippe
Sutton
alpha
valued
maker
navigation
detected
favorable
perception|C0030971|T041
Charter
##ña
Ricky
rebounds
tunnels
slapped
Emergency
supposedly
##act
deployment
socialist
tubes
anybody
corn|C0010046|T020
##NA
Seminary
heating
pump
##AA
achieving
souls
##ass
Link
##ele
##smith
greeted
Bates
Americas
Elder|C0994408|T109
cure
contestant
240
fold
Runner
Uh
licked
Politics
committees
neighbors
fairy
Silva
Leipzig
tipped
correctly
exciting
electronics
foundations
cottage
governmental
##hat
allied
claws
presidency
cruel
Agreement
slender
accompanying
precisely
##pass
driveway
swim|C0039003|T056
Stand|C0596013|T033
crews
##mission
rely
everyday
Wings
demo
##hic
recreational
min
nationality
##duction
Easter
##hole
canvas
Kay
Leicester
talented
Discovery
shells
##ech
Kerry
Ferguson
Leave
##place
altogether
adopt|C0425382|T033
butt
wolves
##nsis
##ania
modest
soprano
Boris
##ught
electron
depicts
hid
cruise
differ
treasure
##nch
Gun
Mama
Bengali
trainer
merchants
innovation
presumably
Shirley
bottles
proceeds
Fear|C0015726|T041
invested
Pirates
particle
Dominic
blamed
Fight
Daisy
##pper
##graphic
nods
knight
Doyle
tales
Carnegie
Evil
Inter
Shore
Nixon
transform
Savannah
##gas
Baltic
stretching|C0600080|T061
worlds
protocol
Percy
Toby
Heroes
brave
dancers
##aria
backwards
responses
Chi
Gaelic
Berry
crush|C0185060|T061
embarked
promises
Madonna
researcher
realised
inaugurated
Cherry|C2722031|T129
Mikhail
Nottingham
reinforced
subspecies
rapper
##kie
Dreams|C0013117|T041
Re
Damon
Minneapolis
monsters|C0026505|T019
suspicion|C0242114|T041
Tel|C0039452|T023
surroundings
afterward
complaints|C0277786|T033
OF
sectors
Algeria
lanes
Sabha
objectives
Donna
bothered
distracted
deciding
##ives
##CA
##onia
bishops
Strange
machinery|C0337246|T037
Voiced
synthesis
reflects|C0558058|T041
interference
##TS
##ury
keen|C0558083|T041
##ign
frown
freestyle
ton
Dixon
Sacred
Ruby
Prison
##ión
1825
outfit
##tain
curiosity
##ight
frames
steadily
emigrated
horizon
##erly
Doc|C0011710|T125
philosophical
Table
UTC
Marina
##DA
secular
##eed
Zimbabwe
cops
Mack
sheriff
Sanskrit
Francesco
catches|C0596011|T033
questioning
streaming
Kill
testimony
hissed
tackle
countryside
copyright
##IP
Buddhism
##rator
ladder
##ON
Past
rookie
depths
##yama
##ister
##HS
Samantha
Dana
Educational
brows
Hammond
raids
envelope
##sco
##hart
##ulus
epic|C1273342|T059
detection
Streets
Potter
statistical
für
ni
accounting
##pot
employer
Sidney
Depression|C0011581|T048
commands
Tracks
averaged
lets
Ram
longtime
suits
branded
chip
Shield
loans
ought
Said
sip
##rome
requests
Vernon
bordered
veterans
##ament
Marsh
Herzegovina
Pine|C0872909|T109
##igo
mills
anticipation
reconnaissance
##ef
expectations
protested
arrow
guessed
depot
maternal
weakness|C3714552|T184
##ap
projected
pour
Carmen
provider
newer
remind|C0557033|T061
freed
##rily
##wal
##tones
intentions|C0162425|T041
Fiji
timing
Match
managers
Kosovo
Herman
Wesley
Chang
135
semifinals
shouting|C0562551|T033
Indo|C0021246|T109
Janeiro
Chess
Macedonia
Buck
##onies
rulers
Mail
##vas
##sel
MHz
Programme
Task
commercially
subtle
propaganda
spelled
bowling|C0336949|T056
basically
Raven
1828
Colony
109
##ingham
##wara
anticipated
1829
##iers
graduates
##rton
##fication
endangered
ISO
diagnosed
##tage
exercises|C0452240|T061
Battery|C0542351|T037
bolt
poison|C0032346|T131
cartoon
##ción
hood
bowed
heal|C0043240|T040
Meyer
Reagan
##wed
subfamily
##gent
momentum|C0721776|T121
infant
detect|C0442726|T033
##sse
Chapman
Darwin
mechanics
NSW
Cancer|C0006826|T191
Brooke
Nuclear
comprised
hire
sanctuary
wingspan
contrary
remembering
surprising
Basic
stealing
OS
hatred
##lled
masters
violation
Rule
##nger
assuming
conquered
louder
robe
Beatles
legitimate
##vation
massacre
Rica
unsuccessfully
poets
##enberg
careers
doubled
premier
battalions
Dubai
Paper
Louisville
gestured
dressing
successive
mumbled
Vic
referee
pupil|C0034121|T023
##cated
##rre
ceremonies
picks
##IN
diplomat
alike
geographical
rays
##HA
##read
harbour
factories
pastor
playwright
Ultimate
nationalist
uniforms
obtaining
kit
Amber|C0242864|T109
##pling
screenwriter
ancestry
##cott
Fields
PR
Coleman
rat
Bavaria
squeeze|C0413258|T037
highlighted
Adult
reflecting|C0558058|T041
Mel
1824
bicycle
organizing
sided
Previously
Underground
Prof
athletics
coupled
mortal
Hampton
worthy
immune
Ava|C0263429|T047
##gun
encouraging
simplified
##ssa
##nte
##ann
Providence
entities
Pablo
Strong
Housing
##ista
##ators
kidnapped
mosque
Kirk
whispers
fruits
shattered
fossil
Empress
Johns
Webster
Thing
refusing
differently
specimen
Ha
##EN
##tina
##elle
##night
Horn
neighbourhood
Bolivia
##rth
genres
Pre
##vich
Amelia|C0002447|T019
swallow
Tribune
Forever
Psychology
Use
##bers
Gazette
ash
##usa
Monster|C0026505|T019
##cular
delegation
blowing|C1291034|T033
Oblast
retreated
automobile
##ex
profits
shirts
devil
Treasury
##backs
Drums
Ronnie
gameplay
expertise
Evening
resides
Caesar
unity
Crazy
linking
Vision|C0042789|T040
donations
Isabel
valve
Sue
WWE
logical
availability
fitting|C0036572|T184
revolt
##mill
Linux
taxi
Access
pollution
statues
Augustus
##pen
cello|C0004763|T047
##some
lacking
##ati
Gwen
##aka
##ovich
1821
Wow
initiatives|C0424093|T041
Uruguay
Cain
stroked
examine
##ī
mentor
moist
disorders|C0012634|T047
buttons
##tica
##anna
Species
Lynch
museums
scorer
Poor
eligibility
op
unveiled
cats
Title
wheat|C1095911|T121
critically
Syracuse
##osis
marketed
enhance
Ryder
##NG
##ull
##rna
embedded
throws|C0560512|T033
foods
happily
##ami
lesson
formats
punched
##rno
expressions|C0185117|T061
qualities
##sal
Gods
##lity
elect
wives
##lling
jungle
Toyota
reversed
Grammar
Cloud
Agnes
##ules
disputed
verses
Lucien
threshold
##rea
scanned
##bled
##dley
##lice
Kazakhstan
Gardner
Freeman
##rz
inspection
Rita
accommodation
advances
chill|C0085593|T184
Elliot
thriller
Constantinople
##mos
debris
whoever
1810
Santo
Carey
remnants
Guatemala
##irs
carriers|C0007294|T033
equations
mandatory
##WA
anxious|C0003467|T048
measurement
Summit
Terminal
Erin
##zes
LLC
##uo
glancing
sin|C0333873|T191
##₃
Downtown
flowering
Euro
Leigh
Lance
warn
decent
recommendations
##ote
Quartet
##rrell
Clarence
colleague
guarantee
230
Clayton
Beast
addresses
prospect
destroyer
vegetables
Leadership
fatal|C1705232|T033
prints
190
##makers
Hyde
persuaded
illustrations
Southampton
Joyce
beats
editors
mount|C0449878|T033
##grave
Malaysian
Bombay
endorsed
##sian
##bee
applying
Religion|C0682141|T033
nautical
bomber
Na
airfield
gravel
##rew
Cave
bye
dig|C1321878|T191
decree
burden
Election
Hawk
Fe
##iled
reunited
##tland
liver|C0023884|T023
Teams
Put
delegates
Ella|C2927379|T109
##fect
Cal
invention
Castro
bored
##kawa
##ail
Trinidad
NASCAR
pond
develops
##pton
expenses
Zoe
Released
##rf
organs
beta
parameters|C0449381|T033
Neill
##lene
lateral
Beat
blades
Either
##hale
Mitch
##ET
##vous
Rod|C0206427|T025
burnt
phones
Rising
##front
investigating
##dent
Stephanie
##keeper
screening|C0199230|T060
##uro
Swan
Sinclair
modes
bullets
Nigerian
melody
##ques
Rifle
##12
128
##jin
charm
Venus
##tian
fusion|C1293131|T061
advocated
visitor
pinned
genera
3000
Ferry
Solo
quantity
regained
platinum|C0032207|T196
shoots
narrowly
preceded
update
##ichi
equality
unaware
regiments
ally
##tos
transmitter
locks
Seeing
outlets
feast
reopened
##ows
struggles
Buddy
1826
bark
elegant
amused
Pretty
themed
schemes
Lisbon
Te
patted
terrorism
Mystery
##croft
##imo
Madagascar
Journey
dealer
contacted
##quez
ITV
vacation
Wong
Sacramento
organisms
##pts
balcony
coloured
sheer
defines
MC
abortion|C0156543|T033
forbidden
accredited
Newfoundland
tendency
entrepreneur
Benny
Tanzania
needing
finalist
mythology
weakened
gown
sentences
Guest
websites
Tibetan
UFC
voluntary
annoyed
Welcome
honestly
correspondence
geometry
Deutsche
Biology
Help
##aya
Lines
Hector
##ael
reluctant
##ages
wears
inquiry
##dell
Holocaust
Tourism
Wei
volcanic
##mates
Visual
sorts
neighborhoods
Running|C0035953|T056
apple|C2702351|T129
shy|C0557869|T033
Laws
bend
Northeast
feminist
Speedway
Murder
visa|C1318881|T047
stuffed
fangs
transmitted
fiscal
Ain|C0347129|T191
enlarged|C1293134|T061
##ndi
Cecil
Peterson
Benson
Bedford
acceptable
##CC
##wer
purely
triangle
foster
Alberto
educator
Highland
acute
LGBT
Tina|C0025611|T131
Mi
adventures
Davidson
Honda
translator
monk
enacted
summoned
##ional
collector
Genesis|C4255166|T121
Un
liner
Di
Statistical
##CS
filter
Knox
Religious|C0557075|T033
Stella
Estonian
Turn|C0541749|T033
##ots
primitive
parishes
##lles
complexity
autobiography
rigid|C0026837|T184
cannon
pursuing
exploring
##gram
##mme
freshman
caves
Expedition
Traditional
iTunes
certification
cooling
##ort
##gna
##IT
##lman
##VA
Motion
explosive
licence
boxer
shrine
loosely
Brigadier
Savage
Brett
MVP|C0026267|T047
heavier
##elli
##gged
Buddha
Easy
spells
fails
incredibly
Georg
stern
compatible
Perfect
applies
cognitive
excessive
nightmare|C0028084|T184
neighbor
Sicily
appealed
static
##₁
Aberdeen
##leigh
slipping
bride
##guard
Um
Clyde
1818
##gible
Hal|C1327841|T121
Frost
Sanders
interactive
Hour
##vor
hurting
bull
termed
shelf
capturing
##pace
rolls
113
##bor
Chilean
teaches
##rey
exam
shipped
Twin
borrowed
##lift
Shit
##hot
Lindsay
Below
Kiev
Lin
leased
##sto
Eli
Diane
Val|C0042285|T116
subtropical
shoe
Bolton
Dragons
##rification
Vatican
##pathy
Crisis|C0231224|T033
dramatically
talents
babies
##ores
surname
##AP
##cology
cubic
opted
Archer
sweep
tends
Karnataka
Judy
stint
Similar
##nut
explicitly
##nga
interact
Mae
portfolio
clinic
abbreviated
Counties
##iko
hearts|C0018787|T023
##ı
providers
screams
Individual
##etti
Monument
##iana
accessed
encounters
gasp|C0425449|T184
##rge
defunct
Avery
##rne
nobility
useless
Phase
Vince
senator
##FL
1813
surprisingly
##illo
##chin
Boyd
rumors
equity
Gone
Hearts|C0018787|T023
chassis
overnight
Trek
wrists|C0043262|T029
submit
civic
designers
##rity
prominence
decorative
derives
starter
##AF
wisdom
Powers
reluctantly
measurements
doctoral
Noel
Gideon
Baden
Cologne
lawn
Hawaiian
anthology
##rov
Raiders
embassy
Sterling
##pal
Telugu
troubled
##FC
##bian
fountain
observe
ore
##uru
##gence
spelling
Border
grinning
sketch
Benedict
Xbox
dialects
readily
immigrant
Constitutional
aided
nevertheless
SE
tragedy
##ager
##rden
Flash|C0262485|T060
##MP
Europa
emissions
##ield
panties
Beverly
Homer
curtain
##oto
toilet|C0184958|T061
Isn
Jerome
Chiefs
Hermann
supernatural
juice
integrity
Scots
auto
Patriots
Strategic
engaging|C0425152|T033
prosecution|C0205255|T033
cleaned
Byron
investments
adequate
vacuum
laughs
##inus
##nge
Usually
Roth
Cities
Brand
corpse
##ffy
Gas|C1704673|T122
rifles
Plains
sponsorship
Levi
tray
owed
della
commanders
##ead
tactical
##rion
García
harbor
discharge
##hausen
gentleman
endless
highways
##itarian
pleaded
##eta
archive
Midnight
exceptions
instances
Gibraltar
cart
##NS
Darren
Bonnie
##yle
##iva
OCLC
bra
Jess
##EA
consulting
Archives
Chance
distances
commissioner
##AR
LL
sailors
##sters
enthusiasm|C0424090|T041
Lang
##zia
Yugoslav
confirm
possibilities
Suffolk
##eman
banner
1822
Supporting
fingertips
civilization
##gos
technically
1827
Hastings
sidewalk
strained|C0080194|T037
monuments
Floyd
Chennai
Elvis
villagers
Cumberland
strode
albeit
Believe
planets
combining
Mohammad
container
##mouth
##tures
verb
BA
Tank
Midland
screened
Gang
Democracy
Helsinki
screens
thread
charitable
##version
swiftly
ma
rational
combine
##SS
##antly
dragging
Cliff
Tasmania
quest
professionally
##aj
rap
##lion
livestock
##hua
informal
specially
lonely|C0023974|T033
Matthews
Dictionary
1816
Observatory
correspondent
constitute
homeless|C0237154|T033
waving
appreciated
Analysis|C0002778|T059
Meeting
dagger
##AL
Gandhi
flank|C0230171|T029
Giant|C0017547|T047
Choir
##not
glimpse
toe|C0040357|T023
Writer
teasing|C0424320|T033
springs
##dt
Glory
healthcare
regulated
complaint|C0277786|T033
math
Publications
makers
##hips
cement|C1704479|T122
Need
apologize
disputes
finishes
Partners
boring
ups|C0334463|T191
gains
1793
Congressional
clergy
Folk
##made
##nza
Waters|C0043047|T197
stays
encoded
spider
betrayed
Applied
inception
##urt
##zzo
wards
bells
UCLA
Worth
bombers
Mo
trademark
Piper
##vel
incorporates
1801
##cial
dim
Twelve
##word
Appeals
tighter
spacecraft
##tine
coordinates|C0427184|T033
##iac
mistakes
Zach
laptop
Teresa
##llar
##yr
favored
Nora
sophisticated
Irving
hammer
División
corporations
niece
##rley
Patterson
UNESCO
trafficking
Ming
balanced
plaque|C0332461|T033
Latvia
broader
##owed
Save
confined
##vable
Dalton
tide
##right
##ural
##num
swords
caring
##eg
IX
Acting
paved
##moto
launching
Antoine
substantially
Pride
Philharmonic
grammar
Indoor
Ensemble
enabling
114
resided
Angelo
publicity
chaired
crawled
Maharashtra
Telegraph
lengthy
preference
differential
anonymous
Honey|C0939937|T109
##itation
wage
##iki
consecrated
Bryant
regulatory
Carr
##én
functioning
watches
##ú
shifts
diagnosis|C0011900|T033
Search
app
Peters
##SE
##cat
Andreas
honours
temper
counsel
Urdu
Anniversary
maritime
##uka
harmony
##unk
essence|C0028910|T109
Lorenzo
choked|C0008301|T046
Quarter
indie
##oll
loses
##prints
amendment
Adolf
scenario
similarities
##rade
##LC
technological
metric
Russians
thoroughly
##tead
cruiser
1806
##nier
1823
Teddy
##psy
au
progressed
exceptional
broadcaster
partnered
fitness
irregular
placement
mothers
unofficial
Garion
Johannes
1817
regain
Solar
publishes
Gates
Broken
thirds
conversations
dive|C0012823|T056
Raj
contributor
quantities
Worcester
governance
##flow
generating
pretending
Belarus
##voy
radius|C0034627|T023
skating|C0037247|T056
Marathon
1819
affection
undertook
##wright
los
##bro
locate
PS
excluded
recreation
tortured
jewelry
moaned
##logue
##cut
Complete
##rop
117
##II
plantation
whipped
slower
crater
##drome
Volunteer
attributes
celebrations
regards
Publishers
oath
utilized
Robbie
Giuseppe
fiber|C0225326|T121
indication
melted
archives
Damien
storey
affecting
identifying
dances
alumni
comparable
upgrade
rented
sprint
##kle
Marty
##lous
treating
railways
Lebanese
erupted
occupy
sympathy
Jude
Darling
Qatar
drainage|C0013103|T061
McCarthy
heel|C0018870|T029
Klein
computing
wireless
flip
Du
Bella
##ast
##ssen
narrator
mist
sings
alignment
121
2020
securing
##rail
Progress
missionaries
brutal
mercy
##shing
Hip
##ache
##olo
switching
##here
Malay
##ob
constituted
Mohammed
Often
standings
surge
teachings
ink
detached
systematic
Trial
Myanmar
##wo
offs
Reyes
decoration
translations
wherever
reviewer
speculation
Bangkok
terminated
##ester
beard|C0221982|T023
RCA
Aidan
Associated
Emerson
Charity
1803
generous
Dudley
ATP|C0001480|T114
##haven
prizes
toxic|C0600688|T037
gloves
##iles
##dos
Turning|C0541749|T033
myth
Parade
##building
Hits|C0596020|T033
##eva
teamed
Above
Duchess
Holt
##oth
Sub
Ace|C0201888|T059
atomic
inform|C0537670|T129
Ship
depend
Jun
##bes
Norwich
globe
Baroque
Christina
Cotton|C2727825|T121
Tunnel
kidding
Concerto
Brittany
tasted
phases
stems
angles
##TE
##nam
##40
charted
Alison
intensive
Willis
glory
##lit
Bergen
est|C0013806|T061
taller
##dicate
labeled
##ido
commentator
Warrior
Viscount
shortened
aisle
Aria
Spike
spectators
goodbye
overlooking
mammals
##lude
wholly
Barrett
##gus
accompany
seventy
employ|C0557351|T033
##mb
ambitious
beloved
basket
##mma
##lding
halted
descendant
pad
exclaimed
cloak
##pet
Strait
Bang
Aviv
sadness
##ffer
Donovan
1880s
agenda
swinging
##quin
jerk
Boat
##rist
nervously
Silence
Echo
shout|C0562551|T033
implies
##iser
##cking
Shiva
Weston
damages|C0010957|T037
##tist
effectiveness
Horace
cycling
Rey
ache|C0234238|T184
Photography
PDF
Dear
leans
Lea
##vision
booth
attained
disbelief
##eus
##ution
Hop
pension
toys
Eurovision
faithful
##heads
Andre
owe
default
Atlas|C0004170|T023
Megan
highlights
lovers
Constantine
Sixth
masses
##garh
emerge
Auto
Slovak
##oa
##vert
Superintendent
flicked
inventor
Chambers
Frankie
Romeo
pottery
companions
Rudolf
##liers
diary
Unless
tap
alter
Randall
##ddle
##eal
limitations
##boards
utterly
knelt
guaranteed
Cowboys
Islander
horns
##ike
Wendy
sexually
Smart
breasts|C0006141|T023
##cian
compromise
Duchy
AT
Galaxy
analog
Style
##aking
weighed
Nigel
optional
Czechoslovakia
practicing
Ham|C0030481|T047
##0s
feedback
batted
uprising
operative
applicable
criminals
classrooms
Somehow
##ode
##OM
Naomi
Winchester
##pping
Bart
Regina
competitor
Recorded
Yuan
Vera
lust
Confederation
##test
suck|C0677049|T033
1809
Lambert
175
Friend
##ppa
Slowly
##⁺
Wake
Dec
##aneous
chambers
Color
Gus
##site
Alternative
##world
Exeter
Omaha
celebrities
striker
210
dwarf|C0013336|T019
meals
Oriental
Pearson
financing
revenues
underwater
Steele
screw
Feeling
Mt
acids
badge
swore
theaters
Moving
admired
lung|C0024109|T023
knot
penalties
116
fork
##cribed
Afghan
outskirts
Cambodia
oval
wool
fossils
Ned
Countess
Darkness
delicious
##nica
Evelyn
Recordings
guidelines
##CP
Sandra
meantime
Antarctica
modeling
granddaughter
##rial
Roma
Seventh
Sunshine
Gabe
##nton
Shop|C0150768|T056
Turks
prolific
soup
parody
##nta
Judith
disciplines
resign
Companies
Libya
Jets
inserted
Mile
retrieve
filmmaker
##rand
realistic
unhappy|C1688635|T033
##30
sandstone
##nas
##lent
##ush
##rous
Brent
trash
Rescue
##unted
Autumn
disgust
flexible
infinite
sideways
##oss
##vik
trailing
disturbed
50th
Newark
posthumously
##rol
Schmidt
Josef
##eous
determining
menu
Pole
Anita
Luc
peaks
118
Yard
warrant
generic|C0085155|T121
deserted
Walking|C0080331|T056
stamp
tracked
##berger
paired
surveyed
sued
Rainbow
##isk
Carpenter
submarines
realization
touches
sweeping
Fritz
module
Whether
resembles
##form
##lop
unsure|C0087130|T033
hunters
Zagreb
unemployment|C0041674|T033
Senators
Georgetown
##onic
Barker
foul
commercials
Dresden
Words
collision|C0337196|T037
Carlton
Fashion
doubted
##ril
precision
MIT
Jacobs
mob
Monk
retaining
gotta
##rod
remake
Fast|C0015663|T033
chips
##pled
sufficiently
##lights
delivering
##enburg
Dancing
Barton
Officers
metals|C0025552|T197
##lake
religions
##ré
motivated
differs
dorsal
##birds
##rts
Priest
polished
##aling
Saxony
Wyatt
knockout
##hor
Lopez
RNA|C0035668|T114
##link
metallic
##kas
daylight
Montenegro
##lining
wrapping
resemble
Jam
Viking
uncertainty|C0087130|T033
angels
enables|C0562342|T041
##fy
Stuttgart
tricks
tattoo|C1366940|T033
127
wicked
asset
breach
##yman
MW
breaths
Jung
im
1798
noon
vowel
##qua
calmly
seasonal
chat
ingredients
cooled
Randolph
ensuring
##ib
##idal
flashing|C0344323|T048
1808
Macedonian
Cool
councils
##lick
advantages
Immediately
Madras
##cked
Pain|C0030193|T184
fancy
chronic
Malayalam
begged
##nese
Inner
feathers|C0015731|T023
##vey
Names
dedication
Sing
pan|C0031036|T047
Fischer
nurses
Sharp|C1444775|T033
inning
stamps
Meg|C0024489|T060
##ello
edged
motioned
Jacksonville
##ffle
##dic
##US
divide
garnered
Ranking
chasing
modifications
##oc
clever|C1279682|T033
midst
flushed|C0016382|T184
##DP
void|C0042034|T040
##sby
ambulance
beaches
groan
isolation|C0204727|T061
strengthen
prevention|C0199176|T061
##ffs
Scouts
reformed
geographic
squadrons
Fiona
Kai
Consequently
##uss
overtime|C2961731|T109
##yas
Fr
##BL
Papua
Mixed
glances
Haiti
Sporting|C0038039|T056
sandy
confronted
René
Tanner
1811
##IM
advisory
trim
##ibe
González
gambling
Jupiter
##ility
##owski
##nar
122
apology
teased
Pool
feminine
wicket
eagle
shiny
##lator
blend
peaking
nasty
nodding
fraction
tech
Noble
Kuwait
brushing|C0443165|T056
Italia
Canberra
duet
Johan
1805
Written
cameo
Stalin
pig
cord|C0035334|T047
##zio
Surely
SA
owing
holidays
123
Ranger
lighthouse
##ige
miners
1804
##ë
##gren
##ried
crashing
##atory
wartime
highlight
inclined
Torres
Tax|C0144576|T109
##zel
##oud
Own
##corn
Divine
EMI
Relief|C0564405|T033
Northwestern
ethics
BMW
click
plasma
Christie
coordinator
Shepherd
washing
cooked
##dio
##eat
Cerambycidae
algebra
Engine
costumes
Vampire
vault
submission
virtue
assumption
##rell
Toledo
##oting
##rva
crept
emphasized
##lton
##ood
Greeks
surgical
crest|C2948667|T197
Patrol
Beta
Tessa
##GS
pizza
traits
rats
Iris|C0022077|T023
spray|C1154182|T122
##GC
Lightning
binary
escapes
##take
Clary
crowds
##zong
hauled
maid
##fen
Manning
##yang
Nielsen
aesthetic
sympathetic
affiliation
soaked|C0204774|T061
Mozart
personalities|C0031208|T041
begging
##iga
clip
Raphael
yearly
Lima
abundant
##lm
1794
strips
Initiative|C0424093|T041
reporters
##vsky
consolidated
##itated
Civic
rankings
mandate
symbolic
##ively
1807
rental
duck|C2725890|T129
nave
complications|C0009566|T046
##nor
Irene
Nazis
haunted
scholarly
Pratt
Gran|C3853573|T122
Embassy
Wave
pity
genius|C0423899|T033
bats
canton
Tropical
marker
##cos
escorted
Climate
##posed
appreciation
freezing
puzzle
Internal
pools
Shawn
pathway
Daniels
Fitzgerald
extant
olive|C0228539|T023
Vanessa
marriages|C0024841|T033
cocked
##dging
prone
chemicals
doll
drawer
##HF
Stark
Property
##tai
flowed
Sheridan
##uated
Less
Omar
remarks
catalogue
Seymour
wreck
Carrie
##bby
Mercer
displaced
sovereignty
rip
Flynn
Archie
Quarterfinals
Hassan
##ards
vein|C0042449|T023
Osaka
pouring
wages
Romance
##cript
##phere
550
##eil
##stown
Documentary
ancestor
CNN
Panthers
publishers
Rise|C0246719|T109
##mu
biting|C0005658|T037
Bright|C0423899|T033
String
succeeding
119
loaned
Warwick
Sheikh
Von
Afterwards
Jax
Camden
helicopters
Hence
Laurel
##ddy
transaction
Corp
clause
##owing
##kel
Investment
cups
Lucia
Moss
Giles
chef
López
decisive
30th
distress|C0231303|T033
linguistic
surveys
Ready
maiden
Touch|C0702221|T042
frontier
incorporate
exotic
mollusk
Leopold
Ride
##wain
##ndo
teammates
tones
drift
ordering
Feb
Penny
Normandy
Present
Flag
pipes
##rro
delight
motto
Tibet
leap
Eliza
Produced
teenagers
sitcom
Try
Hansen
Cody
wandered
terrestrial
frog
scare|C0015726|T041
resisted
employers
coined
##DS
resistant
Fly
captive
dissolution
judged
associates
defining
##court
Hale
##mbo
raises
clusters
twelfth
##metric
Roads
##itude
satisfy
Android|C0718532|T125
Reds
Gloucester
Category
Valencia
Daemon
stabbed
Luna
Churches
Canton
##eller
Attack|C1304680|T033
Kashmir
annexed
grabs
asteroid
Hartford
recommendation
Rodriguez
handing
stressed|C0038435|T033
frequencies
delegate
Bones|C0262950|T023
Erie
Weber
Hands|C0018563|T023
Acts
millimetres
24th
Fat|C0015677|T121
Howe
casually
##SL
convent
1790
IF
##sity
1795
yelling
##ises
drain|C0013103|T061
addressing
amino
Marcel
Sylvia
Paramount
Gerard
Volleyball
butter
124
Albion
##GB
triggered
1792
folding|C0185026|T061
accepts
##ße
preparations
Wimbledon
dose
##grass
escaping
##tling
import
charging
##dation
280
Nolan
##fried
Calcutta
##pool
Cove
examining|C0332128|T033
minded
heartbeat|C0425583|T042
twisting
domains
bush
Tunisia
Purple
Leone
##code
evacuated
battlefield
tiger
Electrical
##ared
chased
##cre
cultivated
Jet
solved
shrug
ringing
Impact
##iant
kilometre
##log
commemorate
migrated
singular
designing
promptly
Higgins
##own
##aves
freshwater
Marketing
Payne
beg
locker
pray|C0377355|T116
implied
AAA
corrected
Trans
Europeans
Ashe
acknowledge
Introduction
##writer
##llen
Munster
auxiliary
growl
Hours
Poems|C0085404|T047
##AT
reduces
Plain
plague|C0032064|T047
canceled
detention
polite
necklace
Gustav
##gu
##lance
En
Angola
##bb
dwelling
##hea
5000
Qing
Dodgers
rim
##ored
##haus
spilled
Elisabeth
Viktor
backpack
1802
amended
##worthy
Phantom
##ctive
keeper
##loom
Vikings
##gua
employs|C0557351|T033
Tehran
specialty
##bate
Marx
Mirror
Jenna
rides
needle
prayers
clarinet
forewings
##walk
Midlands
convincing
advocacy
Cao
Birds
cycles
Clement
Gil
bubble
Maximum
humanitarian
Tan|C0040854|T130
cries
##SI
Parsons
Trio
offshore
Innovation
clutched
260
##mund
##duct
Prairie
relied
Falcon
##ste
Kolkata
Gill
Swift
Negro
Zoo
valleys
##OL
Opening
beams
MPs
outline
Bermuda
Personal
exceed
productive
##MT
republic
forum
##sty
tornado|C0375740|T037
Known
dipped
Edith
folks
mathematician
watershed
Ricardo
synthetic
##dication
deity
##₄
gaming
subjected
suspects
Foot|C0016504|T023
swollen|C0038999|T033
Motors
##tty
##ý
aloud
ceremonial
es
nuts
intend
Carlisle
tasked
hesitation
sponsors
unified
inmates
##ctions
##stan
tiles
jokes
whereby
outcomes
Lights
scary
Stoke
Portrait
Blind
sergeant
violations
cultivation
fuselage
Mister
Alfonso
candy
sticks
teen
agony|C0521992|T033
Enough
invite
Perkins
Appeal
mapping
undergo
Glacier
Melanie
affects|C0001721|T041
incomplete
##dd
Colombian
##nate
CBC|C0009555|T059
purchasing
bypass|C0741847|T061
Drug|C0013227|T121
Electronics
Frontier
Coventry
##aan
autonomy
scrambled
Recent
bounced
cow
experiencing
Rouge
cuisine
Elite
disability|C0231170|T033
Ji
inheritance
wildly
Into
##wig
confrontation|C1444674|T060
Wheeler
shiver|C0036973|T033
Performing
aligned
consequently
Alexis
Sin|C0333873|T191
woodland
executives
Stevenson
Ferrari
inevitable
##cist
##dha
##base
Corner
comeback
León
##eck
##urus
MacDonald
pioneering
breakdown
landscapes
Veterans
Rican
Theological
stirred
participant
Credit
Hyderabad
snails
Claudia
##ocene
compliance
##MI
Flags
Middlesex
storms
winding|C0016204|T184
asserted
er
##ault
##kal
waking
##rates
abbey
Augusta
tooth|C0040426|T023
trustees
Commodore
##uded
Cunningham
NC
Witch
marching
Sword
Same
spiral
Harley
##ahan
Zack
Audio
1890s
##fit
Simmons
Kara
Veronica
negotiated
Speaking|C0234856|T056
FIBA
Conservatory
formations
constituencies
explicit
facial|C0015450|T029
eleventh
##ilt
villain
##dog
##case
##hol
armored
tin|C0040238|T196
hairs|C0018494|T023
##umi
##rai
mattress
Angus
cease
verbal
Recreation
savings
Aurora
peers
Monastery
Airways|C0458827|T023
drowned|C0013142|T037
additions
downstream
sticking
Shi
mice
skiing|C0037264|T056
##CD
Raw
Riverside
warming
hooked
boost
memorable
posed
treatments|C0087111|T061
320
##dai
celebrating
blink|C0005757|T042
helpless
circa
Flowers
PM
uncommon
Oct|C0029279|T126
Hawks
overwhelmed
Sparhawk
repaired
Mercy
pose
counterpart
compare
survives
##½
##eum
coordinate|C0427184|T033
Lil
grandchildren
notorious
Yi
Judaism
Juliet
accusations
1789
floated
marathon
roar|C0234786|T047
fortified
reunion
145
Nov
Paula
##fare
##toria
tearing
Cedar
disappearance
Si
gifted
scar|C2004491|T046
270
PBS|C0033770|T047
Technologies
Marvin
650
roller
cupped
negotiate
##erman
passport
tram
miracle
styled
##tier
necessity
Des|C0012203|T109
rehabilitation|C0034991|T061
Lara
USD
psychic
wipe
##lem
mistaken
##lov
charming
Rider
pageant
dynamics
Cassidy
##icus
defenses
##tadt
##vant
aging|C0001811|T040
##inal
declare
mistress
supervised
##alis
##rest
Ashton
submerged
sack
Dodge
grocery
ramp
Teacher
lineage
imagery|C0150627|T061
arrange
inscriptions
Organisation
Siege
combines
pounded
Fleming
legends
columnist
Apostolic
prose
insight|C0233820|T041
Arabian
expired|C0011065|T040
##uses
##nos
Alone|C0439044|T033
elbows
##asis
##adi
##combe
Step
Waterloo
Alternate
interval
Sonny
plains
Goals
incorporating
recruit
adjoining
Cheshire
excluding
marrying|C0555047|T033
ducked
Cherokee
par
##inate
hiking|C4255280|T056
Coal|C0009131|T109
##bow
natives
ribbon
Allies
con
descriptions
positively
##lal
defendant
22nd
Vivian
##beat
Weather
possessions
Date
sweetheart
inability
Salisbury
adviser
ideology
Nordic
##eu
Cubs
IP
Administrative
##nick
facto
liberation
Burnett
Javier
fashioned
Electoral
Turin
theft
unanimous
Per|C0449201|T029
1799
Clan
Hawkins
Teachers
##wes
Cameroon
Parkway
##gment
demolition
atoms|C0567415|T196
nucleus|C0007610|T026
##thi
recovering
##yte
##vice
lifts
Must
deposit
Hancock
Semi
darkened
Declaration
moan
muscular|C0026845|T024
Myers
attractions
sauce
simulation
##weed
Alps|C1328840|T047
barriers
##baum
Barack
galleries
Min
holders
Greenwich
donation|C4049936|T033
Everybody
Wolfgang
sandwich
Kendra
Collegiate
casino
Slavic
ensuing
Porto
##grapher
Jesuit
suppressed
tires
Ibrahim
protesters
Ibn
Amos
1796
phenomena
Hayden
Paraguay
Squad
Reilly
complement|C0009498|T116
aluminum|C0002367|T196
##eers
doubts
decay|C1265875|T020
demise
Practice
patience
fireplace
transparent
monarchy
##person
Rodney
mattered
rotating
Clifford
disposal
Standards
paced
##llie
arise
tallest
tug|C1319201|T060
documentation
node
freeway
Nikolai
##cite
clicked
imaging
Lorraine
Tactical
Different
Regular
Holding
165
Pilot
guarded
##polis
Classics
Mongolia
Brock
monarch
cellular|C0007634|T025
receptors|C0597357|T116
Mini
Chandler
financed
financially
Lives|C0595998|T033
erection|C0030847|T042
Fuller
unnamed
Kannada
cc
passive
plateau
##arity
freak
##rde
retrieved
transactions
##sus
23rd
swimmer
beef|C2702424|T121
fulfill
Arlington
offspring
reasoning|C0684328|T041
Rhys
saves
pseudonym
centimetres
shivered
shuddered
##ME
Feel|C0013987|T041
##otic
professors
Blackburn
##eng
##life
##haw
interred
lodge
fragile
Della
guardian
##bbled
catalog
clad
observer
tract
declaring
##headed
Lok
dean
Isabelle
1776
irrigation|C0022100|T061
spectacular
shuttle
mastering
##aro
Nathaniel
Retired|C0035345|T033
##lves
Brennan
##kha
dick
##dated
##hler
Rookie
leapt
televised
weekends
Baghdad
Yemen
##fo
factions
ion|C0022023|T196
Lab
mortality
passionate
Hammer
encompasses
confluence
demonstrations
Ki
derivative
soils
##unch
Ranch
Universities
conventions
outright
aiming
hierarchy
reside
illusion|C0020903|T048
graves
rituals|C0233622|T048
126
Antwerp
Dover
##ema
campuses
Hobart
lifelong
aliens
##vity
Memory|C0025260|T041
coordination
alphabet
##mina
Titans
pushes|C0580841|T033
Flanders|C1875156|T197
##holder
Normal
excellence
capped
profound
Taipei
portrayal
sparked
scratch|C1384489|T037
se
##eas
##hir
Mackenzie
##cation
Neo
Shin|C0230444|T029
##lined
magnificent
poster
batsman
##rgent
persuade
##ement
Icelandic
miserable|C0344315|T033
collegiate
Feature
geography
##mura
Comic
Circus
processor
barracks
Tale
##11
Bulls
##rap
strengthened
##bell
injection
miniature
broadly
Letter
fare
hostage
traders
##nium
##mere
Fortune
Rivera
Lu
triumph|C3643615|T196
Browns
Bangalore
cooperative
Basel
announcing
Sawyer
##him
##cco
##kara
darted
##AD
##nova
sucking
##position
perimeter
flung
Holdings
##NP
Basque
sketches
Augustine
Silk|C0074529|T121
Elijah
analyst
armour
riots
acquiring
ghosts
##ems
132
Pioneer
Colleges
Simone
Economy
Author
semester
Soldier
il
##unting
##bid
freaking
Vista
tumor|C0027651|T191
##bat
murderer
##eda
unreleased
##grove
##sser
##té
edit
statute
sovereign
##gawa
Killer
stares|C0423086|T047
Fury
comply
##lord
##nant
barrels
Andhra
Maple
generator
mascot
unusually
eds|C0013720|T047
##ante
##runner
rod|C0206427|T025
##tles
Historically
Jennings
dumped
Established
resemblance
##lium
##cise
##body
##voke
Lydia
##hou
##iring
nonetheless
1797
corrupt
patrons
physicist
sneak
Livingston
Citizens
Architects
Werner
trends
Melody
eighty
markings
brakes
##titled
oversaw
processed
mock|C0562577|T033
Midwest
intervals
##EF
stretches|C0270814|T047
werewolf
##MG
Pack|C1999262|T122
controller
##dition
Honours
cane
Griffith
vague
repertoire
Courtney
orgasm|C0029260|T040
Abdullah
dominance
occupies
Ya
introduces
Lester
instinct
collaborative
Indigenous
refusal
##rank
outlet
debts
spear
155
##keeping
##ulu
Catalan
##osh
tensions|C0233494|T048
##OT
bred
crude
Dunn
abdomen|C0000726|T029
accurately
##fu
##lough
accidents
Row
Audrey
rude
Getting
promotes
replies
Paolo
merge
##nock
trans
Evangelical
automated
Canon
##wear
##ggy
##gma
Broncos
foolish
icy
Voices
knives
Aside
dreamed
generals
molecule
AG
rejection
insufficient
##nagar
deposited
sacked
Landing
arches
helpful
devotion
intake
Flower
PGA
dragons
evolutionary
##mail
330
GM
tissues|C0040300|T024
##tree
arcade
composite
lid
Across
implications
lacks
theological
assessed
concentrations|C0086045|T041
Den
##mans
##ulous
Fu
homeland
##stream
Harriet
ecclesiastical
troop
ecological
winked
##xed
eighteenth
Casino
specializing
##sworth
unlocked
supreme|C3282376|T109
devastated
snatched
trauma|C3714660|T037
GDP|C0018340|T123
Nord
saddle
Wes
convenient
competes
##nu
##iss
Marian
subway
##rri
successes
umbrella
##far
##ually
Dundee
##cence
spark
##rix
##я
Quality
Geological
cockpit
rpm
Cam|C2919945|T190
Bucharest
riot
##PM
Leah
##dad
##pose
Ka
m³
Bundesliga
Wolfe
grim
textile
quartet
expressing
fantastic
destroyers
eternal
picnic
##oro
contractor
1775
spanning
declining
##cating
Lowe
Sutherland
Emirates
downward
nineteen
violently
scout
viral
melting
enterprises
##cer
Crosby
Jubilee
antenna
urgent
Rory
##uin
##sure
wandering
##gler
##vent
Suzuki
Lifetime
Dirty
occupying
##quent
Disc|C0993608|T122
Guru
mound
Lennon
Humanities
listeners
Walton
uh
Braves
Bologna
##bis
##gra
Dwight
crawl|C0235042|T033
flags
memoir
Thorne
Archdiocese
dairy
##uz
##tery
roared
adjust
patches
inn
Knowing
##bbed
##zan
scan|C0034606|T060
Papa|C3887487|T047
precipitation|C0032932|T044
angrily
passages
postal
Phi
embraced
blacks
economist
triangular
Sen
shooter
punished
Millennium
Swimming|C0039003|T056
confessed
Aston
defeats
Era
cousins
Williamson
##rer
daytime
dumb
##rek
underway
specification
Buchanan
prayed
concealed
activation
##issa
canon
awesome
Starr
plural
summers
##fields
Slam
unnecessary
1791
resume
trilogy
compression|C0565514|T061
##rough
selective
dignity
Yan
##xton
immense
##yun
lone
seeded
hiatus
lightweight
summary
Yo
approve
Galway
rejoined
Elise
garbage
burns|C0006434|T037
speeches
129
Honduras
##liness
inventory
jersey
FK
assure
slumped
Lionel
Suite
##sbury
Lena
continuation
##AN
brightly
##nti
GT
Knowledge
##park
##lius
lethal
##tribution
##sions
Certificate
Mara
##lby
algorithms
Jade
blows
pirates
fleeing
wheelchair
Stein
sophomore
Alt|C0001899|T126
Territorial
diploma
snakes
##olic
##tham
Tiffany
Pius
flush|C0016382|T184
urging
Hanover
Reich
##olate
Unity
Pike
collectively
Theme
ballad
kindergarten
rocked
zoo
##page
whip
Rodríguez
strokes|C0038454|T047
checks
Becky
Stern
upstream
##uta
Silent
volunteered
Sigma
##ingen
##tract
##ede
Gujarat
screwed
entertaining
##action
##ryn
defenders
innocence
lesbian
que
Richie
nodes
Lie
juvenile
Jakarta
safer
confront
Bert
breakthrough
gospel
Cable
##zie
institutional
Archive
brake
liquor
feeds
##iate
chancellor
Encyclopedia
Animation
scanning|C0034606|T060
teens
##mother
Core
Rear
Wine
##flower
reactor
Ave
cardinal
sodium|C0037473|T123
strands
Olivier
crouched
Vaughan
Sammy
Image
scars
Emmanuel
flour
bias
nipple|C0028109|T023
revelation
##ucci
Denny
##ssy
Form
Runners
admits
Rama
violated
Burmese
feud
underwear
Mohamed
Named
swift
statewide
Door
Recently
comparing
Hundred
##idge
##nity
##rds
Rally
Reginald
Auburn
solving
waitress
Treasurer
##ilization
Halloween
Ministers
Boss
Shut
##listic
Rahman
demonstrating
##pies
Gaza
Yuri
installations
Math
schooling|C0013658|T033
##bble
Bronx
exiled
gasoline
133
bundle
humid
FCC
proportional
relate
VFL|C0152173|T047
##dez
continuity
##cene
syndicated
atmospheric
arrows
Wanderers
reinforcements
Willow
Lexington
Rotten
##yon
discovering
Serena
portable
##lysis
targeting
£1
Goodman
Steam|C0038225|T197
sensors
detachment
Malik
##erie
attitudes|C0004271|T041
Goes
Kendall
Read|C0034754|T056
Sleep|C0037313|T040
beans
Nikki
modification
Jeanne
knuckles|C0025525|T030
Eleven
##iously
Gross
Jaime
dioxide
moisture
Stones
UCI
displacement|C0012725|T041
Metacritic
Jury
lace
rendering
elephant
Sergei
##quire
GP
Abbott
##type
projection|C0033363|T041
Mouse
Bishops
whispering
Kathleen
Rams
##jar
whites
##oran
assess
dispatched
##hire
kin
##mir
Nursing|C0006147|T040
advocates
tremendous
sweater
assisting
##bil
Farmer
prominently
reddish
Hague
cyclone
##SD
Sage|C3265310|T109
Lawson
Sanctuary
discharged
retains
##ube
shotgun
wilderness
Reformed
similarity
Entry
Watts
Bahá
Quest
Looks
visions|C0042789|T040
Reservoir
Arabs
curls
Blu
dripping
accomplish
Verlag
drill|C0337279|T061
sensor
Dillon
physicians
smashed
##dir
painters
Renault
straw|C4047917|T109
fading
Directorate
lounge
commissions
Brain|C0006104|T023
##graph
neo
##urg
plug
coordinated
##houses
Critical
lamps
illustrator
Returning
erosion|C0333307|T020
Crow
##ciation
blessing
Thought
Wife
medalist
synthesizer
Pam
Thornton
Esther
HBO
fond
Associates
##raz
pirate
permits
Wide
tire
##PC
Ernie
Nassau
transferring
RFC
##ntly
um
spit
AS
##mps
Mining
polar
villa
anchored|C1293132|T061
##zzi
embarrassment
relates
##ă
Rupert
counterparts
131
Baxter
##18
Igor
recognizes
Clive
##hane
##eries
##ibly
occurrence
##scope
fin
colorful
Rapids
banker
tile
##rative
##dus
delays
destinations
##llis
Pond
Dane
grandparents
rewarded
socially
motorway
##hof
##lying
##human
modeled
Dayton
Forward
conscience
Sharma
whistle
Mayer
Sasha
##pical
circuits
Zhou
##ça
Latvian
finalists
predators
Lafayette
closes
obligations
Resolution
##vier
Trustees
reminiscent
##hos
Highlands
Protected
asylum
evacuation|C1282573|T061
##acy
Chevrolet
confession
Somalia
emergence
separating
##rica
alright
calcium|C0006675|T121
Laurent
Welfare
Leonardo
ashes
dental|C1272923|T122
Deal
minerals|C0026162|T197
##lump
##mount
accounted
staggered|C0344191|T047
slogan
photographic
builder
##imes
##raft
tragic
144
SEC|C0074289|T116
Hit|C0272285|T047
tailed
##ples
##rring
##rson
ethical
wrestlers
concludes
lunar
##ept
nitrogen|C0028158|T196
Aid|C0021588|T061
cyclist
quarterfinals
##ه
harvest
##hem
Pasha
IL
##mis
continually
##forth
Intel
bucket
##ended
witches
pretended
dresses
viewer
peculiar
lowering
volcano
Marilyn
Qualifier
clung
##sher
Cut|C0000925|T037
modules
Bowie|C0275491|T037
##lded
onset
transcription|C0040649|T045
residences
##pie
##itor
scrapped
##bic
Monaco
Mayo
eternity
Strike
uncovered
skeleton|C0037253|T022
##wicz
Isles
bug
Promoted
##rush
Mechanical
XII
##ivo
gripping
stubborn
velvet
TD
decommissioned
operas
spatial
unstable|C0443343|T033
Congressman
wasted
##aga
##ume
advertisements
##nya
obliged
Cannes
Conway
bricks
##gnant
##mity
##uise
jumps|C0560453|T033
Clear
##cine
##sche
chord
utter
Su
podium
spokesman
Royce
assassin
confirmation
licensing
liberty
##rata
Geographic
individually
detained
##ffe
Saturn
crushing|C0185060|T061
airplane
bushes
knights
##PD
Lilly
hurts
unexpectedly
Conservatives
pumping
Forty
candle|C1850568|T047
Pérez
peasants
supplement
Sundays
##ggs
##rries
risen
enthusiastic|C0558083|T041
corresponds
pending
##IF
Owens
floods|C0375741|T037
Painter
inflation
presumed
inscribed
Chamberlain
bizarre
1200
liability
reacted
tub
Legacy|C2979241|T109
##eds
##pted
shone
##litz
##NC
Tiny
genome
bays
Eduardo
robbery
stall
hatch
Depot
Variety
Flora
reprinted
trembled
outlined
CR
Theresa
spans
##plication
Jensen
##eering
posting
##rky
pays
##ost
Marcos
fortifications
inferior
##ential
Devi
despair|C0233488|T184
Talbot
##chus
updates
ego
Booth
Darius
tops
##lau
Scene
##DC
Harlem
Trey
Generally
candles
##α
Neville
Admiralty
##hong
iconic
victorious
1600
Rowan
abundance
miniseries
clutching
sanctioned
##words
obscure
##ision
##rle
##EM
disappearing
Resort
Obviously
##eb
exceeded
1870s
Adults
##cts
Cry
Kerr|C2344238|T121
ragged
selfish
##lson
circled
pillars
galaxy
##asco
##mental
rebuild
caution
Resistance
Start
bind
splitting|C1444777|T033
Baba
Hogan
ps
partnerships
slam
Peggy
courthouse
##OD
organizational
packages
Angie
##nds
possesses
##rp
Expressway
Gould
Terror
Him
Geoff
nobles
##ope
shark|C3486821|T121
##nh
identifies
##oor
testified
Playing|C0600138|T033
##ump
##isa
stool
Idol
##pice
##tana
Byrne
Gerry
grunted
26th
observing
habits
privilege
immortal
wagons
##thy
dot
Bring
##lian
##witz
newest
##uga
constraints
Screen|C0199230|T060
Issue|C0033213|T033
##RNA
##vil
reminder
##gles
addiction|C0085281|T048
piercing
stunning
var
##rita
Signal
accumulated
##wide
float
devastating
viable
cartoons
Uttar
flared
##encies
Theology
patents
##bahn
privileges
##ava
##CO
137
##oped
##NT
orchestral
medication|C0013227|T121
225
erect
Nadia
École
fried
Sales
scripts
##rease
airs
Cage
inadequate
structured
countless
Avengers
Kathy
disguise
mirrors
Investigation
reservation
##nson
Legends
humorous
Mona
decorations
attachment|C0185023|T061
Via
motivation|C0026605|T041
Browne
strangers
##ński
Shadows
Twins
##pressed
Alma
Nominated
##ott
Sergio
canopy
152
Semifinals
devised
##irk
upwards
Traffic
Goddess
Move|C0578671|T033
beetles
138
spat
##anne
holdings
##SP
tangled
Whilst
Fowler
anthem
##ING
##ogy
snarled
moonlight
songwriting
tolerance
Worlds
exams
##pia
notices
sensitivity
poetic
Stephens
Boone
insect
reconstructed
Fresh
27th
balloon
##ables
Brendan
mug|C0004063|T037
##gee
1780
apex
exports
slides
Lahore
hiring
Shell
electorate
sexuality
poker
nonprofit
##imate
cone|C1704638|T122
##uce
Okinawa
superintendent
##HC
referenced
turret
Sprint
Citizen
equilibrium|C0014653|T040
Stafford
curb
Driver
Valerie
##rona
aching|C0234238|T184
impacts
##bol
observers
Downs
Shri
##uth
airports
##uda
assignments
curtains
solitary
icon
patrols
substances
Jasper
mountainous
Published
ached
##ingly
announce
dove
damaging
##tism
Primera
Dexter
limiting
batch
##uli
undergoing
refugee
Ye
admiral
pavement
##WR
##reed
pipeline
desires
Ramsey
Sheila
thickness
Brotherhood
Tea
instituted
Belt
Break
plots
##ais
masculine
##where
Theo
##aged
##mined
Experience
scratched
Ethiopian
Teaching
##nov
Aiden
Abe|C0155685|T047
Samoa
conditioning|C0009647|T041
##mous
Otherwise
fade
Jenks
##encing
Nat|C0200932|T059
##lain
Anyone
##kis
smirk
Riding
##nny
Bavarian
blessed
potatoes
Hook
##wise
likewise
hardened|C0702118|T033
Merry
amid
persecution
##sten
Elections
Hoffman
Pitt
##vering
distraction
exploitation
infamous
quote
averaging
healed
Rhythm
Germanic
Mormon
illuminated
guides
##ische
interfere
##ilized
rector
perennial
##ival
Everett
courtesy
##nham
Kirby
Mk
##vic
Medieval
##tale
Luigi
limp|C0311395|T033
##diction
Alive|C2584946|T033
greeting|C0566229|T033
shove
##force
##fly
Jasmine|C3256690|T121
Bend
Capt
Suzanne
ditch
134
##nning
Host
fathers
rebuilding
Vocal
wires
##manship
tan|C0040854|T130
Factor
fixture
##LS
Māori
Plate
pyramid|C0262324|T023
##umble
slap
Schneider
yell
##ulture
##tional
Goodbye
sore|C0234233|T184
##pher
depressed|C0344315|T033
##dox
pitching
Find
Lotus
##wang
strand
Teen
debates
prevalent
##bilities
exposing
hears
billed
##rse
reorganized
compelled
disturbing
displaying
##tock
Clinical
emotionally
##iah
Derbyshire
grouped
##quel
Bahrain
Journalism
IN
persistent|C0332996|T019
blankets
Crane
camping|C0006811|T056
Direct
proving
Lola
##dding
Corporate
birthplace
##boats
##ender
Figure
dared
Assam
precursor
##nched
Tribe
Restoration
slate|C0303752|T197
Meyrick
hunted
stroking
Earlier
Kind
polls
appeals
monetary
##reate
Kira
Langdon
explores
GPS|C0272302|T047
extensions
squares
Results
draped
announcer
merit
##ennial
##tral
##roved
##cion
robots
supervisor
snorted
##group
Cannon
procession
monkey
freeze
sleeves
Nile
verdict
ropes
firearms
extraction|C0185115|T061
tensed
EC
Saunders
##tches
diamonds|C0057717|T196
Marriage|C0024841|T033
##amble
curling
Amazing
##haling
unrelated|C0445356|T033
##roads
Daughter
cum|C0228521|T023
discarded
kidney|C0022646|T023
cliffs
forested
Candy
##lap
authentic
tablet|C0039225|T122
notation
##nburg
Bulldogs
Callum
Meet
mouths|C0226896|T030
coated
##xe
Truman
combinations
##mation
Steelers
Fan
Than
paternal
##father
##uti
Rebellion
inviting
Fun
theatres
##ي
##rom
curator
##cision
networking
Oz
drought
##ssel
granting
MBA
Shelby
Elaine
jealousy|C0022371|T041
Kyoto
shores
signaling|C0037083|T043
tenants
debated
Intermediate
Wise
##hes
##pu
Havana
duke
vicious
exited
servers
Nonetheless
Reports
explode
##beth
Nationals
offerings
Oval
conferred
eponymous
folklore
##NR
Shire
planting
1783
Zeus
accelerated
Constable
consuming
troubles
McCartney
texture
bust
Immigration
excavated
hopefully
##cession
##coe
##name
##ully
lining
Einstein
Venezuelan
reissued
minorities
Beatrice
crystals|C1378554|T122
##nies
circus
lava
Beirut
extinction
##shu
Becker
##uke
issuing
Zurich
extract|C2752151|T122
##esta
##rred
regulate
progression|C0242656|T046
hut
alcoholic
plea
AB
Norse
Hubert
Mansfield
ashamed
##put
Bombardment
stripes
electrons
Denise
horrified
Nor
arranger
Hay
Koch
##ddling
##iner
Birthday
Josie
deliberate
explorer
##jiang
##signed
Arrow
wiping
satellites
baritone
mobility|C0425245|T033
##rals
Dorset
turbine
Coffee
185
##lder
Cara
Colts
pits
Crossing
coral
##birth
Tai
zombie
smoothly
##hp
mates
##ady
Marguerite
##tary
puzzled|C0423995|T033
tapes
overly
Sonic
Prayer
Thinking|C0039869|T041
##uf
IEEE
obligation
##cliffe
Basil|C2740585|T121
redesignated
##mmy
nostrils|C0595944|T030
Barney
XIII
##phones
vacated
unused
Berg
##roid
Towards
viola
136
Event
subdivided
rabbit|C2093603|T129
recruiting
##nery
Namibia
##16
##ilation
recruits
Famous
Francesca
##hari
Goa
##lat
Karachi
haul
biblical
##cible
MGM
##rta
horsepower
profitable
Grandma
importantly
Martinez
incoming
##kill
beneficial
nominal
praying|C0377355|T116
##isch
gable
nail|C0027342|T023
noises
##ttle
Polytechnic
rub
##cope
Thor
audition
erotic
##ending
##iano
Ultimately
armoured
##mum
presently
pedestrian
##tled
Ipswich
offence
##ffin
##borne
Flemish
##hman
echo
##cting
auditorium
gentlemen
winged
##tched
Nicaragua
Unknown
prosperity
exhaust
pie
Peruvian
compartment
heights
disabilities|C0231170|T033
##pole
Harding
Humphrey
postponed
moths
Mathematical
Mets
posters
axe
##nett
Nights
Typically
chuckle
councillors
alternating
141
Norris
##ately
##etus
deficit
dreaming|C0013117|T041
cooler
oppose
Beethoven
##esis
Marquis|C2729913|T109
flashlight
headache|C0018681|T184
investor
responding
appointments
##shore
Elias
ideals
shades
torch|C0270173|T047
lingering
##real
pier
fertile|C0015895|T040
Diploma
currents
Snake
##horse
##15
Briggs
##ota
##hima
##romatic
Coastal
Kuala
ankles|C0003086|T030
Rae
slice
Hilton
locking
Approximately
Workshop
Niagara
strangely
##scence
functionality
advertisement
Rapid
Anders
ho
Soviets
packing|C0184967|T061
basal
Sunderland
Permanent
##fting
rack
tying
Lowell
##ncing
Wizard
mighty
tertiary
pencil
dismissal|C0014007|T033
torso|C0460005|T029
grasped
##yev
Sand|C0037098|T122
gossip
##nae
Beer
implementing
##19
##riya
Fork
Bee
##eria
Win
##cid
sailor
pressures|C0460139|T033
##oping
speculated
Freddie
originating
##DF
##SR
##outh
28th
melt
Brenda
lump|C0577559|T033
Burlington
USC
marginal
##bine
Dogs
swamp
cu
Ex
uranium|C0041928|T196
metro
spill
Pietro
seize
Chorus
partition
##dock
##media
engineered
##oria
conclusions
subdivision|C1273519|T033
##uid
Illustrated
Leading
##hora
Berkshire
definite
##books
##cin
##suke
noun
winced
Doris
dissertation
Wilderness
##quest
braced
arbitrary
kidnapping
Kurdish
##but
clearance
excavations
wanna
Allmusic
insult
presided
yacht
##SM
Honour
Tin|C0040238|T196
attracting
explosives
Gore
Bride
##ience
Packers
Devils
Observer
##course
Loser
##erry
##hardt
##mble
Cyrillic
undefeated
##stra
subordinate
##ame
Wigan
compulsory
Pauline
Cruise
Opposition|C0231519|T033
##ods
Period|C0025344|T040
dispersed
expose
##60
##has
Certain
Clerk
Wolves
##hibition
apparatus
allegiance
orbital
justified
thanked
##ević
Biblical
Carolyn
Graves
##tton
Hercules
backgrounds
replica
1788
aquatic
Mega
Stirling
obstacles
filing
Founder
vowels
Deborah
Rotterdam
surpassed
Belarusian
##ologists
Zambia
Ren|C0022646|T023
Olga
Alpine
bi
councillor
Oaks
Animals
eliminating
digit|C0582802|T023
Managing|C1273870|T057
##GE
laundry
##rdo
presses
slamming
Tudor
thief
posterior|C0751438|T047
##bas
Rodgers
smells|C0037361|T040
##ining
Hole
SUV
trombone
numbering
representations
Domingo
Paralympics
cartridge
##rash
Combined
shelves
Kraków
revision|C0558347|T061
##frame
Sánchez
##tracted
##bler
Alain
townships
sic
trousers
Gibbs
anterior|C0751437|T047
symmetry
vaguely
Castile
IRA
resembling
Penguin
##ulent
infections|C0851162|T047
##stant
raped
##pressive
worrying|C0233481|T033
brains|C0006104|T023
bending
JR
Evidence
Venetian
complexes
Jonah
850
exported
Ambrose
Gap
philanthropist
##atus
Marxist
weighing|C1305866|T060
##KO
##nath
Soldiers
chiefs
reject
repeating
shaky
Zürich
preserving
##xin
cigarettes
##break
mortar
##fin
Already
reproduction
socks
Waiting
amazed
##aca
dash
##path
Airborne
##harf
##get
descending
OBE
Sant
Tess
Lucius
enjoys
##ttered
##ivation
##ete
Leinster
Phillies
execute
geological
unfinished
Courts
SP
Beaver
Duck|C2725890|T129
motions
Platinum|C0032207|T196
friction
##aud
##bet
Parts
Stade
entirety
sprang
Smithsonian
coffin
prolonged
Borneo
##vise
unanimously
##uchi
Cars
Cassandra
Australians
##CT
##rgen
Louisa
spur
Constance
##lities
Patent
racism
tempo
##ssion
##chard
##nology
##claim
Million
Nichols
##dah
Numerous
ing
Pure
plantations
donor
##EP
##rip
convenience
##plate
dots|C1720485|T033
indirect
##written
Dong
failures
adapt
wizard
unfortunately
##gion
practitioners
economically
Enrique
unchanged|C0442739|T033
kingdoms
refined
definitions
lazy
worries|C0233481|T033
railing
##nay
Kaiser
##lug
cracks
sells
ninety
##WC
Directed
denotes
developmental
papal
unfortunate
disappointing
sixteenth
Jen
##urier
NWA
drifting
Horror
##chemical
behaviors
bury
surfaced
foreigners
slick
AND
##rene
##ditions
##teral
scrap
kicks
comprise
buddy
##anda
Mental
##ype
Dom|C0013007|T131
wines
Limerick
Luca
Rand
##won
Tomatoes
homage
geometric
##nted
telescope
Shelley
poles
##fan
shareholders
Autonomous
cope
intensified
Genoa
Reformation
grazing|C0043242|T037
##tern
Zhao
provisional
##bies
Con
##riel
Cynthia
Raleigh
vivid
threaten
Length
subscription
roses
Müller
##isms
robin|C0304016|T123
##tial
Laos
Stanton
nationalism
##clave
##ND
##17
##zz
staging
Busch
Cindy
relieve
##spective
packs
neglected
CBE
alpine
Evolution
uneasy|C0424142|T033
coastline
Destiny
Barber
Julio
##tted
informs
unprecedented
Pavilion
##bei
##ference
betrayal
awaiting
leaked
V8
puppet
adverse
Bourne
Sunset
collectors
##glass
##sque
copied
Demon
conceded
resembled
Rafe
Levy
prosecutor
##ject
flora
manned
deaf
Mosque
reminds
Lizzie
Products
Funny
cassette
congress
##rong
Rover
tossing
prompting
chooses
Satellite
cautiously
Reese
##UT
Huang
Gloucestershire
giggled
Kitty
##å
Pleasant
Aye
##ond
judging
1860s
intentionally
Hurling
aggression
##xy
transfers
employing|C0557351|T033
##fies
##oda
Archibald
Blessed
Ski|C0037262|T029
flavor
Rosie
##burgh
sunset
Scholarship
WC
surround
ranged
##jay
Degree
Houses
squeezing
limb|C0015385|T023
premium
Leningrad
steals
##inated
##ssie
madness
vacancy
hydraulic
Northampton
##prise
Marks
Boxing|C0006080|T056
##fying
academics
##lich
##TY
CDs|C0268238|T047
##lma
hardcore
monitors
paperback
cables
Dimitri
upside
advent
Ra
##clusive
Aug
Christchurch
objected
stalked
Simple
colonists
##laid
CT
discusses
fellowship
Carnival
cares
Miracle
pastoral
rooted
shortage
borne
Quentin
meditation
tapping
Novel
##ades
Alicia
Burn|C0006434|T037
famed
residency
Fernández
Johannesburg
Zhu
offended
Mao|C0026454|T126
outward
##inas
XV
denial|C0011317|T048
noticing
##ís
quarry
##hound
##amo
Bernie
Bentley
Joanna
mortgage
##rdi
##sumption
lenses
extracted
depiction
##RE
Networks
Broad
Revenue
flickered
virgin|C0555061|T033
flanked
##о
Enterprises
probable|C0332148|T033
Liberals
Falcons
drowning|C0013142|T037
phrases
loads
assumes
inhaled
awe
logs
slightest
spiders
waterfall
##pate
rocking
shrub
##uil
roofs
##gard
prehistoric
wary
##rak
TO
clips
sustain|C2732140|T121
treason
microphone
voter
Lamb
psychologist
wrinkled
##ères
mating
Carrier|C0007294|T033
340
##lbert
sensing
##rino
destiny
distract
weaker
UC
Nearly
neurons|C0027882|T025
spends
Apache
##rem
genuinely
wells
##lanted
stereo
##girl
Lois
Leaving
consul
fungi
Pier
Cyril
80s
Jungle
##tani
illustration
Split
##hana
Abigail
##patrick
1787
diminished
Selected
packaging
##EG
Martínez
communal
Manufacturing
sentiment
143
unwilling|C0558080|T041
praising
Citation
pills|C0994475|T122
##iti
##rax
muffled
neatly
workforce
Yep
leisure
Tu
##nding
Wakefield
ancestral
##uki
destructive
seas
Passion|C0939808|T109
showcase
##ceptive
heroic
142
exhaustion|C0392674|T184
Customs
##aker
Scholar
sliced
##inian
Direction
##OW
Swansea
aluminium|C0002367|T196
##eep
ceramic
McCoy
Career
Sector
chartered
Damascus
pictured
Interest|C0543488|T041
stiffened
Plateau
obsolete
##tant
irritated
inappropriate
overs
##nko
bail
Talent
Sur|C0038880|T121
ours
##nah
barred
legged
sociology
Bud
dictionary
##luk
Cover
obey
##oring
annoying
##dong
apprentice
Cyrus
Role
##GP
##uns
##bag
Greenland
Porsche
Rocket
##32
organism
##ntary
reliability
##vocation
##й
Found
##hine
motors
promoter
unfair
##oms
##note
distribute
eminent
rails
appealing
chiefly
meaningful
Stephan
##rehension
Consumer
psychiatric
bowler
saints
##iful
##н
1777
Pol
Dorian
Townsend
hastily
##jima
Quincy
Sol|C1382100|T122
fascinated
Scarlet
alto
Avon
certainty
##eding
Keys
##chu
Chu
##VE
ions|C0022023|T196
tributaries
Thanksgiving
##fusion
astronomer
oxide|C0030015|T197
pavilion
Supply
Casa
Bollywood
sadly
mutations|C0026882|T045
Keller
##wave
nationals
##rgo
##ym
predict
Catholicism
Vega
##eration
##ums
Mali
tuned
Lankan
Plans
radial
Bosnian
Lexi
##14
##ü
sacks
unpleasant
Empty
handles
##taking
Bon
switches
intently
tuition
antique
##jk
fraternity
notebook
Desmond
##sei
prostitution
##how
deed
##OP
501
Somewhere
Rocks
##mons
campaigned
frigate
gases
suppress
##hang
Merlin|C0254123|T123
Northumberland
dominate
expeditions
thunder
##ups
##rical
Cap|C0006935|T122
thorough
Ariel
##kind
renewable
constructing
pacing
terrorists
Bowen
documentaries
westward
##lass
##nage
Merchant
##ued
Beaumont
Din
##hian
Danube
peasant
Garrison
encourages
gratitude
reminding|C0557033|T061
stormed
##ouse
pronunciation
##ailed
Weekend
suggestions
##ffing
##DI
Active
Colombo
##logists
Merrill
##cens
Archaeological
Medina
captained
##yk
duel
cracking
Wilkinson
Guam
pickup
renovations
##ël
##izer
delighted
##iri
Weaver
##ctional
tens|C0040654|T061
##hab
Clint
##usion
##each
petals
Farrell
##sable
caste
##will
Ezra
##qi
##standing
thrilled
ambush
exhaled|C0231800|T040
##SU
Resource
blur
forearm|C0016536|T023
specifications
contingent
cafe
##iology
Antony
fundraising
grape|C0795617|T121
##rgy
turnout
##udi
Clifton
laboratories
Irvine
##opus
##lid
Monthly
Bihar
statutory
Roses
Emil
##rig
lumber
optimal
##DR
pumps
plaster|C0460977|T122
Mozambique
##aco
nightclub
propelled
##hun
ked
surplus
wax|C0043076|T122
##urai
pioneered
Sunny
imprint
Forget
Eliot
approximate
patronage
##bek
##ely
##mbe
Partnership
curl
snapping|C1177045|T122
29th
Patriarch
##jord
seldom
##ature
astronomy
Bremen
XIV
airborne
205
1778
recognizing
stranded
arrogant
bombardment
destined
ensured
146
robust
Davenport
Interactive
Offensive
Fi
prevents
probe
propeller
sorrow|C0018235|T041
Blade|C2948008|T121
mounting
automotive
##dged
wallet
201
lashes
Forrest
##ift
Cell|C0007634|T025
Younger
shouts
##cki
folds
##chet
Epic|C1273342|T059
yields
homosexual
tunes
##minate
##text
Manny
chemist
hindwings
##urn
pilgrimage
##sfield
##riff
MLS
##rive
Huntington
translates
Path
slim
##ndra
##oz
climax
commuter
desperation
##reet
denying
##rious
daring
seminary
polo
##clamation
Teatro
Torah
Cats
identities|C0424215|T041
Poles
photographed
fiery
popularly
##cross
winters
Hesse
##vio
Nurse
Senegal
Salon
prescribed
justify
##gues
##и
##orted
HQ
##hiro
evaluated
momentarily
##unts
Debbie
##licity
##TP
Mighty
Rabbit|C2093603|T121
##chal
Events
Savoy
##ht
Brandenburg
Bordeaux
##laus
Release|C1963578|T061
##IE
##kowski
1900s
SK
Strauss
##aly
Sonia
Updated
synagogue
McKay
flattened
370
clutch
contests
toast
evaluate
pope
heirs
jam
tutor
reverted
##ading
nonsense|C0544885|T049
hesitate
Lars
Ceylon
Laurie
##guchi
accordingly
customary
148
Ethics
Multiple
instincts
IGN
##ä
bullshit
##hit
##par
desirable
##ducing
##yam
alias
ashore
licenses
##lification
misery
147
Cola
assassinated
fiercely
##aft
las|C1562368|T061
goat
substrate
lords
Cass
Bridges
ICC
lasts
sights
reproductive
##asi
Ivory
Clean
fixing
##lace
seeming
aide
1850s
harassment
##FF
##LE
reasonably
##coat
##cano
NYC
1784
Fifty
immunity
Canadians
Cheng
comforting
meanwhile
##tera
##blin
breeds
glowed
##vour
Aden
##verted
##aded
##oral
neat
enforced
poisoning|C0032343|T037
##ews
##hone
enforce
predecessors
survivor
Month
unfamiliar
pierced|C0935563|T061
waived
dump
responds
Mai
Declan
angular
Doesn
interpretations
##yar
invest
Dhaka
policeman
Congregation
Eighth
painfully
##este
##vior
Württemberg
##cles
blockade|C3540676|T121
encouragement
##fie
Caucasus
Malone
Universidad
utilize
Nissan
inherent
151
agreeing
syllable
determines
Protocol
conclude
##gara
40th
Xu
Taiwanese
##ather
boiler
printer
Lacey
titular
Klaus
Fallon
Wembley
fox
Chandra
Governorate
obsessed
##Ps
micro|C0085672|T059
##25
Cooke
gymnasium
weaving
Shall
Hussein
glaring|C3887688|T184
softball
Reader
Dominion
Trouble
varsity
Cooperation
Chaos
Kang
Kramer
Eisenhower
proves
Connie
consortium
governors
Bethany
opener
Normally
Willy
linebacker
Regent
Used|C1273517|T033
AllMusic
Twilight
##shaw
Companion
Tribunal
simpler
##gam
Experimental
Slovenian
cellar
deadline
trout|C2725895|T121
Hubbard
ads
idol
##hetto
Granada
clues
salmon|C2702377|T129
1700
Omega
Caldwell
softened
Bills
Honolulu
##gn
Terrace
suitcase
##IL
frantic
##oons
Abbot
Sitting|C0277814|T033
Fortress
Riders
sickness|C0221423|T184
enzymes|C0014442|T126
trustee
Bern
forged
##13
##ruff
##rl
##versity
inspector
champagne
##held
##FI
hereditary
Taliban
handball|C0336936|T056
##wine
Sioux
##dicated
honoured
139
##tude
Skye
meanings
##rkin
cardiac|C0018787|T023
analyzed
vegetable
##FS
Royals
dial
freelance
##fest
partisan
petroleum|C0031264|T109
ridden
Lincolnshire
panting|C0425488|T033
##comb
presidents
Haley
##chs
contributes
Jew
discoveries
panicked
Woody
eyelids|C0015426|T023
Fate
Tulsa
mg
whiskey
zombies
Wii
##udge
investigators
##bull
centred
##screen
Bone|C0262950|T023
Lana
##oise
forts
##ske
Conan
Lyons
##writing
SH
##ride
rhythmic
154
##llah
pioneers
##bright
captivity
Sanchez
Oman
##mith
Flint|C0303753|T197
Platform
##ioned
emission
packet
Persia
##formed
takeover
tempted
Vance
Few
Toni
receptions
##ن
exchanges
Camille
whale
Chronicles
##rent
##ushing
##rift
Alto
Genus
##asing
onward
foremost
longing
Rockefeller
containers
##cribe
intercepted
##olt
pleading
Bye
bee
##umbling
153
undertake
Izzy
cheaper
Ultra
validity
##pse
Sa
hovering
##pert
vintage
engraved
##rise
farmland
##ever
##ifier
Atlantis
propose
Catalonia
plunged
##edly
demonstrates
gig
##cover
156
Osborne
cowboy
herd
investigator
loops
Burning|C0085624|T184
rests|C0035253|T056
Instrumental
embarrassing
focal
install
readings|C0034754|T056
swirling
Chatham
parameter
##zin
##holders
Mandarin
Moody|C0554980|T033
converting
Escape
warnings
##chester
incarnation
##ophone
adopting|C0425382|T033
##lins
Cromwell
##laws
Axis|C0004457|T023
Verde
Kappa
Schwartz
Serbs
caliber
Wanna
Chung
##ality
nursery
principally
Bulletin
likelihood
logging
##erty
Boyle
supportive
twitched
##usive
builds
Marseille
omitted
motif
Lands
##lusion
##ssed
Barrow
Airfield
Harmony
WWF
endured
merging
convey
branding
examinations
167
Italians
##dh
dude
1781
##teau
crawling
thoughtful
clasped
concluding
brewery
Moldova
Wan
Towers
Heidelberg
202
##ict
Lagos
imposing
##eval
##serve
Bacon
frowning
thirteenth
conception|C0009637|T040
calculations
##ович
##mile
##ivated
mutation|C0026882|T045
strap
##lund
demographic
nude
perfection
stocks
##renched
##dit
Alejandro
bites|C0005658|T037
fragment
##hack
##rchy
GB
Surgery
Berger
punish
boiling
consume
Elle
Sid|C0038644|T047
Dome
relies
Crescent
treasurer
Bloody
1758
upheld
Guess
Restaurant
signatures
font
millennium
mural
stakes
Abel
hailed
insists
Alumni
Breton
##jun
digits|C0582802|T023
##FM
##thal
Talking|C0234856|T056
motive|C0026605|T041
reigning
babe
masks
##ø
Shaun
potato|C2702372|T121
sour
whitish
Somali
##derman
##rab
##wy
chancel
telecommunications
Noise
messenger
tidal
grinding|C0185051|T061
##ogenic
Rebel
constituent
peripheral
recruitment|C0271510|T047
##ograph
##tler
pumped
Ravi
poked
##gley
Olive|C0228539|T023
diabetes|C0011849|T047
discs
liking
sting|C0038340|T037
fits|C0036572|T184
stir
Mari
Sega|C0205768|T191
creativity|C0010297|T041
weights
Macau
mandated
Bohemia
disastrous
Katrina
Baku
Rajasthan
waiter
##psis
Siberia
verbs
##truction
patented
1782
##ndon
Relegated
Hunters
Greenwood
Shock|C0036974|T046
accusing
skipped
Sessions
markers
subset
monumental
Viola
comparative
Alright
Barbados
setup
Session
standardized
##ík
##sket
appoint
AFB
Nationalist
##WS
Troop
leaped
Treasure
goodness
weary
originates
100th
compassion
expresses
recommend
168
composing
seventeenth
Tex
Atlético
bald|C0002170|T047
Finding|C0037088|T184
Presidency
Sharks
favoured
inactive
##lter
suffix
princes
brighter
##ctus
classics
defendants
culminated
terribly
Strategy
evenings
##ção
##iver
##urance
absorb
##rner
Territories
RBI
soothing
Martín
concurrently
##tr
Nicholson
fibers
swam
##oney
Allie
Algerian
Dartmouth
Mafia
##bos
##tts
Councillor
vocabulary
##bla
##lé
intending
##dler
Guerrero
sunshine
pedal|C0016504|T023
##TO
administrators
periodic
scholarships
Loop
Madeline
exaggerated
##ressed
Regan|C0740201|T126
##cellular
Explorer
##oids
Alexandre
vows
Reporter
Unable|C1299582|T033
Average
absorption
##bedience
Fortunately
Auxiliary
Grandpa
##HP
##ovo
potent
temporal
adrenaline|C0014563|T121
##udo
confusing
guiding
Dry
qualifications
joking
wherein
heavyweight
##ices
nightmares|C0028084|T184
pharmaceutical|C0013058|T122
Commanding
##aled
##ove
Gregor
##UP
censorship
degradation|C0699900|T040
glorious
Austro
##rench
380
Miriam
sped
##orous
offset
##KA
fined
specialists
Pune
João
##dina
propped
fungus
##ς
frantically
Gabrielle
Hare
committing|C1171947|T121
##plied
Ask
Wilmington
stunt
numb
warmer
preacher
earnings
##lating
integer
##ija
federation
homosexuality
##cademia
epidemic
grumbled
shoving
Milk
Satan
Tobias
innovations
##dington
geology
memoirs
##IR
spared
culminating
Daphne
Focus
severed
stricken
Paige
Mans
flats
Russo
communes
litigation|C1368221|T033
strengthening
##powered
Staffordshire
Wiltshire
Painting
Watkins
##د
specializes
Select
##rane
##aver
Fulton
playable
##VN
openings
sampling|C0441621|T060
##coon
##21
Allah
travelers
allocation
##arily
Loch
##hm
commentators
fulfilled
##troke
Emeritus
Vanderbilt
Vijay
pledged
##tative
diagram
drilling|C0337279|T061
##MD
##plain
Edison
productivity
31st
##rying
##ption
##gano
##oration
##bara
posture|C0722716|T197
bothering
platoon
politely
##inating
redevelopment
Job
##vale
stark
incorrect
Mansion
renewal|C2916969|T121
threatens
Bahamas
fridge
##tata
Uzbekistan
##edia
Sainte
##mio
gaps
neural
##storm
overturned
Preservation
shields
##ngo
##physics
ah
gradual
killings
##anza
consultation
premiership
Felipe
coincidence
##ène
##any
Handbook
##loaded
Edit
Guns
arguably
##ş
compressed
depict
seller
##qui
Kilkenny
##kling
Olympia
librarian
##acles
dramas
JP
Kit
Maj
##lists
proprietary
##nged
##ettes
##tok
exceeding
Lock
induction
numerical
##vist
Straight
foyer
imaginary
##pop
violinist
Carla
bouncing
##ashi
abolition
##uction
restoring
scenic
##č
Doom
overthrow
para|C0030563|T033
##vid
##ughty
Concord
HC
cocaine|C0009170|T109
deputies
##aul
visibility
##wart
Kapoor
Hutchinson
##agan
flashes|C0085635|T047
kn
decreasing
##ronology
quotes
vain|C0346208|T191
satisfying
##iam
##linger
310
Hanson
fauna
##zawa
##rrel
Trenton
##VB
Employment
vocational
Exactly
bartender
butterflies
tow
##chers
##ocks
pigs
merchandise
##game
##pine
Shea
##gration
Connell
Josephine
monopoly
##dled
Cobb
warships
cancellation
someday
stove
##Cs
candidacy
superhero
unrest
Toulouse
admiration
undergone
whirled
Reconnaissance
costly
##ships
290
Cafe
amber|C0242864|T109
Tory
##mpt
definitive
##dress
proposes
redesigned
acceleration
##asa
##raphy
Presley
exits
Languages
##cel
Mode
spokesperson
##tius
Ban
forthcoming
grounded
ACC
compelling
logistics
retailers
abused
##gating
soda
##yland
##lution
Landmark
XVI
blush|C0005874|T184
##tem
hurling
dread
Tobago
Foley
##uad
scenarios
##mentation
##rks
Score
fatigue|C0015672|T184
hairy
correspond
##iard
defences
confiscated
##rudence
1785
Formerly
Shot|C0021485|T061
advertised
460
Text
ridges
Promise
Dev
exclusion
NHS|C0796085|T047
tuberculosis|C0041296|T047
rockets
##offs
sparkling
256
disappears
mankind
##hore
HP
##omo
taxation
Multi
DS
Virgil
##ams
Dell
stacked
guessing
Jump
Nope
cheer
hates|C0018616|T041
ballots
overlooked
analyses
Prevention|C0199176|T061
maturity
dos
##cards
##lect
Mare
##yssa
Petty
##wning
differing
iOS
##ior
Joachim
Sentinel
##nstein
90s
Pamela
480
Asher
##lary
Vicente
landings
portray
##rda
##xley
Virtual
##uary
finances
Jain
Somebody
Tri
behave
Michele
##ider
dwellings
FAA
Gallagher
##lide
Monkey
195
aforementioned
##rism
##bey
##kim
##puted
Mesa
hopped
unopposed
recipients
Reality
Been
gritted
149
playground
pillar
##rone
Guinness
##tad
Théâtre
depended
Tipperary
Reuben
frightening|C0015726|T041
wooded
Target
globally
##uted
Morales
Baptiste
drunken
Institut
characterised
##chemistry
Strip|C3241918|T122
discrete
Premiership
##zzling
gazing|C0553544|T033
Outer
##quisition
Sikh
Booker
##yal
contemporaries
Jericho
##chan
##physical
##witch
Militia
##rez
##zard
dangers
##utter
##₀
Programs
darling
participates
railroads
##ienne
behavioral
bureau
##rook
161
Hicks
##rises
Comes
inflicted
bees
kindness
norm
##ković
generators
##pard
##omy
##ili
methodology
Alvin
façade
latitude
##plified
DE
Morse
##mered
educate
intersects
##MF
##cz
##vated
AL
##graded
##fill
constitutes
artery|C0003842|T023
feudal
avant|C2948619|T121
cautious
##ogue
immigrated
##chenko
Saul
Clinic
Fang
choke|C0008301|T046
Cornelius
flexibility
temperate
pins
##erson
oddly
inequality
157
Natasha
Sal
##uter
215
aft
blinking|C0005757|T042
##ntino
northward
Exposition
cookies
Wedding
impulse|C0443235|T061
Overseas
terrifying|C0558261|T033
##ough
Mortimer
##see
440
https
og
imagining
##cars
Nicola
exceptionally
threads
##cup
Oswald
Provisional
dismantled
deserves
1786
Fairy
discourse
Counsel
departing
Arc
guarding|C0427198|T033
##orse
420
alterations
vibrant
Em
squinted
terrace
rowing
Led
accessories
SF
Sgt
cheating
Atomic
##raj
Blackpool
##iary
boarded
substituted
bestowed
lime|C0064990|T197
kernel
##jah
Belmont
shaken
sticky
retrospective
Louie
migrants
weigh
sunglasses
thumbs|C0040067|T023
##hoff
excavation
##nks
Extra
Polo
motives
Drum
infrared
tastes|C0039336|T042
berth
verge
##stand
programmed
warmed
Shankar
Titan
chromosome|C0008633|T026
cafeteria
dividing
pepper
CPU
Stevie
satirical
Nagar
scowled
Died|C0011065|T040
backyard
##gata
##reath
##bir
Governors
portraying
##yah
Revenge
##acing
1772
margins
Bahn
OH
lowland
##razed
catcher
replay
##yoshi
Seriously
##licit
Aristotle
##ald
Habsburg
weekday
Secretariat
CO
##dly
##joy
##stad
litre
ultra
##cke
Mongol
Tucson
correlation
compose
traps|C1275126|T019
Groups
Hai|C0205721|T047
Salvatore
##dea
cents
##eese
concession
clash
Trip|C0077275|T125
Panzer
Moroccan
cruisers
torque
Ba
grossed
##arate
restriction
concentrating
FDA
##Leod
##ones
Scholars
##esi
throbbing|C1444773|T033
specialised
##heses
Chicken|C2722032|T129
##fia
##ificant
Erich
Residence
##trate
manipulation|C0947647|T061
namesake
##tom
Hoover
cue
Lindsey
Lonely|C0023974|T033
275
##HT
combustion
subscribers
Punjabi
respects
Jeremiah
penned
##gor
##rilla
suppression|C0221103|T046
##tration
Crimson
piston
Derry
crimson
lyrical
oversee
portrays
CF
Districts
Lenin
Cora
searches
clans
VHS
##hel
Jacqueline
Redskins
Clubs
desktop
indirectly
alternatives
marijuana|C0024808|T121
suffrage
##smos
Irwin
##liff
Process
##hawks
Sloane
##bson
Sonata|C0876170|T121
yielded
Flores
##ares
armament
adaptations|C0000934|T040
integrate
neighbours
shelters
##tour
Skinner
##jet
##tations
1774
Peterborough
##elles
ripping
Liang
Dickinson
charities
Rwanda
monasteries
crossover
racist
barked
guerrilla
##ivate
Grayson
##iques
##vious
##got
Rolls
denominations
atom|C0567415|T196
affinity
##delity
Wish
##inted
##inae
interrogation
##cey
##erina
##lifting
192
Sands
1779
mast
Likewise
##hyl
##oft
contempt
##por
assaulted
fills
establishments
Mal
consulted
##omi
##sight
greet|C0566229|T033
##roma
##egan
Pulitzer
##rried
##dius
##ractical
##voked
Hasan
CB
##zzy
Romanesque
Panic|C0030318|T033
wheeled
recorder
##tters
##warm
##gly
botanist
Balkan
Lockheed
Polly
farewell
suffers|C0683278|T048
purchases
Eaton
##80
Quick
commenting
Saga
beasts
hides
motifs
##icks
Alonso
Springer
Wikipedia
circulated
encoding
jurisdictions
snout
UAE
Integrated
unmarried
Heinz
##lein
##figured
deleted
##tley
Zen
Cycling
Fuel
Scandinavian
##rants
Conner
reef
Marino
curiously
lingered
Gina
manners
activism
Mines
Expo
Micah
promotions
Server
booked
derivatives
eastward
detailing
reelection
##chase
182
Campeonato
Po
158
Peel|C0237849|T033
winger
##itch
canyon
##pit
LDS
A1
##shin
Giorgio
pathetic
##rga
##mist
Aren
##lag
confronts
motel
textbook
shine
turbines
1770
Darcy
##cot
Southeastern
##lessness
Banner
recognise
stray
Kitchen
paperwork
realism
Chrysler
filmmakers
fishermen
##hetic
variously
Vishnu
fiddle
Eddy
Origin
##tec
##ulin
Flames
Rs
bankrupt
Extreme
Pomeranian
##emption
ratified
##iu
jockey
Stratford
##ivating
##oire
Babylon
pardon
AI
affordable
deities
disturbance
Trying
##sai
Ida|C0020789|T109
Papers
advancement
70s
archbishop
Luftwaffe
announces
tugging
##lphin
##sistence
##eel
##ishes
ambition
aura|C0236018|T033
##fled
##lected
##vue
Prasad
boiled
clarity
Violin
investigative
routing
Yankee
##uckle
McMahon
bugs
eruption
##rooms
Minutes
relics
##ckle
##nse
sipped
valves
weakly
##ital
Middleton
collided
##quer
bamboo|C1337281|T109
insignia
Tyne
exercised
Ninth
echoing
polynomial
considerations
lunged
##bius
objections
complain
disguised
plaza
##VC
institutes
Judicial
ascent
imminent
Waterford
hello
Lumpur
Niger
Goldman
vendors
Kensington
Wren
browser
##bner
##tri
##mize
##pis
##lea
Cheyenne
Bold
Settlement
Hollow
Paralympic
axle
##toire
##actic
impose
perched
utilizing
slips
Benz
Michaels
manipulate|C0947647|T061
Chiang
##mian
Dolphins
prohibition
attacker
ecology
Estadio
##SB
##uild
attracts
recalls
glacier
lad
##rima
Barlow
kHz
melodic
##aby
##iracy
assumptions
Cornish
##aru
DOS
Maddie
##mers
lyric
Luton
nm
##tron
Reno
Fin
YOU
Broadcast
Finch
sensory
##bent
Jeep
##uman
additionally
Buildings
businessmen
treaties
235
Stranger
gateway
Charlton
accomplishments
Diary
apologized
zinc|C0043481|T196
histories
supplier
##tting
162
asphalt|C0052558|T109
Treatment|C0087111|T061
Abbas
##pating
##yres
Bloom
sedan
soloist
##cum
antagonist|C0231491|T042
denounced
Fairfax
##aving
##enko
noticeable
Budget
Buckingham
Snyder
retreating
Jai
spoon
invading
giggle
woven
gunfire
arrests
##vered
##come
respiratory
violet
##aws
Byrd
shocking|C0036974|T046
tenant
Jamaican
Ottomans
Seal
theirs
##isse
##48
cooperate
peering
##nius
163
Composer
organist
Mongolian
Bauer
Spy
collects
prophecy
congregations
##moor
Brick
calculation
fixtures
exempt
##dden
Ada|C0001457|T126
Thousand
##lue
tracing
##achi
bodyguard
vicar
supplying
Łódź
interception
monitored
##heart
Paso
overlap|C0185027|T061
annoyance
##dice
yellowish
stables
elders|C0994408|T109
illegally
honesty
##oar
skinny
spinal
##puram
Bourbon
##cor
flourished
Medium
##stics
##aba
Follow
##ckey
stationary|C3839460|T033
##scription
dresser
scrutiny
Buckley
Clearly
##SF
Lyrics
##heimer
drying
Oracle
internally
rains
##last
Enemy
##oes
McLean
Ole
phosphate
Rosario
Rifles
##mium
battered
Pepper
Presidents
conquer
Château
castles|C1266100|T191
##aldo
##ulf
Depending
Lesser
Boom
trades
Peyton
164
emphasize
accustomed
SM
Ai
Classification
##mins
##35
##rons
leak
piled
deeds
lush
##self
beginnings
breathless|C0013404|T184
1660
McGill
##ago
##chaft
##gies
humour
Bomb
securities
Might
##zone
##eves
Matthias
Movies
Levine
vengeance
##ads
Challenger
Misty
Traditionally
constellation
##rass
deepest
workplace
##oof
##vina
impatient
##ML
Mughal
Alessandro
scenery
Slater
postseason
troupe
##ń
Volunteers
Facility
militants
Reggie
sanctions
Expeditionary
Nam
countered
interpret
Basilica
coding
expectation
Duffy
def
Tong
wakes
Bowling|C0336949|T056
Vehicle|C0042444|T122
Adler
salad
intricate
stronghold
medley
##uries
##bur
joints|C0022417|T030
##rac
##yx
##IO
Ordnance
Welch
distributor
Ark
cavern
trench
Weiss
Mauritius
decreases
docks
eagerly
irritation
Matilda
biographer
Visiting
##marked
##iter
##ear
##gong
Moreno
attendant
Bury
instrumentation
theologian
clit
nuns
symphony
translate
375
loser
##user
##VR
##meter
##orious
harmful
##yuki
Commissioners
Mendoza
sniffed
Hulk
##dded
##ulator
##nz
Donnell
##eka
deported
Met
SD
Aerospace
##cultural
##odes
Fantastic
cavity|C0333343|T030
remark
emblem
fearing|C0015726|T041
##iance
ICAO
Liberia
stab|C0418391|T037
##yd
Pac|C0033036|T047
Gymnasium
IS
Everton
##vanna
mantle
##ief
Ramon
##genic
Shooting|C1444774|T033
Smoke|C0037366|T131
Random
Africans
MB
tavern
bargain
voluntarily
Ion|C0022023|T196
Peoples
Rusty
attackers
Patton
sins
##cake
Hat|C0062773|T116
moderately
##hala
##alia
requesting
mechanic
##eae
Seine
Robbins
##ulum
susceptible
Bravo
Slade
Strasbourg
rubble
entrusted
Creation|C0441513|T061
##amp
smoothed
##uintet
evenly
reviewers
skip|C0560435|T033
Sculpture
177
Rough
##rrie
Reeves
##cede
Administrator
garde
minus
carriages
grenade
Ninja
fuscous
##kley
Punk
contributors
Aragon
Tottenham
##cca
##sir
VA
laced
dealers
##sonic
crisp
harmonica
Artistic
Butch
Andes
Farmers
corridors
unseen
##tium
Countries
Lone
envisioned
Katy
##lang
##cc
Quarterly
##neck
consort
##aceae
bidding
Corey
concurrent
##acts
##gum
Highness
##lient
##rators
arising
##unta
pathways
49ers
bolted
complaining
ecosystem
libretto
Ser
narrated
212
Soft
influx
##dder
incorporation
plagued
tents
##ddled
1750
Risk
citation
Tomas
hostilities|C0020039|T041
seals
Bruins
Dominique
attic|C0229390|T030
competent
##UR
##cci
hugging
Breuning
bacterial
Shrewsbury
vowed
eh
elongated
hangs
render
centimeters
##ficient
Mu
turtle
besieged
##gaard
grapes
bravery
collaborations
deprived
##amine
##using
##gins
arid
##uve
coats
hanged
##sting
Pa
prefix
##ranged
Exit
Chain
Flood
Materials
suspicions
##ö
hovered
Hidden
##state
Malawi
##24
Mandy
norms
fascinating
airlines
delivers
##rust
Cretaceous
spanned
pillows
##onomy
jar
##kka
regent
fireworks
morality
discomfort|C2364135|T184
lure
uneven
##jack
Lucian
171
archaeology
##til
mornings
Billie
Marquess
impending
spilling
tombs
##volved
Celia
Coke|C0009170|T131
underside
##bation
Vaughn
Daytona
Godfrey
Pascal
Alien
##sign
172
##lage
iPhone
Gonna
genocide
##rber
oven
endure
dashed
simultaneous
##phism
Wally
##rō
ants
predator|C3528992|T121
reissue
##aper
Speech
funk
Rudy
claw
Hindus
Numbers
Bing|C0596170|T048
lantern
##aurus
scattering
poisoned
##active
Andrei
algebraic
baseman
##ritz
Gregg
##cola
selections
##putation
lick
Laguna
##IX
Sumatra
Warning
turf
buyers
Burgess
Oldham
exploit
worm|C0018889|T047
initiate
strapped
tuning
filters
haze
##е
##ledge
##ydro
##culture
amendments
Promotion
##union
Clair
##uria
petty
shutting
##eveloped
Phoebe
Zeke
conducts
grains
clashes
##latter
illegitimate
willingly
Deer
Lakers
Reference
chaplain
commitments
interrupt
salvation
Panther
Qualifying
Assessment
cancel
efficiently
attorneys
Dynamo
impress
accession
clinging
randomly
reviewing
Romero
Cathy
charting
clapped
rebranded
Azerbaijani
coma|C0009421|T047
indicator
punches
##tons
Sami
monastic
prospects
Pastor
##rville
electrified
##CI
##utical
tumbled
Chef
muzzle
selecting
UP
Wheel
protocols
##tat
Extended
beautifully
nests
##stal
Andersen
##anu
##³
##rini
kneeling|C1260920|T033
##reis
##xia
anatomy
dusty
Safe
turmoil
Bianca
##elo
analyze
##ر
##eran
podcast
Slovene
Locke
Rue|C0939812|T121
##retta
##uni
Person
Prophet
crooked
disagreed
Versailles
Sarajevo
Utrecht
##ogen
chewing|C0024888|T042
##ception
##iidae
Missile
attribute
majors
Arch
intellectuals
##andra
ideological
Cory
Salzburg
##fair
Lot
electromagnetic
Distribution
##oper
##pered
Russ
Terra
repeats
fluttered
Riga
##ific
##gt
cows
Hair|C0018494|T023
labelled
protects
Gale|C0751161|T047
Personnel
Düsseldorf
Moran
rematch
##OE
Slow
forgiveness
##ssi
proudly
Macmillan
insist
undoubtedly
Québec
Violence
##yuan
##aine
mourning
linen
accidental
##iol
##arium
grossing
lattice
maneuver
##marine
prestige
petrol
gradient
invasive
militant
Galerie
widening
##aman
##quist
disagreement
##ales
creepy
remembers
buzz
##erial
Exempt
Dirk
mon
Addison
##inen
deposed
##agon
fifteenth
Hang
ornate
slab
##lades
Fountain
contractors
das|C0057671|T109
Warwickshire
1763
##rc
Carly
Essays
Indy
Ligue
greenhouse
slit|C0184904|T061
##sea
chewed
wink|C0043190|T042
##azi
Playhouse
##kon
Gram
Ko
Samson
creators
revive
##rians
spawned
seminars
Craft
Tall
diverted
assistants
computational
enclosure
##acity
Coca|C0009170|T109
##eve
databases
Drop|C0991568|T122
##loading
##hage
Greco
Privy
entrances
pork|C2702371|T121
prospective
Memories|C0700327|T033
robes
##market
transporting
##lik
Rudolph
Horton
visually
##uay
##nja
Centro
Tor|C0076836|T109
Howell
##rsey
admitting
postgraduate
herbs
##att
Chin|C0008114|T029
Rutherford
##bot
##etta
Seasons
explanations
##bery
Friedman
heap
##ryl
##sberg
jaws|C0022359|T023
##agh
Choi
Killing
Fanny
##suming
##hawk
hopeful
##aid
Monty
gum
remarkably
Secrets
disco
harp
advise
##avia
Marathi
##cycle
Truck
abbot
sincere
urine
##mology
masked
bathing|C0518460|T033
##tun
Fellows
##TM
##gnetic
owl
##jon
hymn
##leton
208
hostility|C0020039|T041
##cée
baked
Bottom
##AB
shudder
##ater
##von
##hee
reorganization
Cycle
##phs
Lex|C0080188|T129
##style
##rms
Translation|C0597295|T044
##erick
##imeter
##ière
attested
Hillary
##DM
gal
wander
Salle
##laming
Perez
Pit|C0175697|T047
##LP
USAF
contexts|C0449255|T033
Disease|C0012634|T047
blazing
aroused|C0043012|T041
razor
walled
Danielle
Mont
Funk
royalty
thee
203
donors
##erton
famously
processors
reassigned
welcoming
Goldberg
##quities
undisclosed
Orient
Patty
vaccine|C0042210|T129
refrigerator
Cypriot
consonant
##waters
176
sober
##lement
Racecourse
##uate
Luckily
Selection|C0036576|T045
conceptual
vines
Breaking
wa
lions
oversight|C1273870|T057
sheltered
Dancer
ponds
borrow
##BB
##pulsion
Daly
##eek
fertility|C0015895|T040
spontaneous
Worldwide
gasping|C0425449|T184
##tino
169
ABS
Vickers
ambient
energetic
prisons
##eson
Stacy
##roach
GmbH
Afro
Marin
farmhouse
pinched|C0418416|T037
##cursion
##sp
Sabine
##pire
181
nak
swelling|C0038999|T033
humble
perfume
##balls
Rai
cannons
##taker
Married|C0555047|T033
Maltese
canals
interceptions
hats
lever
slowing
##ppy
Nike
Silas
Scarborough
skirts
166
inauguration
Shuttle
alloy|C0002154|T122
beads|C0991566|T122
belts
Compton
Cause
battling
critique
surf|C0336932|T056
Dock
roommate
##ulet
invade
Garland
##slow
nutrition|C1442959|T040
persona
##zam
Wichita
acquaintance
coincided
##cate
Dracula
clamped
##gau
overhaul
##broken
##rrier
melodies
ventures
Paz
convex
Roots
##holding
Tribute
transgender|C0558141|T033
##ò
chimney
##riad
Ajax
Thereafter
messed
nowadays
pH
##100
##alog
Pomerania
##yra
Rossi
glove
##TL
Races
##asily
tablets|C0039225|T122
Jase
##ttes
diner
##rns
Hu
Mohan
anytime
weighted|C1305866|T060
remixes
Dove
cherry|C2722031|T121
imports
##urity
GA
##TT
##iated
##sford
Clarkson
evidently
rugged
Dust
siding
##ometer
acquitted
choral
##mite
infants
Domenico
gallons
Atkinson
gestures
slated
##xa
Archaeology
unwanted
##ibes
##duced
premise
Colby
Geelong
disqualified
##pf
##voking
simplicity
Walkover
Qaeda
Warden
##bourg
##ān
Invasion|C1269955|T033
Babe
harness
183
##tated
maze
Burt
bedrooms
##nsley
Horizon
##oast
minimize
peeked
MLA|C0599973|T047
Trains
tractor
nudged
##iform
Growth
Benton
separates
##about
##kari
buffer
anthropology
brigades
foil
##wu
Domain
licking
whore
##rage
##sham
Initial
Courthouse
Rutgers
dams
villains
supermarket
##brush
Brunei
Palermo
arises
Passenger
outreach
##gill
Labrador
McLaren
##uy
Lori
##fires
Heads|C0018670|T029
magistrate
¹⁄₂
Weapons
##wai
##roke
projecting
##ulates
bordering
McKenzie
Pavel
midway
Guangzhou
streamed
racer
##lished
eccentric
spectral
206
##mism
Wilde
Grange
preparatory
lent
##tam
starving
Gertrude
##cea
##ricted
Breakfast|C2698559|T056
Mira
blurted
derive
##lair
blunt
sob|C0013404|T184
Cheltenham
Henrik
reinstated
intends
##istan
unite
##ector
playful
sparks
mapped
Cadet
luggage
prosperous
##ein
salon
##utes
Biological
##rland
Tyrone
buyer
##lose
amounted
Saw
smirked
Ronan
Reviews
Adele
trait
##proof
Bhutan
Ginger|C0939895|T121
##junct
digitally
stirring
##isted
coconut|C2722035|T121
Hamlet
Dinner
Scale
pledge
##RP
Wrong
Goal
Panel
therapeutic|C0087111|T061
elevations
infectious|C0009450|T047
priesthood
##inda
Guyana
diagnostic|C0430022|T060
##mbre
Blackwell
sails
##arm
literal
periodically
gleaming
Robot
Rector
##abulous
##tres
Reaching
Romantic
CP
Wonderful
##tur
ornamental
##nges
traitor
##zilla
genetics
mentioning
##eim
resonance|C0231881|T033
Areas
Shopping|C0150768|T056
##nard
Gail
Solid|C1378566|T122
##rito
##mara
Willem
Chip
Matches
Volkswagen
obstacle
Organ
invites
Coral
attain
##anus
##dates
Midway
shuffled
Cecilia
dessert
Gateway
Ch
Napoleonic
Petroleum|C0031264|T109
jets
goose|C2725897|T121
striped
bowls
vibration
Sims
nickel|C0028013|T123
Thirteen
problematic
intervene
##grading
##unds
Mum
semifinal
Radical
##izations
refurbished
##sation
##harine
Maximilian
cites
Advocate
Potomac
surged
preserves
Curry
angled
ordination
##pad
Cade
##DE
##sko
researched
torpedoes
Resident
wetlands
hay
applicants
depart
Bernstein
##pic
##ario
##rae
favourable
##wari
##р
metabolism|C0025519|T040
nobleman
Defaulted
calculate
ignition
Celebrity
Belize
sulfur|C0038774|T121
Flat
Sc
USB
flicker|C0085635|T047
Hertfordshire
Sept
CFL
Pasadena
Saturdays
Titus
##nir
Canary
Computing
Isaiah
##mler
formidable
pulp|C0011399|T023
orchid
Called
Solutions
kilograms
steamer
##hil
Doncaster
successors
Stokes
Holstein
##sius
sperm|C0037868|T025
API|C0002191|T123
Rogue
instability|C1444783|T033
Acoustic
##rag
159
undercover
Wouldn
##pra
##medical
Eliminated
honorable
##chel
denomination
abrupt
Buffy
blouse
fi
Regardless
Subsequent
##rdes
Lover
##tford
bacon
##emia
carving
##cripts
Massacre
Ramos
Latter
##ulp
ballroom
##gement
richest
bruises|C0009938|T037
Rest|C0035253|T056
Wiley
##aster
explosions
##lastic
Edo
##LD
Mir
choking|C0008301|T046
disgusted
faintly
Barracks
blasted
headlights
Tours
ensued
presentations
##cale
wrought
##oat
##coa
Quaker
##sdale
recipe
##gny
corpses
##liance
comfortably
##wat
Landscape
niche
catalyst
##leader
Securities
messy
##RL
Rodrigo
backdrop
##opping
treats
Emilio
Anand
bilateral
meadow
VC
socialism
##grad
clinics
##itating
##ppe
##ymphonic
seniors
Advisor
Armoured
Method
Alley
##orio
Sad|C0085159|T048
fueled
raided
Axel
NH
rushes
Dixie
Otis
wrecked
##22
capitalism
café
##bbe
##pion
##forcing
Aubrey
Lublin
Whenever
Sears
Scheme
##lana
Meadows
treatise
##RI
##ustic
sacrifices
sustainability
Biography
mystical
Wanted|C1444647|T033
multiplayer
Applications
disliked
##tisfied
impaired
empirical
forgetting
Fairfield
Sunni
blurred
Growing
Avalon
coil
Camera
Skin|C1123023|T022
bruised|C0009938|T037
terminals
##fted
##roving
Commando
##hya
##sper
reservations
needles
dangling
##rsch
##rsten
##spect
##mbs
yoga
regretted
Bliss
Orion
Rufus
glucose|C0017725|T123
Olsen
autobiographical
##dened
222
humidity
Shan
##ifiable
supper
##rou
flare
##MO
campaigning
descend
socio
declares
Mounted|C0449878|T033
Gracie
Arte
endurance|C0518031|T033
##ety
Copper|C0009968|T123
costa|C0035561|T023
airplay
##MB
Proceedings
dislike
grimaced
occupants
births|C0005615|T040
glacial
oblivious
cans
installment
muddy
##ł
captains
pneumonia|C0032285|T047
Quiet
Sloan
Excuse
##nine
Geography
gymnastics
multimedia
drains
Anthology
Gear
cylindrical
Fry
undertaking
##pler
##tility
Nan
##recht
Dub
philosophers
piss
Atari
##pha
Galicia
México
##nking
Continuing
bump
graveyard
persisted
Shrine
##erapy
defects
Advance
Bomber
##oil
##ffling
cheerful
##lix
scrub
##eto
awkwardly
collaborator
fencing
##alo
prophet
Croix
coughed
##lication
roadway
slaughter
elephants
##erated
Simpsons
vulnerability
ivory
Birth|C0005615|T040
lizard
scarce
cylinders
fortunes
##NL
Hate|C0018616|T041
Priory
##lai
McBride
##copy
Lenny
liaison
Triangle
coronation
sampled|C0441621|T060
savage
amidst
Grady
whatsoever
instinctively
Reconstruction|C0524865|T061
insides
seizure|C0036572|T184
Drawing
##rlin
Antioch
Gao
Díaz
1760
Sparks
##tien
##bidae
rehearsal
##bbs
botanical
##hers
compensate
wholesale
Seville
shareholder
prediction
astronomical
Reddy
hardest
circling|C0231706|T184
whereabouts
termination
Rep
Assistance
Dramatic
Herb
##ghter
climbs|C0561942|T033
188
Poole
301
##pable
wit
##istice
Walters
relying
Jakob
##redo
proceeding
Langley
affiliates
ou
##allo
##holm
Samsung
##ishi
Missing
Xi
vertices
Claus
foam|C0991510|T122
restless|C3887611|T184
##uating
##sso
##ttering
Philips
delta
bombed
Catalogue
coaster
Ling
Willard
satire
410
Composition
Net
Orioles
##ldon
fins
Palatinate
Woodward
tease
tilt
brightness
##70
##bbling
##loss
##dhi
##uilt
Whoever
##yers
hitter
Elton
Extension
ace|C0201888|T059
Affair
restructuring
##loping
Paterson
hi
##rya
spouse
Shay
Himself
piles|C0019112|T047
preaching
##gical
bikes
Brave
expulsion|C1293107|T061
Mirza
stride
Trees
commemorated
famine
masonry
Selena
Watt
Banking
Rancho
Stockton
dip|C0238378|T047
tattoos|C1366940|T033
Vlad
acquainted
Flyers
ruthless
fourteenth
illustrate
##akes
EPA|C0000545|T123
##rows
##uiz
bumped
Designed
Leaders
mastered
Manfred
swirled
McCain
##rout
Artemis
rabbi
flinched
upgrades
penetrate
shipyard
transforming
caretaker
##eiro
Maureen
tightening
##founded
RAM
##icular
##mper
##rung
Fifteen
exploited
consistency
interstate
##ynn
Bridget
contamination
Mistress
##rup
coating
##FP
##jective
Libyan
211
Gemma
dependence|C0439857|T048
shrubs
##ggled
Germain
retaliation
traction|C0040597|T061
##PP
Dangerous
terminology
psychiatrist
##garten
hurdles
Natal
wasting
Weir
revolves
stripe
##reased
preferences
##entation
##lde
##áil
##otherapy
Flame
##ologies
viruses
Label
Pandora
veil
##ogical
Coliseum
Cottage
creeping
Jong
lectured
##çaise
shoreline
##fference
##hra
Shade
Clock
Faye
bilingual
Humboldt
Operating
##fter
##was
algae
towed
amphibious
Parma
impacted
smacked
Piedmont
Monsters|C0026505|T019
##omb
Moor
##lberg
sinister
Postal
178
Drummond
Sign|C0311392|T033
textbooks
hazardous
Brass|C0054027|T197
Rosemary|C0939869|T109
Pick
Sit|C0277814|T033
Architect
transverse
Centennial
confess
polling
##aia
Julien
##mand
consolidation|C0521530|T047
Ethel
##ulse
severity
Yorker
choreographer
1840s
##ltry
softer
versa
##geny
##quila
##jō
Caledonia
Friendship
Visa|C1318881|T047
rogue
##zzle
bait
feather|C0015731|T023
incidence
Foods
Ships
##uto
##stead
arousal
##rote
Hazel
##bolic
Swing
##ej
##cule
##jana
##metry
##uity
Valuable
##ₙ
Shropshire
##nect
365
Ones
realise
Café
Albuquerque
##grown
##stadt
209
##ᵢ
prefers
withstand
Lillian
MacArthur
Hara
##fulness
domination
##VO
##school
Freddy
ethnicity
##while
adorned
hormone|C0019932|T125
Calder
Domestic
Freud
Shields
##phus
##rgan
BP
Segunda
Mustang
##GI
Bonn
patiently
remarried|C0425380|T033
##umbria
Crete
Elephant
Nuremberg
tolerate
Tyson
##evich
Programming
##lander
Bethlehem
segregation
Constituency
quarterly
blushed
photographers
Sheldon
porcelain|C0011392|T122
Blanche
goddamn
lively
##fused
bumps
##eli
curated
coherent
provoked
##vet
Madeleine
##isco
rainy
Bethel
accusation
ponytail
gag|C0017973|T121
##lington
quicker
scroll
##vate
Bow
Gender
Ira
crashes
ACT|C0427611|T059
Maintenance
##aton
##ieu
bitterly
strains|C0080194|T037
rattled
vectors
##arina
##ishly
173
parole
##nx
amusing
Gonzalez
##erative
Caucus
sensual
Penelope
coefficient
Mateo
##mani
proposition
Duty
lacrosse|C0022909|T056
proportions
Plato
profiles
Botswana
Brandt
reins
mandolin
encompassing
##gens
Kahn
prop
summon
##MR
##yrian
##zaki
Falling|C0085639|T033
conditional
thy
##bao
##ych
radioactive
##nics
Newspaper
##people
##nded
Gaming
sunny
##look
Sherwood
crafted
NJ
awoke
187
timeline
giants|C0017547|T047
possessing
##ycle
Cheryl
ng
Ruiz
polymer|C0032521|T122
potassium|C0032821|T196
Ramsay
relocation
##leen
Sociology
##bana
Franciscan
propulsion
denote
##erjee
registers
headline
Tests|C0022885|T059
emerges
Articles
Mint|C1576800|T109
livery
breakup
kits
Rap
Browning
Bunny
##mington
##watch
Anastasia
Zachary
arranging
biographical
Erica
Nippon
##membrance
Carmel
##sport
##xes
Paddy
##holes
Issues
Spears
compliment
##stro
##graphs
Castillo
##MU
##space
Corporal
##nent
174
Gentlemen
##ilize
##vage
convinces
Carmine|C0007250|T109
Crash
##hashi
Files
Doctors
brownish
sweating|C0038990|T033
goats
##conductor
rendition
##bt
NL
##spiration
generates
##cans
obsession|C0233697|T048
##noy
Danger
Diaz
heats
Realm
priorities
##phon
1300
initiation|C0589507|T041
pagan
bursts
archipelago
chloride|C0596019|T196
Screenplay
Hewitt
Khmer
bang
judgement|C0022423|T041
negotiating
##ait
Mabel
densely
Boulder
knob
430
Alfredo
##kt
pitches
##ées
##ان
Macdonald
##llum
imply
##mot
Smile|C0517048|T033
spherical
##tura
Derrick
Kelley
Nico
cortex
launches
differed
parallels
Navigation
##child
##rming
canoe
forestry
reinforce
##mote
confirming
tasting|C0039336|T042
scaled
##resh
##eting
Understanding|C0162340|T041
prevailing
Pearce
CW
earnest
Gaius
asserts
denoted
landmarks
Chargers
warns
##flies
Judges
jagged
##dain
tails
Historian
Millie
##sler
221
##uard
absurd
Dion
##ially
makeshift
Specifically
ignorance
Eat|C0013470|T040
##ieri
comparisons
forensic
186
Giro
skeptical
disciplinary
battleship
##45
Libby
520
Odyssey
ledge
##post
Eternal
Missionary
deficiency
settler
wonders
##gai
raging
##cis
Romney
Ulrich
annexation
boxers
sect
204
ARIA
dei
Hitchcock
te
Varsity
##fic
CC
lending
##nial
##tag
##rdy
##obe
Defensive
##dson
##pore
stellar
Lam|C0751674|T191
Trials
contention
Sung
##uminous
Poe|C0032483|T109
superiority
##plicate
325
bitten
conspicuous
##olly
Lila
Pub
Petit
distorted
ISIL
distinctly
##family
Cowboy
mutant
##cats
##week
Changes
Sinatra
epithet
neglect|C0521874|T033
Innocent
gamma
thrill|C0232269|T033
reggae
##adia
##ational
##due
landlord
##leaf
visibly
##ì
Darlington
Gomez
##iting
scarf
##lade
Hinduism
Fever|C0015967|T033
scouts
##roi
convened
##oki
184
Lao
boycott
unemployed|C0041674|T033
##lore
##ß
##hammer
Curran
disciples
odor
##ygiene
Lighthouse
Played|C0600138|T033
whales
discretion
Yves
##ceived
pauses
coincide
##nji
dizzy|C0012833|T184
##scopic
routed
Guardians
Kellan
carnival
nasal|C0028429|T023
224
##awed
Mitsubishi
640
Cast
silky
Projects
joked
Huddersfield
Rothschild
zu
##olar
Divisions
mildly
##eni
##lge
Appalachian
Sahara
pinch|C0418416|T037
##roon
wardrobe
##dham
##etal
Bubba
##lini
##rumbling
Communities
Poznań
unification
Beau
Kris
SV
Rowing
Minh
reconciliation
##saki
##sor
taped
##reck
certificates
gubernatorial
rainbow
##uing
litter
##lique
##oted
Butterfly
benefited
Images
induce
Balkans
Velvet
##90
##xon
Bowman
##breaker
penis|C0030851|T023
##nitz
##oint
##otive
crust|C0205204|T020
##pps
organizers
Outdoor
nominees
##rika
TX
##ucks
Protestants
##imation
appetite|C0003618|T040
Baja
awaited
##points
windshield
##igh
##zled
Brody
Buster
stylized
Bryce
##sz
Dollar
vest
mold
ounce
ok
receivers
##uza
Purdue
Harrington
Hodges
captures
##ggio
Reservation
##ssin
##tman
cosmic
straightforward
flipping
remixed
##athed
Gómez
Lim|C0449205|T029
motorcycles
economies
owning
Dani
##rosis
myths
sire
kindly
1768
Bean|C2722017|T121
graphs
##mee
##RO
##geon
puppy
Stephenson
notified
##jer
Watching
##rama
Sino
urgency
Islanders
##mash
Plata
fumble
##chev
##stance
##rack
##she
facilitated
swings
akin
enduring
payload
##phine
Deputies
murals
##tooth
610
Jays
eyeing
##quito
transparency
##cote
Timor
negatively
##isan
battled
##fected
thankful
Rage
hospitality
incorrectly
207
entrepreneurs
##cula
##wley
hedge
##cratic
Corpus|C0227813|T023
Odessa
Whereas
##ln
fetch
happier
Amherst
bullying|C0424318|T048
graceful
Height
Bartholomew
willingness
qualifier
191
Syed
Wesleyan
Layla
##rrence
Webber
##hum
Rat
##cket
##herence
Monterey
contaminated
Beside
Mustafa
Nana
213
##pruce
Reason
##spense
spike
##gé
AU
disciple
charcoal|C0007955|T121
##lean
formulated
Diesel
Mariners
accreditation
glossy
1800s
##ih
Mainz
unison
Marianne
shear
overseeing
vernacular
bowled
##lett
unpopular
##ckoned
##monia
Gaston
##TI
##oters
Cups
##bones
##ports
Museo
minors
1773
Dickens
##EL
##NBC
Presents
ambitions
axes
Río
Yukon
bedside
Ribbon
Units
faults
conceal
##lani
prevailed
214
Goodwin
Jaguar
crumpled
Cullen
Wireless
ceded
remotely
Bin
mocking|C0562577|T033
straps
ceramics
##avi
##uding
##ader
Taft
twenties
##aked
Problem|C0033213|T033
quasi
Lamar
##ntes
##avan
Barr
##eral
hooks
sa
##ône
194
##ross
Nero
Caine
trance
Homeland
benches
Guthrie
dismiss
##lex
César
foliage
##oot
##alty
Assyrian
Ahead
Murdoch
dictatorship
wraps
##ntal
Corridor
Mackay
respectable
jewels
understands|C0162340|T041
##pathic
Bryn
##tep
ON
capsule|C0006935|T122
intrigued
Sleeping
communists
##chayat
##current
##vez
doubling
booklet
##uche
Creed
##NU
spies
##sef
adjusting
197
Imam
heaved
Tanya
canonical
restraint
senators
stainless
##gnate
Matter
cache
restrained
conflicting
stung
##ool
Sustainable
antiquity
193
heavens
inclusive
##ador
fluent
303
911
archaeologist
superseded
##plex
Tammy
inspire
##passing
##lub
Lama
Mixing
##activated
##yote
parlor
tactic
198
Stefano
prostitute
recycling
sorted
banana
Stacey
Musée
aristocratic
cough|C0010200|T184
##rting
authorised
gangs
runoff
thoughtfully
##nish
Fisheries
Provence
detector
hum
##zhen
pill|C0994475|T122
##árez
Map|C0428886|T033
Leaves
Peabody
skater
vent
##color
390
cerebral|C0228174|T023
hostages
mare
Jurassic
swell|C0038999|T033
##isans
Knoxville
Naked|C0424470|T033
Malaya
scowl
Cobra
##anga
Sexual
##dron
##iae
196
##drick
Ravens
Blaine
##throp
Ismail
symmetric|C0332516|T033
##lossom
Leicestershire
Sylvester
glazed
##tended
Radar
fused
Families
Blacks
Sale
Zion
foothills
microwave
slain
Collingwood
##pants
##dling
killers
routinely
Janice
hearings
##chanted
##ltration
continents
##iving
##yster
##shot
##yna
injected
Guillaume
##ibi
kinda
Confederacy
Barnett
disasters
incapable
##grating
rhythms
betting
draining
##hak
Callie
Glover
##iliated
Sherlock
hearted
punching
Wolverhampton
Leaf
Pi
builders
furnished
knighted
Photo
##zle
Touring
fumbled
pads
##ий
Bartlett
Gunner
eerie
Marius
Bonus
pots
##hino
##pta
Bray
Frey
Ortiz
stalls
belongings
Subway
fascination
metaphor
Bat|C0006298|T024
Boer
Colchester
sway
##gro
rhetoric
##dheim
Fool
PMID
admire
##hsil
Strand
TNA
##roth
Nottinghamshire
##mat
##yler
Oxfordshire
##nacle
##roner
BS
##nces
stimulus
transports
Sabbath
##postle
Richter
4000
##grim
##shima
##lette
deteriorated
analogous
##ratic
UHF
energies
inspiring
Yiddish
Activities
##quential
##boe
Melville
##ilton
Judd
consonants
labs|C0587081|T033
smuggling
##fari
avid
##uc
truce
undead
##raith
Mostly
bracelet
Connection
Hussain
awhile
##UC
##vention
liable
genetically
##phic
Important
Wildcats
daddy
transmit
##cas
conserved
Yesterday
##lite
Nicky
Guys
Wilder
Lay
skinned|C1123023|T022
Communists
Garfield
Nearby
organizer
Loss
crafts
walkway
Chocolate|C2728194|T121
Sundance
Synod
##enham
modify
swayed
Surface
analysts
brackets
drone
parachute
smelling|C0037361|T040
Andrés
filthy
frogs
vertically
##OK
localities
marries
AHL|C0014077|T047
35th
##pian
Palazzo
cube
dismay
relocate
##на
Hear
##digo
##oxide
prefecture
converts
hangar
##oya
##ucking
Spectrum
deepened
spoiled
Keeping
##phobic
Verona
outrage
Improvement
##UI
masterpiece
slung
Calling
chant
Haute
mediated
manipulated
affirmed
##hesis
Hangul
skies
##llan
Worcestershire
##kos
mosaic
##bage
##wned
Putnam
folder
##LM
guts
noteworthy
##rada
AJ
sculpted
##iselle
##rang
recognizable
##pent
dolls
lobbying
impatiently
Se
staple
Serb
tandem
Hiroshima
thieves
##ynx
faculties
Norte
##alle
##trusion
chords
##ylon
Gareth
##lops
##escu
FIA
Levin
auspices
groin|C0018246|T029
Hui
nun
Listed
Honourable
Larsen
rigorous
##erer
Tonga
##pment
##rave
##track
##aa
##enary
540
clone|C0009013|T025
sediment
esteem
sighted
cruelty
##boa
inverse
violating
Amtrak
Status
amalgamated
vertex|C0230003|T029
AR
harmless
Amir
mounts
Coronation
counseling
Audi
CO₂
splits
##eyer
Humans
Salmon|C2702377|T121
##have
##rado
##čić
216
takeoff
classmates
psychedelic|C0018533|T121
##gni
Gypsy
231
Anger|C0002957|T041
GAA|C0017921|T047
ME
##nist
##tals
Lissa
Odd
baptized
Fiat
fringe
##hren
179
elevators
perspectives
##TF
##ngle
Question
frontal
950
thicker
Molecular
##nological
Sixteen
Baton
Hearing|C1455844|T033
commemorative
dorm
Architectural
purity
##erse
risky
Georgie
relaxing
##ugs
downed
##rar
Slim
##phy
IUCN
##thorpe
Parkinson
217
Marley
Shipping
sweaty
Jesuits
Sindh
Janata
implying
Armenians
intercept
Ankara
commissioners
ascended
sniper
Grass
Walls
salvage|C0442967|T061
Dewey
generalized
learnt
PT
##fighter
##tech
DR
##itrus
##zza
mercenaries
slots
##burst
##finger
##nsky
Princes
Rhodesia
##munication
##strom
Fremantle
homework
ins
##Os
##hao
##uffed
Thorpe
Xiao
exquisite
firstly
liberated
technician
Oilers
Phyllis
herb
sharks
MBE
##stock
Product
banjo
##morandum
##than
Visitors
unavailable
unpublished
oxidation|C0030011|T044
Vogue
##copic
##etics
Yates
##ppard
Leiden
Trading
cottages
Principles
##Millan
##wife
##hiva
Vicar
nouns
strolled
##eorological
##eton
##science
precedent
Armand
Guido
rewards
##ilis
##tise
clipped
chick
##endra
averages
tentatively
1830s
##vos
Certainly
305
Société
Commandant
##crats
##dified
##nka
marsh
angered
ventilation
Hutton
Ritchie
##having
Eclipse
flick
motionless
Amor
Fest
Loire
lays
##icit
##sband
Guggenheim
Luck
disrupted
##ncia
Disco
##vigator
criticisms
grins
##lons
##vial
##ody
salute
Coaches
junk|C0011892|T121
saxophonist
##eology
Uprising
Diet
##marks
chronicles
robbed
##iet
##ahi
Bohemian
magician
wavelength
Kenyan
augmented
fashionable
##ogies
Luce
F1
Monmouth
##jos
##loop
enjoyment|C0018592|T041
exemption
Centers
##visor
Soundtrack
blinding
practitioner
solidarity
sacrificed
##oso
##cture
##riated
blended
Abd|C0000726|T029
Copyright
##nob
34th
##reak
Claudio
hectare
rotor
testify
##ends
##iably
##sume
landowner
##cess
##ckman
Eduard
Silesian
backseat
mutually
##abe
Mallory
bounds
Collective
Poet
Winkler
pertaining
scraped
Phelps
crane
flickering|C0085635|T047
Proto
bubbles
popularized
removes
##86
Cadillac
Warfare
audible
rites
shivering|C0036973|T033
##sist
##nst
##biotic
Mon
fascist
Bali
Kathryn
ambiguous
furiously
morale
patio
Sang
inconsistent
topology
Greens
monkeys
Köppen
189
Toy
vow
##ías
bombings
##culus
improvised
lodged
subsidiaries
garment
startling
practised
Hume
Thorn
categorized
Till
Eileen
wedge
##64
Federico
patriotic
unlock
##oshi
badminton
Compared
Vilnius
##KE
Crimean
Kemp
decks
spaced
resolutions
sighs|C0425481|T184
##mind
Imagine
Cartoon
huddled
policemen
forwards
##rouch
equals
##nter
inspected
Charley
MG
##rte
pamphlet
Arturo
dans
scarcely
##ulton
##rvin
parental
unconstitutional
watts
Susannah
Dare
##sitive
Rowland
Valle
invalid|C0231173|T033
##ué
Detachment
acronym
Yokohama
verified
##lsson
groove
Liza
clarified
compromised
265
##rgon
##orf
hesitant
Fruit
Application
Mathias
icons
##cell
Qin
interventions
##uron
punt
remnant
##rien
Ames
manifold
spines|C0037949|T023
floral
##zable
comrades
Fallen
orbits|C0029180|T030
Annals
hobby
Auditorium
implicated
researching
Pueblo
Ta
terminate
##pella
Rings
approximation
fuzzy
##ús
thriving
##ket
Conor
alarmed
etched
Cary
##rdon
Ally
##rington
Pay
mint|C1576800|T109
##hasa
##unity
##dman
##itate
Oceania
furrowed
trams
##aq
Wentworth
ventured
choreography
prototypes
Patel
mouthed
trenches
##licing
##yya
Lies
deception
##erve
##vations
Bertrand
earthquakes|C0417614|T037
##tography
Southwestern
##aja
token
Gupta
##yō
Beckett
initials
ironic
Tsar
subdued
shootout
sobbing
liar
Scandinavia
Souls
ch
therapist
trader
Regulation
Kali
busiest
##pation
32nd
Telephone
Vargas
##moky
##nose
##uge
Favorite
abducted
bonding
219
255
correction
mat
drown|C0013142|T037
fl
unbeaten
Pocket
Summers
Quite
rods|C0206427|T025
Percussion|C0030987|T060
##ndy
buzzing
cadet
Wilkes
attire
directory
utilities
naive
populous
Hendrix
##actor
disadvantage
1400
Landon
Underworld
##ense
Occasionally
mercury|C0025424|T131
Davey
Morley
spa
wrestled
##vender
eclipse
Sienna
supplemented
thou
Stream
liturgical
##gall
##berries
##piration
1769
Bucks
abandoning
##jutant
##nac
232
venom|C0042479|T131
##31
Roche
dotted
Currie
Córdoba
Milo
Sharif
divides
justification
prejudice
fortunate
##vide
##ābād
Rowe
inflammatory
##eld
avenue
Sources|C0449416|T033
##rimal
Messenger
Blanco
advocating
formulation
##pute
emphasizes
nut
Armored
##ented
nutrients
##tment
insistence
Martins
landowners
##RB
comparatively
headlines
snaps|C1177045|T122
##qing
Celebration
##mad
republican
##NE
Trace
##500
1771
proclamation
NRL
Rubin
Buzz
Weimar
##AG
199
posthumous
##ental
##deacon
Distance
intensely
overheard
Arcade
diagonal
hazard
Giving
weekdays
##ù
Verdi
actresses
##hare
Pulling|C0580846|T033
##erries
##pores
catering
shortest
##ctors
##cure
##restle
##reta
##runch
##brecht
##uddin
Moments
senate
Feng
Prescott
##thest
218
divisional
Bertie
sparse
surrounds
coupling
gravitational
werewolves
##lax
Rankings
##mated
##tries
Shia
##mart
##23
##vocative
interfaces
morphology|C0700329|T033
newscast
##bide
inputs
solicitor
Olaf
cabinets
puzzles
##tains
Unified
##firmed
WA
solemn
##opy
Tito
Jaenelle
Neolithic
horseback
##ires
pharmacy
prevalence
##lint
Swami
##bush
##tudes
Philipp
mythical
divers
Scouting
aperture
progressively
##bay
##nio
bounce
Floor
##elf
Lucan
adulthood
helm
Bluff
Passage
Salvation
lemon|C2741542|T121
napkin
scheduling
##gets
Elements|C0013879|T196
Mina
Novak
stalled
##llister
Infrastructure
##nky
##tania
##uished
Katz
Norma
sucks|C0677049|T033
trusting
1765
boilers
Accordingly
##hered
223
Crowley
##fight
##ulo
Henrietta
##hani
pounder
surprises
##chor
##glia
Dukes
##cracy
##zier
##fs
Patriot
silicon|C0037107|T196
##VP
simulcast
telegraph
Mysore
cardboard
Len|C0152353|T023
##QL
Auguste
accordion
analytical
specify
ineffective
hunched
abnormal
Transylvania
##dn
##tending
Emilia
glittering
Maddy
##wana
1762
External
Lecture
endorsement
Hernández
Anaheim
Ware
offences
##phorus
Plantation
popping
Bonaparte
disgusting
neared
##notes
Identity|C0424215|T041
heroin|C0011892|T121
nicely
##raverse
apron
congestion|C0700148|T046
##PR
padded
##fts
invaders
##came
freshly
Halle
endowed
fracture|C0016658|T037
ROM|C1562926|T059
##max
sediments
diffusion
dryly
##tara
Tam
Draw
Spin
Talon
Anthropology
##lify
nausea|C0027497|T184
##shirt
insert
Fresno
capitalist
indefinitely
apples
Gift
scooped
60s
Cooperative
mistakenly
##lover
murmur|C0018808|T033
##iger
Equipment
abusive
orphanage
##9th
##lterweight
##unda
Baird
ant
saloon
33rd
Chesapeake
##chair
##sound
##tend
chaotic
pornography
brace
##aret
heiress
SSR
resentment
Arbor
headmaster
##uren
unlimited
##with
##jn
Bram
Ely
Pokémon
pivotal
##guous
Database
Marta
Shine
stumbling|C3536730|T033
##ovsky
##skin
Henley
Polk
functioned
##layer
##pas
##udd
##MX
blackness
cadets
feral
Damian
##actions
2D
##yla
Apocalypse
##aic
inactivated
##china
##kovic
##bres
destroys
nap
Macy
sums
Madhya
Wisdom
rejects
##amel
60th
Cho
bandwidth
##sons
##obbing
##orama
Mutual
shafts
##estone
##rsen
accord
replaces
waterfront
##gonal
##rida
convictions
##ays
calmed
suppliers
Cummings
GMA
fearful|C0015726|T041
Scientist
Sinai
examines
experimented
Netflix
Enforcement
Scarlett
##lasia
Healthcare
##onte
Dude
inverted
##36
##regation
##lidae
Munro
##angay
Airbus
overlapping|C0185027|T061
Drivers
lawsuits
bodily
##udder
Wanda
Effects
Fathers
##finery
##islav
Ridley
observatory
pod
##utrition
Electricity
landslide
##mable
##zoic
##imator
##uration
Estates
sleepy|C0013144|T033
Nickelodeon
steaming|C0038225|T197
irony
schedules
snack
spikes
Hmm|C0019453|T131
##nesia
##bella
##hibit
Greenville
plucked
Harald
##ono
Gamma
infringement
roaring|C0234786|T047
deposition
##pol
##orum
660
seminal
passports
engagements
Akbar
rotated
##bina
##gart
Hartley
##lown
##truct
uttered
traumatic
Dex|C0011816|T121
##ôme
Holloway
MV
apartheid
##nee
Counter
Colton
OR
245
Spaniards
Regency
Schedule
scratching
squads
verify
##alk
keyboardist
rotten
Forestry
aids|C0001175|T047
commemorating
##yed
##érie
Sting|C0038340|T037
##elly
Dai
##fers
##berley
##ducted
Melvin
cannabis
glider
##enbach
##rban
Costello
Skating|C0037247|T056
cartoonist
AN
audit
##pectator
distributing
226
312
interpreter
header
Alternatively
##ases
smug
##kumar
cabins
remastered
Connolly
Kelsey
LED
tentative
Check
Sichuan
shaved|C0518505|T033
##42
Gerhard
Harvest
inward
##rque
Hopefully
hem|C0019080|T046
##34
Typical
binds
wrath
Woodstock
forcibly
Fergus
##charged
##tured
prepares
amenities
penetration
##ghan
coarse
##oned
enthusiasts
##av
##twined
fielded
##cky
Kiel
##obia
470
beers
tremble|C0234369|T184
youths
attendees
##cademies
##sex
Macon
communism
dir
##abi
Lennox
Wen|C0086809|T190
differentiate
jewel
##SO
activate
assert
laden
unto
Gillespie
Guillermo
accumulation
##GM
NGO
Rosenberg
calculating
drastically
##omorphic
peeled
Liège
insurgents
outdoors
##enia
Aspen
Sep
awakened
##eye
Consul
Maiden
insanity
##brian
furnace
Colours
distributions
longitudinal
syllables
##scent
Martian
accountant
Atkins
husbands
sewage
zur
collaborate
highlighting
##rites
##PI
colonization
nearer
##XT
dunes
positioning|C0150305|T061
Ku
multitude
luxurious
Volvo
linguistics
plotting
squared
##inder
outstretched
##uds
Fuji
ji
##feit
##ahu
##loat
##gado
##luster
##oku
América
##iza
Residents
vine
Pieces
DD
Vampires
##ová
smoked
harshly
spreads
##turn
##zhi
betray
electors
##settled
Considering
exploits
stamped
Dusty
enraged
Nairobi
##38
intervened
##luck
orchestras
##lda
Hereford
Jarvis
calf|C0230445|T029
##itzer
##CH
salesman
Lovers
cigar
Angelica
doomed
heroine
##tible
Sanford
offenders
##ulously
articulated
##oam
Emanuel
Gardiner
Edna
Shu
gigantic
##stable
Tallinn
coasts
Maker
ale
stalking
##oga
##smus
lucrative
southbound
##changing
Reg
##lants
Schleswig
discount
grouping
physiological
##OH
##sun
Galen
assurance
reconcile|C1960278|T109
rib|C0035561|T023
scarlet
Thatcher
anarchist
##oom
Turnpike
##ceding
cocktail
Sweeney|C3662000|T047
Allegheny
concessions
oppression|C0522171|T033
reassuring
##poli
##ticus
##TR
##VI
##uca
##zione
directional
strikeouts
Beneath
Couldn
Kabul
##national
hydroelectric
##jit
Desire
##riot
enhancing
northbound
##PO
Ok
Routledge
volatile
Bernardo
Python
333
ample
chestnut
automobiles
##innamon
##care
##hering
BWF
salaries
Turbo
acquisitions
##stituting
strengths
pilgrims
Ponce
Pig
Actors
Beard|C0221982|T023
sanitation
##RD
##mett
Telecommunications
worms|C0018889|T047
##idas
Juno
Larson
Ventura
Northeastern
weighs
Houghton
collaborating
lottery
##rano
Wonderland
gigs
##lmer
##zano
##edd
##nife
mixtape
predominant
tripped
##ruly
Alexei
investing
Belgarath
Brasil
hiss
##crat
##xham
Côte
560
kilometer
##cological
analyzing
##As
engined
listener
##cakes
negotiation
##hisky
Santana
##lemma
IAAF
Seneca
skeletal|C0037253|T022
Covenant
Steiner
##lev
##uen
Neptune
retention
##upon
Closing
Czechoslovak
chalk|C0205687|T197
Navarre
NZ
##IG
##hop
##oly
##quatorial
##sad
Brewery
Conflict
Them
renew
turrets
disagree
Petra
Slave
##reole
adjustment
##dela
##regard
##sner
framing
stature|C0424639|T033
##rca
##sies
##46
##mata
Logic
inadvertently
naturalist
spheres
towering
heightened
Dodd
rink
##fle
Keyboards
bulb|C0025148|T023
diver
ul
##tsk
Exodus|C3663648|T121
Deacon
España
Canadiens
oblique
thud
reigned
rug
Whitman
Dash
##iens
Haifa
pets
##arland
manually
dart
##bial
Sven
textiles
subgroup
Napier
graffiti
revolver
humming
Babu
protector
typed
Provinces
Sparta
Wills|C0042950|T041
subjective
##rella
temptation
##liest
FL
Sadie
manifest
Guangdong
Transfer
entertain
eve
recipes
##33
Benedictine
retailer
##dence
establishes
##cluded
##rked
Ursula
##ltz
##lars
##rena
qualifiers
##curement
colt
depictions
##oit
Spiritual
differentiation
staffed
transitional
##lew
1761
fatalities
##oan
Bayern
Northamptonshire
Weeks
##CU
Fife
capacities
hoarse|C0019825|T184
##latt
##ة
evidenced
##HD
##ographer
assessing
evolve
hints
42nd
streaked
##lve
Yahoo
##estive
##rned
##zas
baggage
Elected
secrecy
##champ
Character
Pen
Decca
cape|C0671970|T114
Bernardino
vapor
Dolly
counselor
##isers
Benin
##khar
##CR
notch
##thus
##racy
bounty
lend
grassland
##chtenstein
##dating
pseudo|C0722890|T109
golfer
simplest
##ceive
Lucivar
Triumph|C3643615|T196
dinosaur
dinosaurs
##šić
Seahawks
##nco
resorts
reelected
1766
reproduce
universally
##OA
ER
tendencies
Consolidated
Massey
Tasmanian
reckless
##icz
##ricks
1755
questionable
Audience
##lates
preseason
Quran
trivial
Haitian
Freeway
dialed
Appointed
Heard
ecosystems
##bula
hormones|C0019932|T125
Carbon|C0007009|T196
Rd
##arney
##working
Christoph
presiding
pu
##athy
Morrow
Dar|C0022595|T047
ensures
posing
remedy
EA
disclosed
##hui
##rten
rumours
surveying
##ficiency
Aziz
Jewel
Plays|C0600138|T033
##smatic
Bernhard
Christi
##eanut
##friend
jailed
##dr
govern
neighbour
butler
Acheron
murdering
oils|C0028908|T109
mac|C0009545|T129
Editorial
detectives
bolts
##ulon
Guitars
malaria|C0024530|T047
36th
Pembroke
Opened
##hium
harmonic
serum
##sio
Franks
fingernails|C0222001|T023
##gli
culturally
evolving
scalp|C0036270|T023
VP
deploy
uploaded
mater
##evo
Jammu
Spa
##icker
flirting
##cursions
Heidi
Majority
sprawled
##alytic
Zheng
bunker
##lena
ST
##tile
Jiang
ceilings
##ently
##ols
Recovery
dire
##good
Manson
Honestly
Montréal
1764
227
quota
Lakshmi
incentive
Accounting
##cilla
Eureka
Reaper
buzzed
##uh
courtroom
dub
##mberg
KC
Gong
Theodor
Académie
NPR
criticizing
protesting
##pired
##yric
abuses
fisheries
##minated
1767
yd
Gemini
Subcommittee
##fuse
Duff
Wasn
Wight
cleaner
##tite
planetary
Survivor
Zionist
mounds
##rary
landfall
disruption
yielding
##yana
bids
unidentified
Garry
Ellison
Elmer
Fishing
Hayward
demos
modelling
##anche
##stick
caressed
entertained
##hesion
piers
Crimea
##mass
WHO
boulder
trunks
1640
Biennale
Palestinians
Pursuit
##udes
Dora
contender
##dridge
Nanjing
##ezer
##former
##ibel
Whole
proliferation|C0334094|T046
##tide
##weiler
fuels
predictions
##ente
##onium
Filming
absorbing
Ramón
strangled
conveyed
inhabit
prostitutes
recession|C0333047|T190
bonded
clinched
##eak
##iji
##edar
Pleasure
Rite
Christy
Therapy|C0087111|T061
sarcasm
##collegiate
hilt
probation
Sarawak
coefficients
underworld
biodiversity
SBS
groom
brewing
dungeon
##claiming
Hari
turnover
##ntina
##omer
##opped
orthodox
styling
##tars
##ulata
priced
Marjorie
##eley
##abar
Yong
##tically
Crambidae
Hernandez
##ego
##rricular
##ark
##lamour
##llin
##augh
##tens
Advancement
Loyola
##4th
##hh
goin
marshes
Sardinia
##ša
Ljubljana
Singing
suspiciously
##hesive
Félix
Regarding
flap|C0038925|T023
stimulation|C1292856|T061
##raught
Apr|C2004459|T061
Yin
gaping
tighten
skier|C0425040|T033
##itas
##lad
##rani
264
Ashes
Olson
Problems
Tabitha
##rading
balancing|C0014653|T040
sunrise
##ease
##iture
##ritic
Fringe
##iciency
Inspired|C0004048|T040
Linnaeus
PBA|C0281398|T109
disapproval
##kles
##rka
##tails
##urger
Disaster
Laboratories
apps|C0699919|T126
paradise
Aero
Came
sneaking
Gee
Beacon
ODI
commodity
Ellington
graphical
Gretchen
spire
##skaya
##trine
RTÉ
efficacy
plc|C0031669|T126
tribunal
##ytic
downhill
flu|C0021400|T047
medications|C0013227|T121
##kaya
widen
Sunrise
##nous
distinguishing
pawn
##BO
##irn
##ssing
##ν
Easton
##vila
Rhineland
##aque
defect
##saurus
Goose|C2725897|T121
Ju
##classified
Middlesbrough
shaping
preached
1759
##erland
Ein|C1333394|T191
Hailey
musicals
##altered
Galileo
Hilda
Fighters
Lac
##ometric
295
Leafs
Milano
##lta
##VD
##ivist
penetrated
Mask
Orchard
plaintiff
##icorn
Yvonne
##fred
outfielder
peek
Collier
Caracas
repealed
Bois
dell
restrict
Dolores
Hadley
peacefully
##LL
condom
Granny
Orders
sabotage
##toon
##rings
compass
marshal
gears
brigadier
dye|C0013343|T130
Yunnan
communicating|C0566001|T033
donate
emerald
vitamin|C0042890|T127
administer
Fulham
##classical
##llas
Buckinghamshire
Held
layered
disclosure
Akira
programmer
shrimp|C2702382|T121
Crusade
##ximal
Luzon
bakery
##cute
Garth
Citadel
uniquely
Curling
info
mum
Para|C0030563|T033
##ști
sleek
##ione
hey
Lantern
mesh
##lacing
##lizzard
##gade
prosecuted
Alba|C0731378|T121
Gilles
greedy
twists
##ogged
Viper
##kata
Appearances
Skyla|C3531219|T125
hymns
##pelled
curving
predictable
Grave
Watford
##dford
##liptic
##vary
Westwood
fluids
Models
statutes
##ynamite
1740
##culate
Framework
Johanna
##gression
Vuelta
imp|C0021533|T114
##otion
##raga
##thouse
Ciudad
festivities
##love
Beyoncé
italics
##vance
DB
##haman
outs
Singers
##ueva
##urning
##51
##ntiary
##mobile
285
Mimi
emeritus
nesting
Keeper
Ways
##onal
##oux
Edmond
MMA
##bark
##oop
Hampson
##ñez
##rets
Gladstone
wreckage
Pont
Playboy
reluctance
##ná
apprenticeship
preferring
Value
originate
##wei
##olio
Alexia|C0002018|T048
##rog
Parachute
jammed
stud
Eton
vols
##ganized
1745
straining
creep
indicators
##mán
humiliation
hinted
alma
tanker
##egation
Haynes
Penang
amazement
branched
rumble
##ddington
archaeologists
paranoid
expenditure
Absolutely
Musicians
banished
##fining
baptism
Joker
Persons
hemisphere
##tieth
##ück
flock
##xing
lbs
Kung
crab|C2702369|T129
##dak
##tinent
Regulations
barrage
parcel
##ós
Tanaka
##rsa
Natalia
Voyage
flaws
stepfather
##aven
##eological
Botanical
Minsk
##ckers
Cinderella
Feast
Loving|C0024028|T041
Previous
Shark|C3486821|T109
##took
barrister
collaborators
##nnes
Croydon
Graeme
Juniors
##7th
##formation
##ulos
##ák
£2
##hwa
##rove
##ș
Whig
demeanor
Otago
##TH
##ooster
Faber
instructors
##ahl
##bha
emptied
##schen
saga
##lora
exploding
##rges
Crusaders
##caster
##uations
streaks
CBN|C0006865|T109
bows
insights|C0233820|T041
ka
1650
diversion|C0185033|T061
LSU
Wingspan
##liva
Response
sanity
Producers
imitation
##fine
Lange
Spokane
splash
weed
Siberian
magnet
##rocodile
capitals
##rgus
swelled
Rani
Bells
Silesia
arithmetic
rumor
##hampton
favors
Weird
marketplace
##orm
tsunami
unpredictable
##citation
##ferno
Tradition
postwar
stench
succeeds
##roup
Anya
Users
oversized
totaling
pouch
##nat
Tripoli
leverage
satin
##cline
Bathurst
Lund
Niall
thereof
##quid
Bangor
barge
Animated
##53
##alan
Ballard
utilizes
Done
ballistic
NDP
gatherings
##elin
##vening
Rockets
Sabrina
Tamara
Tribal
WTA
##citing
blinded
flux
Khalid
Una
prescription
##jee
Parents
##otics
##food
Silicon|C0037107|T196
cured
electro
perpendicular
intimacy
##rified
Lots
##ceiving
##powder
incentives
McKenna
##arma
##ounced
##rinkled
Alzheimer
##tarian
262
Seas
##cam
Novi
##hout
##morphic
##hazar
##hul
##nington
Huron
Bahadur
Pirate
pursed
Griffiths
indicted
swap
refrain
##mulating
Lal
stomped
##Pad
##mamoto
Reef
disposed
plastered
weeping|C0424109|T033
##rato
Minas
hourly
tumors|C0027651|T191
##ruising
Lyle
##yper
##sol
Odisha
credibility
##Dowell
Braun
Graphic
lurched
muster
##nex
##ührer
##connected
##iek
[...]
